#include "magic_wand_model_data.h"

// We need to keep the data array aligned on some architectures.
#ifdef __has_attribute
#define HAVE_ATTRIBUTE(x) __has_attribute(x)
#else
#define HAVE_ATTRIBUTE(x) 0
#endif
#if HAVE_ATTRIBUTE(aligned) || (defined(__GNUC__) && !defined(__clang__))
#define DATA_ALIGN_ATTRIBUTE __attribute__((aligned(4)))
#else
#define DATA_ALIGN_ATTRIBUTE
#endif

const unsigned char g_magic_wand_model_data[] DATA_ALIGN_ATTRIBUTE = {
  // Paste the data of the char array in `src/model.cc` here
  0x08, 0x00, 0x00, 0x00, 0x54, 0x46, 0x4c, 0x33, 0x62, 0xff, 0xff, 0xff,
  0x03, 0x00, 0x00, 0x00, 0x10, 0x00, 0x00, 0x00, 0x24, 0x00, 0x00, 0x00,
  0x78, 0x00, 0x00, 0x00, 0x24, 0x00, 0x00, 0x00, 0x05, 0x00, 0x00, 0x00,
  0x78, 0x05, 0x00, 0x00, 0xb0, 0x04, 0x00, 0x00, 0xe0, 0x02, 0x00, 0x00,
  0x60, 0x02, 0x00, 0x00, 0x54, 0x01, 0x00, 0x00, 0x01, 0x00, 0x00, 0x00,
  0x78, 0x00, 0x00, 0x00, 0x13, 0x00, 0x00, 0x00, 0xd4, 0x2f, 0x00, 0x00,
  0xd0, 0x2f, 0x00, 0x00, 0xdc, 0x2e, 0x00, 0x00, 0x68, 0x2e, 0x00, 0x00,
  0xfc, 0x2d, 0x00, 0x00, 0xac, 0x11, 0x00, 0x00, 0x98, 0x10, 0x00, 0x00,
  0xbc, 0x0e, 0x00, 0x00, 0x60, 0x06, 0x00, 0x00, 0xfc, 0x05, 0x00, 0x00,
  0x78, 0x05, 0x00, 0x00, 0xa8, 0x2f, 0x00, 0x00, 0xa4, 0x2f, 0x00, 0x00,
  0xa0, 0x2f, 0x00, 0x00, 0x9c, 0x2f, 0x00, 0x00, 0x98, 0x2f, 0x00, 0x00,
  0x94, 0x2f, 0x00, 0x00, 0x90, 0x2f, 0x00, 0x00, 0x8c, 0x2f, 0x00, 0x00,
  0x0f, 0x00, 0x00, 0x00, 0x4d, 0x4c, 0x49, 0x52, 0x20, 0x43, 0x6f, 0x6e,
  0x76, 0x65, 0x72, 0x74, 0x65, 0x64, 0x2e, 0x00, 0x00, 0x00, 0x0e, 0x00,
  0x18, 0x00, 0x04, 0x00, 0x08, 0x00, 0x0c, 0x00, 0x10, 0x00, 0x14, 0x00,
  0x0e, 0x00, 0x00, 0x00, 0x14, 0x00, 0x00, 0x00, 0x5c, 0x00, 0x00, 0x00,
  0x60, 0x00, 0x00, 0x00, 0x64, 0x00, 0x00, 0x00, 0x84, 0x00, 0x00, 0x00,
  0x12, 0x00, 0x00, 0x00, 0x04, 0x2f, 0x00, 0x00, 0xa0, 0x2e, 0x00, 0x00,
  0xf8, 0x2d, 0x00, 0x00, 0x98, 0x2d, 0x00, 0x00, 0x30, 0x2d, 0x00, 0x00,
  0xdc, 0x10, 0x00, 0x00, 0xc0, 0x0f, 0x00, 0x00, 0xe4, 0x0d, 0x00, 0x00,
  0xa0, 0x05, 0x00, 0x00, 0x3c, 0x05, 0x00, 0x00, 0xb0, 0x04, 0x00, 0x00,
  0xe8, 0x03, 0x00, 0x00, 0x38, 0x03, 0x00, 0x00, 0xa4, 0x02, 0x00, 0x00,
  0x10, 0x02, 0x00, 0x00, 0x90, 0x01, 0x00, 0x00, 0xfc, 0x00, 0x00, 0x00,
  0x80, 0x00, 0x00, 0x00, 0x01, 0x00, 0x00, 0x00, 0x00, 0x00, 0x00, 0x00,
  0x01, 0x00, 0x00, 0x00, 0x11, 0x00, 0x00, 0x00, 0x08, 0x00, 0x00, 0x00,
  0x1c, 0x04, 0x00, 0x00, 0x58, 0x03, 0x00, 0x00, 0xc8, 0x02, 0x00, 0x00,
  0x24, 0x02, 0x00, 0x00, 0xac, 0x01, 0x00, 0x00, 0x10, 0x01, 0x00, 0x00,
  0x94, 0x00, 0x00, 0x00, 0x10, 0x00, 0x00, 0x00, 0x04, 0x00, 0x00, 0x00,
  0x6d, 0x61, 0x69, 0x6e, 0x00, 0x00, 0x00, 0x00, 0x8e, 0xff, 0xff, 0xff,
  0x00, 0x00, 0x00, 0x09, 0x04, 0x00, 0x00, 0x00, 0x1c, 0x00, 0x00, 0x00,
  0x10, 0x00, 0x00, 0x00, 0x04, 0x00, 0x00, 0x00, 0x4e, 0xd2, 0xff, 0xff,
  0x00, 0x00, 0x80, 0x3f, 0x01, 0x00, 0x00, 0x00, 0x11, 0x00, 0x00, 0x00,
  0x01, 0x00, 0x00, 0x00, 0x10, 0x00, 0x00, 0x00, 0xf6, 0xfb, 0xff, 0xff,
  0x00, 0x00, 0x00, 0x19, 0x01, 0x00, 0x00, 0x00, 0xce, 0xd1, 0xff, 0xff,
  0x10, 0x00, 0x00, 0x00, 0x12, 0x00, 0x00, 0x00, 0x14, 0x00, 0x00, 0x00,
  0x20, 0x00, 0x00, 0x00, 0x02, 0x00, 0x00, 0x00, 0x01, 0x00, 0x00, 0x00,
  0x03, 0x00, 0x00, 0x00, 0x08, 0x00, 0x00, 0x00, 0x49, 0x64, 0x65, 0x6e,
  0x74, 0x69, 0x74, 0x79, 0x00, 0x00, 0x00, 0x00, 0x08, 0xd2, 0xff, 0xff,
  0x00, 0x00, 0x0e, 0x00, 0x18, 0x00, 0x08, 0x00, 0x0c, 0x00, 0x10, 0x00,
  0x07, 0x00, 0x14, 0x00, 0x0e, 0x00, 0x00, 0x00, 0x00, 0x00, 0x00, 0x08,
  0x03, 0x00, 0x00, 0x00, 0x18, 0x00, 0x00, 0x00, 0x0c, 0x00, 0x00, 0x00,
  0x04, 0x00, 0x00, 0x00, 0xdc, 0xd1, 0xff, 0xff, 0x01, 0x00, 0x00, 0x00,
  0x10, 0x00, 0x00, 0x00, 0x03, 0x00, 0x00, 0x00, 0x0f, 0x00, 0x00, 0x00,
  0x05, 0x00, 0x00, 0x00, 0x02, 0x00, 0x00, 0x00, 0x46, 0xd2, 0xff, 0xff,
  0x10, 0x00, 0x00, 0x00, 0x11, 0x00, 0x00, 0x00, 0x14, 0x00, 0x00, 0x00,
  0x30, 0x00, 0x00, 0x00, 0x02, 0x00, 0x00, 0x00, 0x01, 0x00, 0x00, 0x00,
  0x03, 0x00, 0x00, 0x00, 0x1a, 0x00, 0x00, 0x00, 0x73, 0x65, 0x71, 0x75,
  0x65, 0x6e, 0x74, 0x69, 0x61, 0x6c, 0x2f, 0x64, 0x65, 0x6e, 0x73, 0x65,
  0x5f, 0x31, 0x2f, 0x42, 0x69, 0x61, 0x73, 0x41, 0x64, 0x64, 0x00, 0x00,
  0x38, 0xd2, 0xff, 0xff, 0xd6, 0xfd, 0xff, 0xff, 0x00, 0x00, 0x00, 0x08,
  0x03, 0x00, 0x00, 0x00, 0x24, 0x00, 0x00, 0x00, 0x18, 0x00, 0x00, 0x00,
  0x0c, 0x00, 0x00, 0x00, 0x00, 0x00, 0x06, 0x00, 0x08, 0x00, 0x07, 0x00,
  0x06, 0x00, 0x00, 0x00, 0x00, 0x00, 0x00, 0x01, 0x01, 0x00, 0x00, 0x00,
  0x0f, 0x00, 0x00, 0x00, 0x03, 0x00, 0x00, 0x00, 0x0e, 0x00, 0x00, 0x00,
  0x04, 0x00, 0x00, 0x00, 0x01, 0x00, 0x00, 0x00, 0xfe, 0xfc, 0xff, 0xff,
  0x00, 0x00, 0x00, 0x09, 0x01, 0x00, 0x00, 0x00, 0xd6, 0xd2, 0xff, 0xff,
  0x10, 0x00, 0x00, 0x00, 0x10, 0x00, 0x00, 0x00, 0x14, 0x00, 0x00, 0x00,
  0x2c, 0x00, 0x00, 0x00, 0x02, 0x00, 0x00, 0x00, 0x01, 0x00, 0x00, 0x00,
  0x10, 0x00, 0x00, 0x00, 0x15, 0x00, 0x00, 0x00, 0x73, 0x65, 0x71, 0x75,
  0x65, 0x6e, 0x74, 0x69, 0x61, 0x6c, 0x2f, 0x64, 0x65, 0x6e, 0x73, 0x65,
  0x2f, 0x52, 0x65, 0x6c, 0x75, 0x00, 0x00, 0x00, 0x1c, 0xd3, 0xff, 0xff,
  0x00, 0x00, 0x0a, 0x00, 0x10, 0x00, 0x04, 0x00, 0x08, 0x00, 0x0c, 0x00,
  0x0a, 0x00, 0x00, 0x00, 0x02, 0x00, 0x00, 0x00, 0x10, 0x00, 0x00, 0x00,
  0x04, 0x00, 0x00, 0x00, 0x01, 0x00, 0x00, 0x00, 0x0e, 0x00, 0x00, 0x00,
  0x02, 0x00, 0x00, 0x00, 0x0d, 0x00, 0x00, 0x00, 0x03, 0x00, 0x00, 0x00,
  0x7a, 0xfd, 0xff, 0xff, 0x00, 0x00, 0x00, 0x16, 0x01, 0x00, 0x00, 0x00,
  0x52, 0xd3, 0xff, 0xff, 0x10, 0x00, 0x00, 0x00, 0x0f, 0x00, 0x00, 0x00,
  0x14, 0x00, 0x00, 0x00, 0x30, 0x00, 0x00, 0x00, 0x02, 0x00, 0x00, 0x00,
  0x01, 0x00, 0x00, 0x00, 0x70, 0x00, 0x00, 0x00, 0x1a, 0x00, 0x00, 0x00,
  0x73, 0x65, 0x71, 0x75, 0x65, 0x6e, 0x74, 0x69, 0x61, 0x6c, 0x2f, 0x66,
  0x6c, 0x61, 0x74, 0x74, 0x65, 0x6e, 0x2f, 0x52, 0x65, 0x73, 0x68, 0x61,
  0x70, 0x65, 0x00, 0x00, 0x44, 0xd3, 0xff, 0xff, 0xe2, 0xfe, 0xff, 0xff,
  0x00, 0x00, 0x00, 0x05, 0x01, 0x00, 0x00, 0x00, 0x38, 0x00, 0x00, 0x00,
  0x2c, 0x00, 0x00, 0x00, 0x14, 0x00, 0x00, 0x00, 0x00, 0x00, 0x0e, 0x00,
  0x14, 0x00, 0x00, 0x00, 0x10, 0x00, 0x0c, 0x00, 0x08, 0x00, 0x04, 0x00,
  0x0e, 0x00, 0x00, 0x00, 0x03, 0x00, 0x00, 0x00, 0x01, 0x00, 0x00, 0x00,
  0x03, 0x00, 0x00, 0x00, 0x01, 0x00, 0x00, 0x00, 0x01, 0x00, 0x00, 0x00,
  0x0d, 0x00, 0x00, 0x00, 0x01, 0x00, 0x00, 0x00, 0x0c, 0x00, 0x00, 0x00,
  0xe2, 0xd3, 0xff, 0xff, 0x10, 0x00, 0x00, 0x00, 0x0e, 0x00, 0x00, 0x00,
  0x1c, 0x00, 0x00, 0x00, 0x40, 0x00, 0x00, 0x00, 0x04, 0x00, 0x00, 0x00,
  0x01, 0x00, 0x00, 0x00, 0x07, 0x00, 0x00, 0x00, 0x01, 0x00, 0x00, 0x00,
  0x10, 0x00, 0x00, 0x00, 0x22, 0x00, 0x00, 0x00, 0x73, 0x65, 0x71, 0x75,
  0x65, 0x6e, 0x74, 0x69, 0x61, 0x6c, 0x2f, 0x6d, 0x61, 0x78, 0x5f, 0x70,
  0x6f, 0x6f, 0x6c, 0x69, 0x6e, 0x67, 0x32, 0x64, 0x5f, 0x31, 0x2f, 0x4d,
  0x61, 0x78, 0x50, 0x6f, 0x6f, 0x6c, 0x00, 0x00, 0xe4, 0xd3, 0xff, 0xff,
  0xc2, 0xfe, 0xff, 0xff, 0x00, 0x00, 0x00, 0x01, 0x24, 0x00, 0x00, 0x00,
  0x18, 0x00, 0x00, 0x00, 0x04, 0x00, 0x00, 0x00, 0xb4, 0xfe, 0xff, 0xff,
  0x01, 0x00, 0x00, 0x00, 0x01, 0x00, 0x00, 0x00, 0x00, 0x00, 0x00, 0x01,
  0x01, 0x00, 0x00, 0x00, 0x0c, 0x00, 0x00, 0x00, 0x03, 0x00, 0x00, 0x00,
  0x0b, 0x00, 0x00, 0x00, 0x07, 0x00, 0x00, 0x00, 0x09, 0x00, 0x00, 0x00,
  0x72, 0xd4, 0xff, 0xff, 0x10, 0x00, 0x00, 0x00, 0x0d, 0x00, 0x00, 0x00,
  0x1c, 0x00, 0x00, 0x00, 0x2c, 0x00, 0x00, 0x00, 0x04, 0x00, 0x00, 0x00,
  0x01, 0x00, 0x00, 0x00, 0x15, 0x00, 0x00, 0x00, 0x01, 0x00, 0x00, 0x00,
  0x10, 0x00, 0x00, 0x00, 0x0c, 0x00, 0x00, 0x00, 0x74, 0x66, 0x6c, 0x2e,
  0x63, 0x6f, 0x6e, 0x76, 0x5f, 0x32, 0x64, 0x31, 0x00, 0x00, 0x00, 0x00,
  0xb8, 0xd4, 0xff, 0xff, 0x00, 0x00, 0x0e, 0x00, 0x1a, 0x00, 0x08, 0x00,
  0x0c, 0x00, 0x10, 0x00, 0x07, 0x00, 0x14, 0x00, 0x0e, 0x00, 0x00, 0x00,
  0x00, 0x00, 0x00, 0x05, 0x01, 0x00, 0x00, 0x00, 0x3c, 0x00, 0x00, 0x00,
  0x30, 0x00, 0x00, 0x00, 0x14, 0x00, 0x00, 0x00, 0x00, 0x00, 0x0e, 0x00,
  0x18, 0x00, 0x17, 0x00, 0x10, 0x00, 0x0c, 0x00, 0x08, 0x00, 0x04, 0x00,
  0x0e, 0x00, 0x00, 0x00, 0x03, 0x00, 0x00, 0x00, 0x03, 0x00, 0x00, 0x00,
  0x03, 0x00, 0x00, 0x00, 0x03, 0x00, 0x00, 0x00, 0x00, 0x00, 0x00, 0x01,
  0x01, 0x00, 0x00, 0x00, 0x0b, 0x00, 0x00, 0x00, 0x01, 0x00, 0x00, 0x00,
  0x0a, 0x00, 0x00, 0x00, 0x46, 0xff, 0xff, 0xff, 0x00, 0x00, 0x00, 0x11,
  0x01, 0x00, 0x00, 0x00, 0x1e, 0xd5, 0xff, 0xff, 0x10, 0x00, 0x00, 0x00,
  0x0c, 0x00, 0x00, 0x00, 0x1c, 0x00, 0x00, 0x00, 0x40, 0x00, 0x00, 0x00,
  0x04, 0x00, 0x00, 0x00, 0x01, 0x00, 0x00, 0x00, 0x15, 0x00, 0x00, 0x00,
  0x01, 0x00, 0x00, 0x00, 0x08, 0x00, 0x00, 0x00, 0x20, 0x00, 0x00, 0x00,
  0x73, 0x65, 0x71, 0x75, 0x65, 0x6e, 0x74, 0x69, 0x61, 0x6c, 0x2f, 0x6d,
  0x61, 0x78, 0x5f, 0x70, 0x6f, 0x6f, 0x6c, 0x69, 0x6e, 0x67, 0x32, 0x64,
  0x2f, 0x4d, 0x61, 0x78, 0x50, 0x6f, 0x6f, 0x6c, 0x00, 0x00, 0x00, 0x00,
  0x78, 0xd5, 0xff, 0xff, 0x00, 0x00, 0x0e, 0x00, 0x14, 0x00, 0x00, 0x00,
  0x08, 0x00, 0x0c, 0x00, 0x07, 0x00, 0x10, 0x00, 0x0e, 0x00, 0x00, 0x00,
  0x00, 0x00, 0x00, 0x01, 0x30, 0x00, 0x00, 0x00, 0x24, 0x00, 0x00, 0x00,
  0x10, 0x00, 0x00, 0x00, 0x0c, 0x00, 0x10, 0x00, 0x00, 0x00, 0x04, 0x00,
  0x08, 0x00, 0x0f, 0x00, 0x0c, 0x00, 0x00, 0x00, 0x01, 0x00, 0x00, 0x00,
  0x01, 0x00, 0x00, 0x00, 0x00, 0x00, 0x00, 0x01, 0x01, 0x00, 0x00, 0x00,
  0x0a, 0x00, 0x00, 0x00, 0x03, 0x00, 0x00, 0x00, 0x00, 0x00, 0x00, 0x00,
  0x06, 0x00, 0x00, 0x00, 0x08, 0x00, 0x00, 0x00, 0x00, 0x00, 0x0a, 0x00,
  0x0c, 0x00, 0x07, 0x00, 0x00, 0x00, 0x08, 0x00, 0x0a, 0x00, 0x00, 0x00,
  0x00, 0x00, 0x00, 0x03, 0x01, 0x00, 0x00, 0x00, 0xe2, 0xd5, 0xff, 0xff,
  0x10, 0x00, 0x00, 0x00, 0x0b, 0x00, 0x00, 0x00, 0x1c, 0x00, 0x00, 0x00,
  0x28, 0x00, 0x00, 0x00, 0x04, 0x00, 0x00, 0x00, 0x01, 0x00, 0x00, 0x00,
  0x40, 0x00, 0x00, 0x00, 0x03, 0x00, 0x00, 0x00, 0x08, 0x00, 0x00, 0x00,
  0x0b, 0x00, 0x00, 0x00, 0x74, 0x66, 0x6c, 0x2e, 0x63, 0x6f, 0x6e, 0x76,
  0x5f, 0x32, 0x64, 0x00, 0xcc, 0xd5, 0xff, 0xff, 0xc2, 0xd6, 0xff, 0xff,
  0x04, 0x00, 0x00, 0x00, 0x40, 0x00, 0x00, 0x00, 0xdb, 0x7b, 0x86, 0x3f,
  0x5b, 0x8f, 0x30, 0xbf, 0x96, 0x1a, 0xfe, 0xbf, 0x97, 0x52, 0x51, 0xbe,
  0xae, 0xa6, 0xc0, 0xbd, 0x34, 0x95, 0xad, 0x3f, 0x95, 0x88, 0x0c, 0xc0,
  0x0d, 0x80, 0xdd, 0x3e, 0x4d, 0xaf, 0x3b, 0x40, 0x71, 0x1f, 0x3b, 0xbf,
  0xf9, 0xbb, 0x38, 0xc0, 0x3d, 0x55, 0x41, 0xc0, 0x36, 0xc0, 0xd3, 0x3e,
  0xeb, 0xd3, 0x9b, 0xbf, 0xc0, 0xa0, 0x94, 0xbf, 0x45, 0xe3, 0x27, 0xc0,
  0x6a, 0xd6, 0xff, 0xff, 0x10, 0x00, 0x00, 0x00, 0x0a, 0x00, 0x00, 0x00,
  0x10, 0x00, 0x00, 0x00, 0x20, 0x00, 0x00, 0x00, 0x01, 0x00, 0x00, 0x00,
  0x10, 0x00, 0x00, 0x00, 0x0d, 0x00, 0x00, 0x00, 0x73, 0x74, 0x64, 0x2e,
  0x63, 0x6f, 0x6e, 0x73, 0x74, 0x61, 0x6e, 0x74, 0x31, 0x00, 0x00, 0x00,
  0x4c, 0xd6, 0xff, 0xff, 0x42, 0xd7, 0xff, 0xff, 0x04, 0x00, 0x00, 0x00,
  0x20, 0x00, 0x00, 0x00, 0xb9, 0xa0, 0xc7, 0xbe, 0xe6, 0x7e, 0xa4, 0xbf,
  0xc7, 0x3c, 0x6f, 0x3d, 0x84, 0x66, 0x48, 0xc0, 0x17, 0x9c, 0xf3, 0xbf,
  0xde, 0x8f, 0xb5, 0x3e, 0x32, 0x7b, 0x1c, 0xc0, 0xf6, 0x0c, 0xec, 0xbf,
  0xca, 0xd6, 0xff, 0xff, 0x10, 0x00, 0x00, 0x00, 0x09, 0x00, 0x00, 0x00,
  0x10, 0x00, 0x00, 0x00, 0x20, 0x00, 0x00, 0x00, 0x01, 0x00, 0x00, 0x00,
  0x08, 0x00, 0x00, 0x00, 0x0c, 0x00, 0x00, 0x00, 0x73, 0x74, 0x64, 0x2e,
  0x63, 0x6f, 0x6e, 0x73, 0x74, 0x61, 0x6e, 0x74, 0x00, 0x00, 0x00, 0x00,
  0xac, 0xd6, 0xff, 0xff, 0xa2, 0xd7, 0xff, 0xff, 0x04, 0x00, 0x00, 0x00,
  0x00, 0x08, 0x00, 0x00, 0x4e, 0x2c, 0x3b, 0x3c, 0xc6, 0x65, 0x8c, 0x3d,
  0x54, 0x56, 0x96, 0x3e, 0xc4, 0x10, 0x72, 0x3e, 0xfb, 0xfa, 0x76, 0x3e,
  0x65, 0x84, 0x55, 0x3d, 0x15, 0x16, 0xb3, 0xbe, 0x78, 0x4e, 0x6e, 0x3d,
  0x9c, 0xe9, 0x34, 0x3d, 0xcf, 0x85, 0x9d, 0x3b, 0xa6, 0x60, 0x90, 0xbd,
  0xb4, 0x9e, 0xa0, 0x3d, 0x72, 0xca, 0x9a, 0x3d, 0x41, 0x96, 0x39, 0xbe,
  0x86, 0x91, 0xec, 0xbe, 0xef, 0xd2, 0xe1, 0x3d, 0xe5, 0xb8, 0x11, 0xbe,
  0x36, 0x5a, 0xc6, 0xbc, 0xd2, 0xfd, 0x9f, 0x3d, 0xb9, 0xa3, 0x38, 0x3d,
  0xf0, 0x62, 0x59, 0x3e, 0x8e, 0xc4, 0xad, 0x3c, 0x3c, 0xc5, 0xed, 0xbe,
  0x7f, 0xb2, 0x09, 0x3e, 0xf1, 0xdf, 0x77, 0xbe, 0x32, 0x99, 0x73, 0x3d,
  0x62, 0x0c, 0x22, 0x3d, 0xf4, 0x6d, 0x35, 0x3e, 0xbb, 0x6a, 0x5c, 0x3e,
  0x0d, 0xbc, 0x20, 0x3d, 0xb0, 0xbe, 0xb9, 0xbe, 0x63, 0x4f, 0xd3, 0x3d,
  0x7b, 0x65, 0x73, 0xbe, 0x41, 0xd3, 0x0d, 0xbb, 0x76, 0x6b, 0xb9, 0xbe,
  0xea, 0x0e, 0xe2, 0x3e, 0x22, 0x6e, 0x2b, 0x3f, 0x7f, 0x1e, 0x0d, 0x3d,
  0x47, 0x66, 0x81, 0xbe, 0xa0, 0x85, 0x64, 0xbe, 0x0c, 0xfa, 0x60, 0xbe,
  0xc9, 0x0b, 0x59, 0x3e, 0xc7, 0x95, 0x68, 0xbe, 0xc6, 0x2c, 0x61, 0x3e,
  0xfd, 0xfe, 0x67, 0x3e, 0x9a, 0x7e, 0x20, 0xbc, 0x7d, 0xe6, 0x22, 0xbe,
  0x27, 0x2f, 0x31, 0xbd, 0x97, 0x1a, 0x77, 0xbe, 0x9b, 0x24, 0x3e, 0xbd,
  0x26, 0xb0, 0x11, 0xbe, 0x53, 0x54, 0xc4, 0xba, 0x0a, 0x1b, 0xff, 0xbd,
  0x26, 0x37, 0xc1, 0x3d, 0x48, 0xbc, 0xef, 0xbd, 0x8e, 0x1d, 0x0d, 0x3e,
  0xb1, 0x8a, 0x8d, 0xbe, 0xd9, 0x79, 0xa1, 0xbd, 0xeb, 0xd2, 0x13, 0x3e,
  0xb7, 0x6c, 0x6e, 0x3e, 0x5a, 0xf9, 0xc7, 0x3d, 0xc2, 0x67, 0xac, 0xbd,
  0x7b, 0xf2, 0x51, 0xbd, 0x07, 0x5d, 0x9a, 0x3d, 0xda, 0x78, 0x21, 0xbe,
  0xe0, 0x69, 0xa4, 0xbe, 0x36, 0xf3, 0x64, 0x3e, 0xf8, 0x21, 0x88, 0xbc,
  0x1d, 0xae, 0xed, 0x3e, 0x70, 0xb3, 0x6b, 0xbe, 0x5c, 0xf2, 0x68, 0x3e,
  0xc6, 0x6a, 0x68, 0xbe, 0x1c, 0x7b, 0x5a, 0xbe, 0xce, 0x3a, 0x08, 0xbe,
  0xc5, 0x5b, 0x2e, 0xbc, 0xa3, 0x94, 0x00, 0x3c, 0x3a, 0x66, 0x31, 0xbe,
  0xa3, 0xac, 0x53, 0xbe, 0x11, 0x0d, 0x13, 0xbe, 0xc0, 0x55, 0xbf, 0xbe,
  0x34, 0x39, 0xdb, 0xbd, 0xec, 0x56, 0xb7, 0xbd, 0x05, 0xbd, 0xa9, 0xbd,
  0xb2, 0x1c, 0x81, 0x3d, 0xdc, 0x9c, 0xf6, 0xbd, 0xfe, 0xf6, 0xc9, 0xbc,
  0x53, 0xff, 0x43, 0xbe, 0x71, 0xa8, 0x8b, 0xbc, 0x8d, 0x7d, 0x6a, 0x3e,
  0x37, 0x1b, 0x25, 0x3f, 0xb4, 0x58, 0x4b, 0xbe, 0x22, 0x55, 0x5f, 0xba,
  0xd9, 0x85, 0x09, 0xbe, 0x5b, 0x34, 0xa9, 0x3d, 0x04, 0xa0, 0x4b, 0xbe,
  0xd3, 0xe9, 0xaa, 0x3e, 0x58, 0x9d, 0x96, 0xbe, 0x71, 0x52, 0x4b, 0x3e,
  0x9b, 0xb0, 0x9d, 0xbe, 0xb6, 0x38, 0x1c, 0x3e, 0xd2, 0x0e, 0xa1, 0x3d,
  0x3c, 0x09, 0x7e, 0xbd, 0x93, 0xdd, 0x42, 0xbe, 0x62, 0xd4, 0x41, 0x3e,
  0x99, 0x95, 0xe8, 0xbe, 0x13, 0xc7, 0x6a, 0xbe, 0x90, 0xff, 0x11, 0xbd,
  0xa4, 0xdd, 0xca, 0x3e, 0xaa, 0x8b, 0x85, 0xbd, 0x8a, 0x78, 0x83, 0xbd,
  0xf4, 0x3c, 0x09, 0xbe, 0xe1, 0x9e, 0x41, 0xbe, 0xe3, 0x9c, 0x77, 0xbe,
  0xb7, 0xd9, 0x66, 0xbe, 0x67, 0xf1, 0x60, 0xbd, 0xf9, 0x21, 0xfd, 0xbe,
  0x75, 0x7e, 0x10, 0xbe, 0xd0, 0x20, 0xe3, 0x3d, 0x15, 0xfc, 0x73, 0xbc,
  0x76, 0x1b, 0xef, 0xbd, 0x3c, 0x3f, 0x43, 0xbd, 0x01, 0x7a, 0xf3, 0x3d,
  0x1c, 0xcc, 0x80, 0x3e, 0x41, 0x07, 0xb4, 0xbe, 0xbd, 0x4b, 0xc9, 0x3e,
  0x02, 0x11, 0xd5, 0x3d, 0x0c, 0x7d, 0x20, 0xbb, 0x53, 0x41, 0xe0, 0xbd,
  0xb4, 0x7d, 0x28, 0xbe, 0xfa, 0x94, 0x16, 0xbd, 0xc9, 0xd3, 0x10, 0xbe,
  0x6e, 0xb8, 0x05, 0x3e, 0x19, 0xec, 0xcc, 0xbd, 0x80, 0xd1, 0x12, 0xbe,
  0x0e, 0xdb, 0x4b, 0xbe, 0x95, 0xf4, 0xe1, 0x3a, 0x29, 0xc2, 0x5c, 0x3b,
  0x3d, 0x5c, 0x28, 0x3e, 0x1a, 0xb2, 0x82, 0xbe, 0xa9, 0x4e, 0xc4, 0x3c,
  0x51, 0x4b, 0xa2, 0x3d, 0xef, 0xa7, 0x3d, 0x3e, 0x0a, 0x28, 0xf3, 0xbd,
  0xde, 0xdc, 0x31, 0x3e, 0xe8, 0xb0, 0x03, 0x3d, 0x93, 0x92, 0x4e, 0xbd,
  0x8c, 0x5d, 0x56, 0xbe, 0x47, 0xa4, 0x36, 0x3d, 0xe0, 0x53, 0x6c, 0xbe,
  0x83, 0xf4, 0x81, 0x3c, 0xce, 0x71, 0x06, 0xbe, 0xfb, 0xd2, 0x80, 0x3d,
  0xca, 0x64, 0x1a, 0x3e, 0x88, 0x41, 0x87, 0xbd, 0x3a, 0x79, 0x54, 0x3d,
  0xb4, 0xd8, 0x14, 0x3e, 0x73, 0xbc, 0x0b, 0xbd, 0x40, 0x13, 0x39, 0xbd,
  0xe5, 0x5c, 0x5e, 0xbd, 0x83, 0xca, 0x76, 0x3d, 0x8d, 0x37, 0xe2, 0xba,
  0xd2, 0x6a, 0xc0, 0xbd, 0x61, 0xbe, 0x1e, 0x3d, 0x30, 0xb4, 0x69, 0x3c,
  0x55, 0x6e, 0x22, 0xbd, 0x2b, 0xc6, 0x44, 0xbd, 0xb9, 0xcb, 0xcc, 0x3d,
  0x16, 0x6c, 0x93, 0xbd, 0xb5, 0x42, 0x52, 0xbd, 0x55, 0x71, 0x3a, 0xbd,
  0x57, 0x54, 0x59, 0x3e, 0xdb, 0x9d, 0x24, 0x3e, 0x11, 0x11, 0x8c, 0x3b,
  0x5d, 0xed, 0x22, 0x3e, 0x2f, 0xd1, 0x5a, 0xbc, 0x86, 0xff, 0xb9, 0x3c,
  0x9c, 0xcc, 0x0c, 0x3e, 0xc0, 0xfb, 0xb9, 0x3d, 0x00, 0x85, 0xb0, 0x3d,
  0xbc, 0x9e, 0xcf, 0x3d, 0x66, 0xa9, 0x77, 0xbd, 0xd6, 0xcc, 0x35, 0x3d,
  0x92, 0xd2, 0xd6, 0xbb, 0xef, 0xca, 0x59, 0x3c, 0x6f, 0xbb, 0xeb, 0xbd,
  0xea, 0x29, 0x12, 0x3d, 0xe1, 0x73, 0x14, 0xbe, 0xa4, 0x55, 0x0a, 0xbe,
  0xda, 0x4b, 0x08, 0xbd, 0x34, 0x35, 0xe2, 0x3d, 0x18, 0x8b, 0x42, 0x3e,
  0xbe, 0x90, 0x05, 0x3c, 0x4c, 0x6b, 0x90, 0xbd, 0xab, 0xd6, 0xe2, 0x3e,
  0xf4, 0xcc, 0x1e, 0xbf, 0xd4, 0x93, 0xf8, 0x3d, 0x79, 0x13, 0x0e, 0x3f,
  0x51, 0x68, 0x0c, 0x3d, 0x58, 0xba, 0x6f, 0xbd, 0x71, 0xb7, 0x81, 0xbe,
  0xd1, 0xad, 0x81, 0xbd, 0x3e, 0x80, 0xb9, 0xbd, 0x19, 0xcc, 0xf8, 0xbe,
  0x64, 0xd3, 0x35, 0x3e, 0x4a, 0x6b, 0x9c, 0xbe, 0xa6, 0x52, 0xb7, 0x3c,
  0x2f, 0x46, 0xf6, 0xbd, 0x20, 0x18, 0xe2, 0x3d, 0x66, 0xcc, 0x84, 0xbd,
  0x13, 0x9d, 0x6b, 0xbd, 0x0d, 0x9b, 0x1d, 0x3d, 0x78, 0x4d, 0xff, 0x3d,
  0xa3, 0x4c, 0x30, 0xbe, 0x21, 0x20, 0x4d, 0xbd, 0x00, 0x58, 0x51, 0xbd,
  0xd3, 0x40, 0xa4, 0xbd, 0xbd, 0xfe, 0x08, 0xbd, 0xf9, 0x77, 0xe8, 0xbd,
  0x07, 0x97, 0x15, 0x3e, 0x2b, 0x0a, 0x6a, 0xbf, 0x90, 0xfa, 0x4e, 0x3d,
  0xd0, 0xaf, 0x05, 0xbe, 0xcc, 0x12, 0x8d, 0xbd, 0xdb, 0xea, 0xac, 0xbe,
  0xf8, 0x28, 0xc8, 0xbd, 0x01, 0x98, 0x84, 0xbe, 0x7b, 0x05, 0x5c, 0xbf,
  0xed, 0x74, 0x7e, 0x3a, 0xb0, 0xdf, 0x10, 0xbe, 0xc6, 0xfa, 0xa6, 0xbe,
  0x18, 0x50, 0x2c, 0xbe, 0xd1, 0xdb, 0x44, 0xbf, 0xe7, 0xac, 0xb5, 0x3d,
  0x8e, 0xcf, 0xa6, 0xbd, 0xd0, 0x92, 0x77, 0xbe, 0x0e, 0x25, 0x5b, 0x3d,
  0xdf, 0x2e, 0x62, 0xbe, 0xbb, 0x50, 0xc9, 0x3d, 0x0f, 0x2d, 0xad, 0x3e,
  0x3b, 0x4f, 0x83, 0x3d, 0x9d, 0xdb, 0xb0, 0xbd, 0x50, 0xfa, 0x6e, 0xbd,
  0x23, 0xea, 0xba, 0xbe, 0x50, 0x16, 0xac, 0xbe, 0x5f, 0x31, 0xad, 0xbe,
  0x89, 0xf9, 0xd6, 0x3d, 0x50, 0x20, 0x06, 0xbd, 0xc6, 0xa5, 0x2d, 0xbe,
  0x7f, 0xdc, 0x03, 0xbe, 0x94, 0x36, 0x71, 0x3d, 0x0e, 0xa1, 0xbb, 0xbe,
  0x6f, 0x14, 0xe2, 0x3b, 0x89, 0xed, 0xb9, 0x3c, 0xdc, 0x48, 0xee, 0x3d,
  0x3c, 0xbf, 0x89, 0x3d, 0x55, 0x3e, 0xa2, 0xbd, 0x32, 0x74, 0x00, 0xbd,
  0x70, 0x95, 0x24, 0x3e, 0xde, 0x6c, 0x9b, 0xbb, 0xe9, 0x07, 0x77, 0xbd,
  0x37, 0xb6, 0xf3, 0xbc, 0x14, 0xf4, 0xf8, 0x3d, 0xd9, 0xe9, 0xd5, 0xbd,
  0x94, 0x75, 0x8c, 0x3d, 0xdf, 0xbd, 0x4c, 0xbe, 0x17, 0xfa, 0xd7, 0x3d,
  0xaa, 0xfa, 0x4c, 0xbd, 0xd1, 0x16, 0xa6, 0xbd, 0xaf, 0xf7, 0x0d, 0xbe,
  0x99, 0xff, 0x64, 0xbd, 0x02, 0xa1, 0x6f, 0xbe, 0x77, 0x82, 0x0d, 0xbe,
  0x5f, 0xee, 0x9e, 0x3d, 0x17, 0x5f, 0x97, 0xbd, 0x3f, 0x61, 0x54, 0xbe,
  0x95, 0x82, 0x4e, 0x3c, 0x7c, 0x5f, 0x26, 0xbe, 0xa8, 0x91, 0x8d, 0x3e,
  0xcd, 0x5b, 0x65, 0xbe, 0x3b, 0x22, 0x76, 0xbd, 0x4e, 0x48, 0xcb, 0xbe,
  0x28, 0xd7, 0x73, 0xbe, 0x84, 0x2d, 0x70, 0x3e, 0x89, 0xfb, 0xf8, 0xbe,
  0xb6, 0xee, 0x0f, 0xbf, 0x43, 0x6c, 0x0b, 0xbe, 0x21, 0x1f, 0x26, 0xbe,
  0x97, 0x3a, 0x3f, 0xbe, 0xb8, 0x25, 0x6f, 0xbd, 0x21, 0xc0, 0x3a, 0xbe,
  0x9e, 0x64, 0x87, 0xbe, 0xa6, 0xe4, 0x99, 0xbe, 0x5e, 0xe9, 0x0c, 0xbf,
  0x78, 0x0b, 0xc4, 0xbd, 0xee, 0x8f, 0x8e, 0xbe, 0x6d, 0xe2, 0x24, 0xbe,
  0x0d, 0xc5, 0x37, 0x3c, 0xe4, 0xac, 0x72, 0xbd, 0x87, 0xec, 0x55, 0xbe,
  0x0f, 0xea, 0x69, 0xbe, 0x8d, 0xb8, 0x1e, 0xbe, 0x18, 0x54, 0x05, 0xbd,
  0x9c, 0x7a, 0x25, 0xbe, 0x35, 0x15, 0x34, 0x3b, 0x26, 0x0d, 0x22, 0x3c,
  0x8d, 0x04, 0x87, 0xbd, 0x66, 0x6a, 0x69, 0xbe, 0x16, 0x73, 0xe2, 0xbe,
  0x7f, 0xe6, 0x87, 0x3e, 0xbe, 0x81, 0x43, 0xbd, 0x9a, 0x23, 0xc8, 0xbd,
  0xe2, 0xf4, 0xda, 0xbd, 0xbd, 0x84, 0x88, 0xbb, 0x96, 0x61, 0x1a, 0x3f,
  0xf0, 0xa9, 0x84, 0xbe, 0x21, 0x66, 0x04, 0x3e, 0x5a, 0xfc, 0x0a, 0x3f,
  0x4f, 0xa3, 0x20, 0x3d, 0xd5, 0xf4, 0x91, 0xbd, 0xd7, 0x91, 0xb1, 0xbd,
  0x2b, 0x76, 0x54, 0xbd, 0xd4, 0xb3, 0x36, 0x3e, 0x5c, 0x7a, 0x08, 0xbe,
  0x22, 0xf5, 0x0a, 0x3f, 0xcf, 0x3c, 0xdf, 0x3d, 0xfb, 0xa6, 0x01, 0x3a,
  0xd7, 0xb0, 0x1d, 0xbd, 0x35, 0x44, 0x0f, 0x3e, 0x69, 0x58, 0x7c, 0x3d,
  0x05, 0xdf, 0x60, 0xbe, 0x99, 0xb3, 0xba, 0xbc, 0xea, 0x3a, 0x98, 0x3e,
  0x31, 0x07, 0xc6, 0xbd, 0xaa, 0x6a, 0xe1, 0xbd, 0x01, 0xb3, 0xef, 0x3b,
  0xd4, 0x70, 0x41, 0x3e, 0xb6, 0xa3, 0xfa, 0xbc, 0x4d, 0xab, 0x1d, 0xbe,
  0xfc, 0x3b, 0xc1, 0x3c, 0x27, 0xb3, 0xf9, 0xbe, 0xf2, 0x83, 0xcc, 0xbc,
  0xd9, 0xe8, 0xc9, 0xbd, 0x48, 0x55, 0xbd, 0x3d, 0xa3, 0x39, 0x90, 0xbd,
  0x35, 0x7b, 0x92, 0xbd, 0x65, 0x35, 0xc0, 0xbd, 0x22, 0xd9, 0xaa, 0xbc,
  0x95, 0xd8, 0xec, 0xbe, 0xc2, 0xc2, 0x61, 0xbd, 0xa8, 0xc3, 0xd0, 0xb8,
  0xcf, 0x9d, 0x3b, 0xbd, 0x03, 0x83, 0x9a, 0xbe, 0xd6, 0xce, 0x62, 0xbd,
  0xfc, 0xb4, 0x51, 0x3e, 0x34, 0xfc, 0x2f, 0xbe, 0xdc, 0xf0, 0xb1, 0x3e,
  0xc4, 0xdd, 0x8b, 0xbd, 0xef, 0x1f, 0xda, 0x3d, 0x8e, 0xd9, 0x38, 0xbe,
  0x4b, 0x8b, 0x69, 0xbe, 0x4f, 0xfa, 0x93, 0xbd, 0x4f, 0xdd, 0x9e, 0xbe,
  0xaa, 0xf4, 0x20, 0xbe, 0x10, 0x1c, 0x83, 0xbd, 0x4b, 0x3b, 0xb3, 0xbe,
  0x2c, 0xe3, 0xdf, 0xbc, 0x87, 0xfb, 0xd2, 0xbd, 0x3e, 0xfb, 0xc6, 0x3e,
  0xa2, 0x47, 0xa0, 0x3b, 0xad, 0xb1, 0x03, 0xbf, 0xd4, 0x6e, 0x90, 0x3d,
  0xf6, 0x12, 0xcf, 0x3e, 0x0f, 0x19, 0x19, 0x3e, 0x5c, 0x3d, 0x68, 0xbe,
  0x99, 0xed, 0xa9, 0x3d, 0xd8, 0xa0, 0xba, 0xbc, 0x59, 0xce, 0x83, 0xbd,
  0xff, 0xe2, 0xc6, 0xbe, 0x61, 0x09, 0x59, 0x3d, 0x72, 0xd6, 0x7c, 0xbe,
  0x16, 0x1c, 0x9f, 0x3e, 0x35, 0xe6, 0x7a, 0xbe, 0xe7, 0x17, 0x63, 0x3d,
  0x54, 0x45, 0x6b, 0xbe, 0xa1, 0x01, 0x5f, 0xbe, 0x77, 0x64, 0x11, 0xbe,
  0xa9, 0x57, 0x11, 0xbe, 0xc5, 0x46, 0x03, 0xbc, 0xd4, 0xc0, 0xd6, 0xbd,
  0x8c, 0x7a, 0x9a, 0xbe, 0x64, 0x12, 0x8a, 0xbe, 0x9f, 0xad, 0x01, 0xbe,
  0x0a, 0x9d, 0xfe, 0x3c, 0x2f, 0x3e, 0x91, 0xbd, 0xf9, 0xc2, 0x52, 0x3e,
  0x14, 0x8d, 0xe4, 0xbc, 0xff, 0x22, 0xad, 0xbd, 0xc4, 0x3a, 0x3b, 0xbe,
  0x1a, 0xb3, 0xf3, 0x3e, 0x94, 0x15, 0xb4, 0xbc, 0xc3, 0x9b, 0xbe, 0xbd,
  0x04, 0x17, 0xff, 0x3d, 0xf5, 0x50, 0xb2, 0xbd, 0x28, 0x26, 0x7b, 0xbc,
  0x13, 0xf4, 0x38, 0x3d, 0xa6, 0x8e, 0x83, 0xbe, 0x11, 0x63, 0x5b, 0x3e,
  0xef, 0x19, 0xf6, 0x3b, 0xf1, 0x30, 0xc6, 0x3b, 0xfa, 0x5f, 0x3f, 0x3e,
  0xa0, 0x01, 0x89, 0xbd, 0x34, 0x0b, 0xb3, 0x3c, 0xa0, 0x10, 0x85, 0xbd,
  0x4b, 0x3a, 0x9b, 0xbe, 0x95, 0x67, 0x20, 0xbc, 0x25, 0xfc, 0x96, 0xbe,
  0xb7, 0x1d, 0xe6, 0xbd, 0xab, 0x9a, 0x8a, 0xbe, 0x55, 0xc7, 0xcd, 0xbd,
  0xa0, 0xa1, 0x85, 0xbd, 0xb9, 0xa8, 0xb7, 0xbe, 0xb2, 0x86, 0xae, 0xbe,
  0xd8, 0xba, 0x19, 0xbe, 0x4a, 0x1b, 0xc4, 0xbe, 0x81, 0x48, 0x07, 0x3e,
  0x83, 0xfe, 0x81, 0xbe, 0x1d, 0x3f, 0x3d, 0xbd, 0x46, 0x84, 0x9e, 0x3d,
  0xb8, 0xc2, 0x21, 0x3d, 0x9b, 0x33, 0xb1, 0xbe, 0x1a, 0x23, 0xda, 0xbd,
  0x48, 0x28, 0x01, 0x3e, 0x18, 0x32, 0x85, 0xbd, 0x0b, 0x53, 0xe2, 0x3d,
  0x42, 0x55, 0xaf, 0x3d, 0x09, 0x3a, 0x45, 0x3d, 0x4e, 0x32, 0x97, 0x3e,
  0xf7, 0xcf, 0xe5, 0xbe, 0xad, 0x24, 0xc2, 0x3e, 0x0a, 0xd7, 0xff, 0x3d,
  0x44, 0x80, 0x14, 0xbe, 0x90, 0x07, 0x96, 0x3d, 0x78, 0x4e, 0xaf, 0xbc,
  0xd2, 0x79, 0xcc, 0x3c, 0x52, 0xa6, 0x89, 0x3e, 0x1a, 0x91, 0xb6, 0xbe,
  0x71, 0xbc, 0xd5, 0xbc, 0x81, 0x20, 0x53, 0x3e, 0xb8, 0x08, 0x02, 0x3e,
  0xe2, 0xd1, 0xf3, 0x3c, 0x3a, 0x19, 0x2c, 0x3c, 0x43, 0x5d, 0xbb, 0xbd,
  0xfb, 0x5e, 0x19, 0x3f, 0xb9, 0x4a, 0x77, 0xbe, 0x25, 0x48, 0xb3, 0x3d,
  0x2d, 0xee, 0x0c, 0x3f, 0x2c, 0xfa, 0xb9, 0xbd, 0x81, 0xa6, 0x14, 0xbc,
  0x27, 0x0b, 0xd5, 0xbd, 0xe5, 0x6c, 0x74, 0x3d, 0x9c, 0x60, 0xff, 0xbd,
  0x19, 0x68, 0xa3, 0xbe, 0xd8, 0x23, 0xc5, 0x3d, 0x54, 0x14, 0x9d, 0xbe,
  0x28, 0xa4, 0x3d, 0xbe, 0x6e, 0x56, 0x1b, 0xbc, 0x00, 0x0a, 0x8e, 0x3c,
  0xcb, 0x81, 0x9b, 0x3d, 0x57, 0x83, 0x2d, 0xbe, 0x37, 0x02, 0x3c, 0x3c,
  0x92, 0x3d, 0x37, 0xbd, 0x01, 0xac, 0x4c, 0xbe, 0x4e, 0x06, 0x6e, 0xbe,
  0xd8, 0xa2, 0x6a, 0x3d, 0xf9, 0xda, 0x2c, 0xbe, 0xd8, 0xad, 0x24, 0x3d,
  0x87, 0x5f, 0x1a, 0xbe, 0x1c, 0x83, 0xed, 0x3d, 0xd5, 0x9a, 0x2c, 0xbe,
  0xfd, 0x01, 0x19, 0xbd, 0xd0, 0x63, 0x6e, 0x3d, 0x12, 0x0a, 0x10, 0xbf,
  0x17, 0xa1, 0x6c, 0xbd, 0x08, 0xe1, 0x9a, 0x3e, 0x28, 0xef, 0xd0, 0x3e,
  0x08, 0xad, 0x67, 0xbe, 0x8a, 0xc2, 0x3b, 0x3d, 0x25, 0x16, 0x21, 0x3f,
  0xe4, 0x5e, 0xbb, 0xbd, 0xed, 0xe4, 0xa7, 0xbe, 0xb2, 0x37, 0x63, 0xbb,
  0xf0, 0x15, 0x06, 0xbc, 0x84, 0x47, 0x8a, 0x3c, 0xe1, 0xaa, 0x14, 0xbf,
  0xd1, 0x92, 0xb0, 0x3d, 0x22, 0x9d, 0xc0, 0xbd, 0xde, 0x57, 0xb0, 0xbd,
  0xb1, 0xa0, 0x1c, 0x3e, 0x45, 0x44, 0x61, 0xbc, 0x5f, 0xf6, 0x2d, 0xbe,
  0x86, 0x30, 0x08, 0xbd, 0x74, 0x05, 0x76, 0xbd, 0x3b, 0x92, 0x82, 0x3c,
  0x21, 0xa6, 0xbf, 0xbe, 0x48, 0x72, 0x22, 0xbd, 0xbd, 0xeb, 0x38, 0x3e,
  0x8a, 0xd5, 0x96, 0xbd, 0x6f, 0xf1, 0x36, 0xbc, 0xe2, 0x3f, 0xea, 0xbc,
  0xee, 0x78, 0xd8, 0x3d, 0x7c, 0xce, 0x3f, 0xbc, 0xc1, 0xee, 0xaf, 0xbe,
  0x0a, 0xdf, 0xff, 0xff, 0x10, 0x00, 0x00, 0x00, 0x08, 0x00, 0x00, 0x00,
  0x1c, 0x00, 0x00, 0x00, 0x38, 0x00, 0x00, 0x00, 0x04, 0x00, 0x00, 0x00,
  0x10, 0x00, 0x00, 0x00, 0x04, 0x00, 0x00, 0x00, 0x01, 0x00, 0x00, 0x00,
  0x08, 0x00, 0x00, 0x00, 0x1a, 0x00, 0x00, 0x00, 0x73, 0x65, 0x71, 0x75,
  0x65, 0x6e, 0x74, 0x69, 0x61, 0x6c, 0x2f, 0x63, 0x6f, 0x6e, 0x76, 0x32,
  0x64, 0x5f, 0x31, 0x2f, 0x43, 0x6f, 0x6e, 0x76, 0x32, 0x44, 0x00, 0x00,
  0x04, 0xdf, 0xff, 0xff, 0xfa, 0xdf, 0xff, 0xff, 0x04, 0x00, 0x00, 0x00,
  0x80, 0x01, 0x00, 0x00, 0x78, 0xb2, 0x1d, 0x3c, 0xa6, 0xce, 0x6a, 0x3d,
  0x57, 0x33, 0xc3, 0xbd, 0x08, 0xe9, 0xaa, 0xbc, 0x48, 0x67, 0x68, 0x3d,
  0xc9, 0xeb, 0x5c, 0xbd, 0xae, 0x5e, 0x88, 0xbc, 0xb5, 0x55, 0xa6, 0x3d,
  0xf2, 0x8d, 0xa9, 0xbd, 0x32, 0x53, 0x68, 0x3d, 0xff, 0x44, 0xa9, 0x3c,
  0x36, 0x47, 0xc3, 0xbd, 0x47, 0x20, 0x94, 0xbc, 0xe4, 0x09, 0xa7, 0xbd,
  0x23, 0x7c, 0xa1, 0xbd, 0x35, 0x13, 0x9b, 0xbd, 0x04, 0xd4, 0x94, 0xbe,
  0xad, 0xbb, 0x22, 0xbe, 0x89, 0xf2, 0x90, 0x3e, 0xbd, 0xd2, 0xd3, 0x3e,
  0xff, 0x35, 0x8e, 0x3e, 0xc0, 0x77, 0xf1, 0xbc, 0x93, 0x6f, 0x11, 0x3a,
  0xf3, 0x82, 0x13, 0x3d, 0x91, 0xed, 0xa6, 0x3b, 0xc3, 0xe5, 0x95, 0xbe,
  0xce, 0x7d, 0x22, 0xbe, 0xd4, 0x3b, 0x9d, 0x3d, 0xe5, 0x56, 0x51, 0xbc,
  0x78, 0x88, 0x03, 0x3e, 0xed, 0xda, 0x85, 0xbe, 0xcb, 0xd7, 0x4b, 0x3e,
  0x35, 0x1c, 0x94, 0xbd, 0x95, 0x19, 0x2d, 0x3d, 0x05, 0xb2, 0x7d, 0xbd,
  0x4d, 0x26, 0xd4, 0xbd, 0x90, 0x59, 0x7a, 0x3c, 0x82, 0x62, 0x49, 0x3d,
  0xa2, 0x13, 0x92, 0x3b, 0xd7, 0x1b, 0xc8, 0x3d, 0x54, 0x26, 0xd3, 0x3e,
  0xce, 0xab, 0xd7, 0x3e, 0x42, 0x53, 0x17, 0x3e, 0xa8, 0x84, 0x34, 0xbe,
  0xda, 0x1f, 0xc3, 0xbd, 0x7a, 0x14, 0x43, 0xbe, 0xf6, 0x1e, 0x86, 0xbe,
  0x09, 0xc8, 0xaf, 0xbe, 0x50, 0x64, 0x12, 0x3d, 0xe9, 0x5a, 0xaa, 0x3c,
  0x3d, 0xeb, 0x93, 0xbd, 0x61, 0x95, 0xd5, 0xbd, 0x98, 0x81, 0x2a, 0xbd,
  0x6e, 0x23, 0x2e, 0xbf, 0xac, 0x69, 0x5b, 0x3b, 0x5c, 0xd6, 0x29, 0xbd,
  0xa2, 0x2a, 0xdb, 0x3e, 0x26, 0x7d, 0x9d, 0x3d, 0x43, 0xed, 0xb2, 0x3d,
  0x91, 0x1f, 0xaa, 0x3e, 0x15, 0x80, 0x14, 0x3e, 0x90, 0x71, 0x90, 0xbd,
  0xec, 0x42, 0xe5, 0x3d, 0x41, 0x5e, 0xdd, 0x3e, 0xf3, 0xa7, 0x35, 0xbd,
  0xbd, 0x0c, 0x7e, 0xbd, 0x76, 0x96, 0xcc, 0x3c, 0x33, 0x82, 0x54, 0x3d,
  0x5b, 0x00, 0x73, 0xbd, 0xc6, 0x9c, 0x30, 0xbe, 0x62, 0x42, 0x2a, 0x3e,
  0x3d, 0xda, 0x48, 0xbd, 0x7a, 0xbe, 0xf9, 0x3d, 0x7f, 0x43, 0x3d, 0xbe,
  0x39, 0xed, 0x3e, 0x3e, 0x76, 0x44, 0x95, 0xbd, 0xd4, 0xe4, 0x3f, 0xbd,
  0xc4, 0xaf, 0x19, 0x3e, 0xde, 0xb3, 0x10, 0xbe, 0x32, 0xd6, 0xaf, 0x3d,
  0x8f, 0x6c, 0x74, 0x3d, 0xaf, 0x95, 0xc4, 0xbd, 0x08, 0x19, 0x02, 0x3e,
  0x65, 0x9f, 0x7a, 0x3d, 0x09, 0x0c, 0xd8, 0x3d, 0xe1, 0xac, 0x20, 0x3c,
  0x91, 0x57, 0x15, 0xbd, 0xdf, 0xd2, 0xad, 0x3d, 0x4e, 0xc6, 0xd2, 0x3e,
  0x64, 0x13, 0xde, 0x3c, 0x58, 0x1a, 0xc9, 0xbd, 0x47, 0x5b, 0xfe, 0xbd,
  0xde, 0x53, 0x8a, 0xbe, 0x0a, 0x44, 0x0f, 0x3e, 0x44, 0x89, 0xae, 0xbe,
  0x66, 0xc0, 0x42, 0x3e, 0xe2, 0xe0, 0xff, 0xff, 0x10, 0x00, 0x00, 0x00,
  0x07, 0x00, 0x00, 0x00, 0x1c, 0x00, 0x00, 0x00, 0x38, 0x00, 0x00, 0x00,
  0x04, 0x00, 0x00, 0x00, 0x08, 0x00, 0x00, 0x00, 0x04, 0x00, 0x00, 0x00,
  0x03, 0x00, 0x00, 0x00, 0x01, 0x00, 0x00, 0x00, 0x18, 0x00, 0x00, 0x00,
  0x73, 0x65, 0x71, 0x75, 0x65, 0x6e, 0x74, 0x69, 0x61, 0x6c, 0x2f, 0x63,
  0x6f, 0x6e, 0x76, 0x32, 0x64, 0x2f, 0x43, 0x6f, 0x6e, 0x76, 0x32, 0x44,
  0x00, 0x00, 0x00, 0x00, 0xdc, 0xe0, 0xff, 0xff, 0xd2, 0xe1, 0xff, 0xff,
  0x04, 0x00, 0x00, 0x00, 0xc0, 0x00, 0x00, 0x00, 0x37, 0x90, 0x9f, 0xbe,
  0xd3, 0x73, 0x6b, 0x3e, 0xfb, 0xd6, 0xcd, 0xbd, 0x79, 0xf4, 0x43, 0x3c,
  0x41, 0x16, 0x51, 0x3e, 0xbb, 0xfe, 0xb9, 0x3d, 0x8b, 0x7b, 0x0e, 0x3d,
  0x94, 0x8b, 0x38, 0xbe, 0x28, 0x87, 0x41, 0x3e, 0x03, 0x38, 0x58, 0x3e,
  0x5d, 0xee, 0xb9, 0xbd, 0x9f, 0x4e, 0x7f, 0x3e, 0x6c, 0xe0, 0xd2, 0xbe,
  0xb8, 0xf9, 0x01, 0x3f, 0x32, 0xc8, 0xbf, 0x3e, 0xbe, 0x1e, 0x80, 0xbe,
  0x77, 0x3c, 0x1c, 0xbe, 0xc6, 0x1d, 0x60, 0x3e, 0xe9, 0x33, 0xad, 0xbd,
  0xc6, 0x81, 0xf1, 0xbc, 0xb9, 0xc7, 0x75, 0x3e, 0x2e, 0x11, 0x31, 0x3e,
  0x8c, 0x14, 0x92, 0x3d, 0x73, 0xce, 0xdf, 0xbd, 0xce, 0x98, 0x7d, 0x3e,
  0x88, 0xfe, 0x72, 0xbe, 0x04, 0xf0, 0xab, 0xbc, 0xec, 0x89, 0x56, 0x3e,
  0x48, 0xbf, 0xe8, 0xbe, 0x5d, 0x5f, 0x3e, 0xbf, 0xb1, 0x0e, 0x74, 0xbf,
  0x00, 0xd5, 0x6d, 0xbe, 0x28, 0x83, 0xe3, 0x3d, 0x1d, 0xe0, 0x05, 0x3e,
  0x66, 0x91, 0x88, 0xbd, 0xc4, 0xa2, 0xdc, 0xbc, 0xec, 0x6e, 0xae, 0xbd,
  0x8c, 0x2c, 0x81, 0xbc, 0x33, 0xe6, 0xdc, 0x3c, 0x27, 0xd8, 0xbd, 0xbd,
  0x6b, 0xf7, 0x05, 0x3e, 0x2b, 0x72, 0x24, 0xbf, 0xaf, 0x61, 0xa4, 0xbd,
  0x31, 0x1e, 0x41, 0x3e, 0xe5, 0x02, 0xa6, 0x3e, 0x35, 0x0b, 0x6b, 0x3d,
  0x3c, 0xed, 0xe7, 0xbe, 0x43, 0x3c, 0x3a, 0xbe, 0xfa, 0xe1, 0xff, 0xff,
  0x10, 0x00, 0x00, 0x00, 0x06, 0x00, 0x00, 0x00, 0x14, 0x00, 0x00, 0x00,
  0x30, 0x00, 0x00, 0x00, 0x02, 0x00, 0x00, 0x00, 0x03, 0x00, 0x00, 0x00,
  0x10, 0x00, 0x00, 0x00, 0x19, 0x00, 0x00, 0x00, 0x73, 0x65, 0x71, 0x75,
  0x65, 0x6e, 0x74, 0x69, 0x61, 0x6c, 0x2f, 0x64, 0x65, 0x6e, 0x73, 0x65,
  0x5f, 0x31, 0x2f, 0x4d, 0x61, 0x74, 0x4d, 0x75, 0x6c, 0x00, 0x00, 0x00,
  0xec, 0xe1, 0xff, 0xff, 0xe2, 0xe2, 0xff, 0xff, 0x04, 0x00, 0x00, 0x00,
  0x00, 0x1c, 0x00, 0x00, 0xb7, 0xf3, 0x2b, 0xbc, 0x2e, 0x07, 0x6e, 0xbe,
  0x08, 0x26, 0x18, 0xbd, 0x25, 0x73, 0x6e, 0xbd, 0x4e, 0x52, 0x9d, 0xbe,
  0x6f, 0x99, 0x64, 0xbd, 0x5a, 0xbb, 0x4f, 0xbe, 0xd2, 0x70, 0xda, 0x3c,
  0x9d, 0xe9, 0x41, 0x3c, 0x34, 0x7f, 0xcb, 0x3c, 0x67, 0x59, 0x03, 0x3d,
  0xbe, 0xa9, 0xda, 0xbd, 0x91, 0xbc, 0xf6, 0x3c, 0x6d, 0x41, 0xe3, 0xbd,
  0x93, 0xcf, 0x36, 0xbd, 0x90, 0xa4, 0x81, 0xbe, 0x9b, 0xbf, 0xd3, 0xbd,
  0x23, 0x96, 0x6a, 0xbe, 0x15, 0xa5, 0x82, 0xbc, 0xe0, 0xf6, 0x23, 0xbe,
  0x90, 0x09, 0xc5, 0xbe, 0xb8, 0x95, 0x5f, 0xbd, 0x3a, 0xad, 0x22, 0xbe,
  0xb9, 0xc9, 0x05, 0x3f, 0x2a, 0xdf, 0x67, 0xbe, 0x7f, 0x94, 0x93, 0xbc,
  0xd0, 0xdf, 0xcf, 0xbd, 0x45, 0x09, 0x0b, 0x3e, 0xcd, 0x4c, 0xb6, 0x3c,
  0x45, 0xf7, 0xc7, 0xbc, 0x01, 0xfb, 0x14, 0x3e, 0x2f, 0xad, 0x03, 0x3e,
  0x77, 0x29, 0x0a, 0x3e, 0xe5, 0x7e, 0xfe, 0xbd, 0x4a, 0xbd, 0xbd, 0xbd,
  0x3b, 0xd9, 0x00, 0xbd, 0x91, 0x77, 0xa0, 0xbe, 0xb5, 0xee, 0x75, 0xbe,
  0x76, 0x06, 0x71, 0xbd, 0x0c, 0xd0, 0xba, 0x3e, 0x95, 0xba, 0x02, 0x3e,
  0x9c, 0x52, 0x0e, 0xbe, 0x32, 0x3d, 0xc2, 0xbb, 0x6d, 0xb7, 0x1a, 0xbe,
  0x31, 0xe9, 0x7e, 0xbc, 0xf5, 0x09, 0xbf, 0x3d, 0x77, 0xbb, 0x0d, 0x3d,
  0x58, 0xd2, 0x3f, 0x3e, 0x1e, 0x73, 0x88, 0xbd, 0xf4, 0xf5, 0x26, 0x3d,
  0x8a, 0x25, 0x2e, 0x3e, 0xcc, 0x80, 0x07, 0xbe, 0x02, 0x7c, 0xa7, 0xbe,
  0x3f, 0x8f, 0xa6, 0xbe, 0x25, 0x44, 0xb3, 0x3d, 0x37, 0xfa, 0x8a, 0x3e,
  0x8a, 0xca, 0x24, 0xbe, 0x71, 0xda, 0x3b, 0xbe, 0x97, 0xa3, 0x4b, 0x3e,
  0x3a, 0x49, 0x06, 0xbe, 0x21, 0x85, 0x08, 0xbd, 0xe2, 0x8d, 0xbe, 0x3c,
  0xda, 0xba, 0x44, 0x3d, 0xe9, 0x7b, 0x5b, 0xbe, 0x93, 0xd2, 0x1e, 0xbe,
  0x59, 0x8b, 0xa0, 0xbc, 0xe2, 0x6e, 0xe8, 0x3b, 0xb6, 0x9b, 0x03, 0xbe,
  0xcb, 0x19, 0x96, 0xbd, 0xad, 0x19, 0xd9, 0xbc, 0xe5, 0xee, 0x22, 0x3e,
  0xe1, 0x46, 0xa6, 0x3e, 0xe1, 0xeb, 0xc4, 0x3d, 0x41, 0x08, 0x30, 0x3e,
  0x8b, 0xc9, 0x79, 0xbd, 0x08, 0x03, 0x82, 0x3d, 0xd3, 0x34, 0x83, 0x3d,
  0x7a, 0xa9, 0xd1, 0xbd, 0xaf, 0x0a, 0x93, 0xbd, 0x90, 0x2f, 0x73, 0xbe,
  0x48, 0xf2, 0x3d, 0x3e, 0x99, 0x93, 0x6a, 0x3d, 0xe0, 0xa4, 0x90, 0xbe,
  0x36, 0x1a, 0x4a, 0x3d, 0xac, 0xd5, 0x2d, 0xbe, 0x98, 0x9f, 0x51, 0xbe,
  0xd2, 0x76, 0x6a, 0xbd, 0x6f, 0xb7, 0xba, 0x3e, 0x7f, 0xdb, 0x3e, 0xbe,
  0x80, 0xbe, 0xb5, 0xbc, 0x66, 0x25, 0xaf, 0x3c, 0xae, 0xc1, 0xb8, 0xbd,
  0xf4, 0xdd, 0x21, 0xbd, 0x9b, 0x8b, 0x3b, 0xbe, 0xf3, 0xcc, 0xbb, 0x3c,
  0x48, 0x71, 0x31, 0x3d, 0x94, 0xad, 0x66, 0x3d, 0x4e, 0x18, 0x34, 0x3c,
  0xd7, 0x55, 0x5d, 0x3e, 0xc0, 0x88, 0x36, 0xbe, 0xf5, 0xc2, 0xa3, 0xbd,
  0x80, 0xf2, 0xed, 0xbc, 0xca, 0x6f, 0x20, 0xbc, 0xee, 0xdd, 0xdc, 0x3d,
  0x67, 0xe1, 0x9d, 0x3d, 0xbf, 0xbd, 0x3e, 0xbc, 0x61, 0x59, 0xbe, 0xbd,
  0xc5, 0x10, 0x80, 0x39, 0xf8, 0x68, 0x2e, 0x3e, 0x4e, 0xb2, 0x16, 0xbd,
  0x73, 0x44, 0xd8, 0xbc, 0x2c, 0x9c, 0x3a, 0xbe, 0xd9, 0x8e, 0x7d, 0xbe,
  0x3a, 0x1a, 0x04, 0xbf, 0xf8, 0x95, 0xa0, 0x3d, 0x55, 0x76, 0xdd, 0xbe,
  0x13, 0x62, 0x51, 0xbe, 0x14, 0xa2, 0x76, 0xbd, 0xb2, 0x54, 0x88, 0xbe,
  0x55, 0x5a, 0xab, 0xbd, 0xde, 0x6f, 0xd6, 0x3e, 0xfb, 0x89, 0xf0, 0xbe,
  0x52, 0x97, 0x40, 0x3d, 0xfa, 0x2b, 0x92, 0x3d, 0xb7, 0x77, 0x9e, 0xbc,
  0x20, 0xbe, 0xb0, 0xbd, 0x54, 0x16, 0xea, 0x3d, 0x78, 0xe8, 0x75, 0x3e,
  0x84, 0x1b, 0xbe, 0xbd, 0xb9, 0xb5, 0xf8, 0xbd, 0x44, 0x2a, 0x47, 0x3e,
  0x4a, 0x00, 0x0e, 0xbe, 0x5e, 0x56, 0xdb, 0xbd, 0x48, 0xfb, 0x26, 0xbd,
  0xac, 0xd5, 0x34, 0xbc, 0x98, 0x87, 0x93, 0x3d, 0x69, 0x34, 0xad, 0x3e,
  0x8d, 0x34, 0x21, 0x3e, 0xb5, 0x80, 0x90, 0xbd, 0x4c, 0x99, 0xbc, 0x3d,
  0x81, 0xaf, 0xb9, 0xbc, 0x40, 0x09, 0x09, 0x3e, 0xca, 0x7c, 0x8f, 0x3c,
  0x2f, 0x80, 0x24, 0x3e, 0x5b, 0xd2, 0xfa, 0xbd, 0x9d, 0xd9, 0x8b, 0xbe,
  0x82, 0xe3, 0x20, 0x3e, 0x95, 0x52, 0x3a, 0xbe, 0xa6, 0xd2, 0x92, 0x39,
  0x41, 0x9b, 0x19, 0xbd, 0x4a, 0x92, 0x3a, 0xbe, 0xbe, 0x90, 0xb1, 0xbd,
  0xc1, 0x11, 0xaa, 0x3e, 0x86, 0x20, 0x8e, 0x3d, 0xaf, 0x55, 0x35, 0x3e,
  0x75, 0x91, 0x3e, 0x3e, 0x5e, 0x91, 0xd9, 0xbc, 0xb3, 0x83, 0xd9, 0x3c,
  0x5e, 0x85, 0x34, 0x3d, 0xf3, 0x46, 0x93, 0x3e, 0x6a, 0xa9, 0xb3, 0xbb,
  0x36, 0x91, 0xdc, 0xbe, 0xc3, 0xc1, 0x6d, 0x3d, 0xb1, 0x48, 0x67, 0xbd,
  0x6a, 0x84, 0x05, 0xbc, 0x44, 0x83, 0x8b, 0xbc, 0x33, 0xcf, 0x13, 0xbe,
  0x10, 0x49, 0xc7, 0xbd, 0x9b, 0x55, 0x38, 0x3e, 0x7e, 0x74, 0xf5, 0x3d,
  0x2b, 0xc3, 0xfe, 0x3d, 0xe9, 0x97, 0x7b, 0x3e, 0xc0, 0xa3, 0x19, 0xbd,
  0x00, 0x8f, 0x8a, 0xbd, 0xff, 0x1e, 0x32, 0x3e, 0x09, 0xfa, 0x51, 0x3e,
  0x68, 0x58, 0x4e, 0xbe, 0xd0, 0xf6, 0x7f, 0xbe, 0x03, 0xab, 0x0f, 0x3e,
  0xff, 0xa3, 0x9e, 0xbe, 0x15, 0x99, 0x51, 0xbd, 0x81, 0x54, 0xff, 0xbc,
  0xdc, 0x85, 0x96, 0xbd, 0x7e, 0xcf, 0x30, 0xbe, 0x19, 0xe0, 0x04, 0x3f,
  0x66, 0x14, 0x49, 0x3d, 0x45, 0xc1, 0x92, 0x3e, 0xe2, 0x45, 0x28, 0x3e,
  0xa8, 0x2f, 0x81, 0xbc, 0x5a, 0x47, 0xbf, 0x3d, 0x82, 0xc8, 0xbc, 0x3d,
  0xd7, 0x16, 0xb5, 0x3d, 0x41, 0x80, 0xfb, 0xbd, 0x92, 0x29, 0x6c, 0xbe,
  0x49, 0xbd, 0x24, 0x3e, 0x50, 0x88, 0x36, 0xbe, 0x11, 0xc1, 0x5b, 0xbd,
  0x9c, 0xef, 0xa7, 0xbc, 0x72, 0xdc, 0xd0, 0xbd, 0x9d, 0x13, 0x8d, 0xbe,
  0xa5, 0x68, 0x91, 0x3c, 0xaf, 0xa9, 0x01, 0x3e, 0x0b, 0x5c, 0x17, 0x3d,
  0xda, 0xe1, 0xf0, 0x3d, 0x0d, 0x10, 0x90, 0xbd, 0x55, 0x23, 0x51, 0x3e,
  0x3e, 0x85, 0x29, 0x3e, 0x6b, 0x8a, 0x08, 0x3e, 0x52, 0x09, 0x2b, 0x3d,
  0xf1, 0xef, 0x83, 0x3c, 0xd4, 0x99, 0x06, 0x3e, 0xc6, 0x75, 0x2b, 0xbe,
  0x38, 0x77, 0x01, 0xbd, 0x5b, 0x8d, 0x94, 0x3d, 0xd7, 0x38, 0x27, 0xbe,
  0x55, 0xb0, 0x90, 0xbe, 0xd9, 0x4c, 0x0a, 0xbe, 0x97, 0x90, 0xd8, 0x3d,
  0x22, 0x3f, 0x61, 0x3d, 0x46, 0xe9, 0xa1, 0x3d, 0xc9, 0x95, 0x52, 0x3c,
  0x4a, 0x08, 0xd5, 0xba, 0x0c, 0xda, 0x01, 0x3e, 0x74, 0x14, 0xc9, 0x3d,
  0xab, 0x05, 0x8f, 0x3e, 0x3a, 0x3f, 0xf1, 0xbe, 0x0b, 0x05, 0xa9, 0xbe,
  0xbc, 0x1c, 0xb9, 0x3d, 0x7b, 0x11, 0x7c, 0x3d, 0x70, 0x09, 0xb4, 0x3c,
  0x81, 0xed, 0x4b, 0xbf, 0x1f, 0x25, 0x00, 0x3e, 0xd6, 0x25, 0x91, 0x3e,
  0x30, 0x66, 0x11, 0xbd, 0x1c, 0x67, 0x60, 0xbf, 0xcd, 0x32, 0xbc, 0xbe,
  0x9a, 0x2a, 0xac, 0x3d, 0xd6, 0xbf, 0x13, 0x3d, 0x8f, 0x1e, 0xc2, 0xbe,
  0xfb, 0x87, 0xaf, 0xbe, 0xef, 0xb1, 0x87, 0x3e, 0x99, 0x9f, 0x12, 0x3d,
  0x5d, 0x05, 0xbd, 0xbe, 0xdb, 0xef, 0x42, 0x3e, 0x2f, 0xe3, 0x37, 0x3b,
  0xbd, 0x8a, 0x4f, 0x3d, 0x0e, 0x83, 0xdf, 0xbd, 0xbe, 0x46, 0x16, 0x3e,
  0x74, 0x85, 0xad, 0x3e, 0xea, 0xee, 0x2e, 0x3e, 0x74, 0xc8, 0x68, 0xbe,
  0x36, 0x8e, 0xa3, 0x3b, 0xe1, 0x78, 0xbd, 0x3d, 0x50, 0x41, 0xf1, 0x3d,
  0x3f, 0x38, 0x4d, 0xbe, 0xe7, 0x1b, 0x8c, 0xbe, 0xb4, 0x19, 0x01, 0x3e,
  0xa7, 0x90, 0x10, 0x3f, 0x2f, 0x0d, 0xa9, 0xbe, 0x96, 0xeb, 0xab, 0x3e,
  0xc8, 0x49, 0x8f, 0x3a, 0x17, 0xe0, 0x62, 0x3d, 0xcb, 0xb3, 0xe8, 0xbd,
  0xc3, 0x15, 0xbe, 0x3d, 0x01, 0x79, 0xd2, 0x3e, 0x71, 0x24, 0x77, 0xbe,
  0x2b, 0x97, 0x84, 0xbe, 0xe2, 0x18, 0xaf, 0xbe, 0x0f, 0xfe, 0xa4, 0xbb,
  0x21, 0xdf, 0x95, 0x3d, 0xb9, 0x1a, 0xcf, 0x3d, 0x50, 0x88, 0x42, 0xbe,
  0xf9, 0xbd, 0x52, 0x3e, 0xdf, 0xe4, 0x99, 0x3e, 0xb7, 0xef, 0x0a, 0xbe,
  0x2f, 0xf7, 0x96, 0x3e, 0xb3, 0x9a, 0x64, 0xbb, 0x64, 0x7c, 0x69, 0x3d,
  0xb7, 0xec, 0x7a, 0x3d, 0x8c, 0x56, 0x8e, 0x3e, 0xbf, 0x47, 0x3b, 0x3f,
  0x5e, 0xc2, 0x25, 0xbe, 0x23, 0x40, 0x56, 0xbe, 0x28, 0x37, 0x05, 0xbe,
  0x88, 0xa9, 0xde, 0xbb, 0xbb, 0x5e, 0x2f, 0x3b, 0x6d, 0xc5, 0x70, 0xbd,
  0x63, 0x3a, 0x0e, 0xbe, 0xa4, 0x0b, 0x9e, 0x3d, 0xe2, 0xaf, 0x32, 0x3e,
  0x8b, 0x7d, 0xb0, 0xbe, 0xb6, 0xd1, 0xf4, 0x3d, 0x58, 0xe5, 0xcb, 0x3d,
  0x00, 0x35, 0x06, 0x3e, 0x7a, 0x83, 0x03, 0xbe, 0x25, 0xac, 0x11, 0x3e,
  0x63, 0xe7, 0x35, 0x3f, 0x21, 0x9b, 0x8b, 0xbe, 0x0d, 0xac, 0x6a, 0xbe,
  0x8f, 0x0a, 0x95, 0xbe, 0x51, 0x11, 0xb7, 0xbc, 0x45, 0xfb, 0xe2, 0x3b,
  0x26, 0x8c, 0x40, 0x3c, 0x13, 0xcb, 0x43, 0xbe, 0x62, 0x30, 0x46, 0x3e,
  0x76, 0x56, 0x36, 0xbc, 0x61, 0xdd, 0xb4, 0xbe, 0x0d, 0x09, 0x15, 0xbc,
  0xb7, 0xe0, 0xa1, 0xbd, 0xd0, 0x31, 0x6c, 0x3d, 0xd3, 0x8d, 0xd4, 0xbd,
  0xe7, 0xd5, 0xe9, 0x3d, 0x4c, 0x37, 0x06, 0x3f, 0xc7, 0xe5, 0x99, 0xbe,
  0x07, 0x84, 0xa3, 0xbe, 0x4f, 0x18, 0x9a, 0xbe, 0xda, 0x9b, 0x5e, 0x3d,
  0xaa, 0x3a, 0x6a, 0xbe, 0x66, 0x21, 0xf0, 0x3a, 0x4c, 0xd5, 0x98, 0xbe,
  0xc8, 0x8b, 0x9f, 0x3d, 0xb8, 0x4f, 0x81, 0xbe, 0xbe, 0x56, 0x78, 0xbe,
  0x18, 0x4d, 0xb0, 0x3d, 0xb8, 0xc2, 0xb8, 0x3c, 0xaf, 0xa3, 0xdb, 0x3b,
  0xfa, 0x66, 0x01, 0x3c, 0x60, 0xd1, 0x04, 0x3e, 0x74, 0x9d, 0xc4, 0x3e,
  0x46, 0xeb, 0xd1, 0xbe, 0x21, 0xb8, 0xd8, 0xbd, 0xd2, 0x95, 0xbf, 0xbd,
  0x43, 0x25, 0xfa, 0xbc, 0xbc, 0xfe, 0xbe, 0xbd, 0x33, 0x26, 0xf1, 0xbd,
  0x7f, 0x11, 0xa2, 0xbe, 0xb2, 0xc9, 0xaf, 0x3c, 0xa3, 0x67, 0xa3, 0xbe,
  0x29, 0x10, 0xc8, 0x3e, 0xac, 0xac, 0x15, 0xbe, 0x19, 0x65, 0xc6, 0xbe,
  0xb7, 0x35, 0x75, 0xbb, 0x4d, 0xb1, 0xb5, 0x3c, 0x0e, 0xb4, 0x99, 0xbd,
  0x8c, 0xc3, 0x77, 0xbe, 0x79, 0x13, 0x18, 0xbe, 0x07, 0x2c, 0xc5, 0x3b,
  0x0b, 0x8a, 0x56, 0xbd, 0xc7, 0xf7, 0xa2, 0x3c, 0xe4, 0x83, 0x15, 0x3e,
  0xdc, 0xca, 0x6a, 0x3e, 0xfa, 0xfd, 0xe7, 0x3d, 0x6f, 0xed, 0x36, 0xbe,
  0x7c, 0x8e, 0xe3, 0xbe, 0x2d, 0xb1, 0x2d, 0x3e, 0x88, 0x72, 0xd5, 0xbe,
  0x47, 0xd2, 0x8f, 0xbe, 0xc5, 0x36, 0x5b, 0xbd, 0x91, 0xcf, 0xa9, 0xbe,
  0x2a, 0xce, 0xf2, 0xbd, 0xe5, 0x15, 0xc6, 0xbd, 0x89, 0x0d, 0x90, 0x3e,
  0x92, 0xa2, 0x5b, 0x3e, 0xde, 0x26, 0xc9, 0x3d, 0x4f, 0xdb, 0xed, 0x3c,
  0xde, 0x7b, 0x57, 0xbe, 0xf4, 0xd7, 0xa3, 0x3e, 0x31, 0xd4, 0x84, 0x3d,
  0xe4, 0x3c, 0x99, 0xbe, 0xe5, 0x07, 0xcd, 0xbe, 0x52, 0x6f, 0x32, 0x3f,
  0x84, 0x53, 0xb0, 0xbd, 0x58, 0xb2, 0x65, 0x3d, 0x2f, 0x20, 0x47, 0xbd,
  0xa2, 0xdb, 0x7e, 0x3e, 0x04, 0xc8, 0x60, 0xbe, 0x4d, 0xc4, 0x94, 0xbe,
  0x07, 0xc7, 0x3c, 0x3e, 0x5c, 0x07, 0x50, 0x3e, 0x24, 0xf3, 0x0a, 0x3f,
  0xda, 0x24, 0x89, 0xbe, 0xda, 0xc8, 0x90, 0xbe, 0xa8, 0xaa, 0x77, 0xbe,
  0x1b, 0x27, 0x3b, 0x3e, 0xec, 0x58, 0x44, 0xbe, 0x6a, 0x46, 0xa5, 0xbe,
  0x8f, 0xc0, 0x8d, 0x3e, 0x7c, 0x1a, 0x51, 0xbd, 0xdc, 0xce, 0x0b, 0x3e,
  0xd5, 0x67, 0x86, 0xbc, 0x64, 0x51, 0x19, 0x3e, 0x32, 0xd6, 0x59, 0xbe,
  0xcd, 0xde, 0xb0, 0xbd, 0xed, 0xc6, 0x89, 0xbe, 0xa4, 0x81, 0x56, 0x3e,
  0x7f, 0xa2, 0xc1, 0x3e, 0x0b, 0x5b, 0x83, 0xbd, 0x9c, 0x8d, 0xa1, 0x3d,
  0xc3, 0x89, 0x03, 0xbe, 0x2a, 0x12, 0x97, 0x3e, 0xb3, 0x00, 0xc7, 0xbd,
  0x30, 0xb8, 0x05, 0xbf, 0xef, 0xdd, 0xf4, 0x3d, 0x82, 0xda, 0xad, 0xbe,
  0x44, 0x9b, 0xc3, 0xbd, 0x8b, 0xbf, 0xdc, 0xbc, 0x03, 0x17, 0x67, 0x3d,
  0x1c, 0xe2, 0xf8, 0x3d, 0x81, 0x11, 0xb2, 0xbe, 0x29, 0xbc, 0xc1, 0xbe,
  0x0d, 0xcf, 0x90, 0x3e, 0x15, 0x02, 0x7e, 0x3e, 0xdc, 0x10, 0x4d, 0xbb,
  0x29, 0xe6, 0x76, 0x3d, 0xc2, 0x76, 0x2b, 0x3e, 0x0d, 0x2b, 0x9d, 0x3e,
  0x70, 0x4c, 0xe7, 0xbd, 0xeb, 0x71, 0x20, 0xbf, 0xf2, 0x64, 0x84, 0x3d,
  0x3d, 0xa5, 0x54, 0xbe, 0x7b, 0x0a, 0x0a, 0xbd, 0x34, 0x64, 0xc7, 0x3c,
  0xdb, 0xf9, 0x0e, 0xbf, 0x98, 0x55, 0x0c, 0xbd, 0x50, 0x5f, 0x07, 0xbf,
  0x42, 0xc0, 0xeb, 0xbd, 0x76, 0x92, 0x34, 0xba, 0xaf, 0xb4, 0xed, 0x3d,
  0x72, 0xfd, 0x12, 0x3e, 0x0b, 0x78, 0x68, 0x3e, 0xb3, 0xcb, 0x60, 0x3e,
  0x58, 0xb1, 0x6d, 0x3e, 0x56, 0xb3, 0x22, 0x3d, 0x91, 0x2f, 0x34, 0xbd,
  0x23, 0xf2, 0x0e, 0x3e, 0x8b, 0x6e, 0xe2, 0xbe, 0x7f, 0xfa, 0xf5, 0x3c,
  0x7c, 0xa8, 0x33, 0xbc, 0xb7, 0xda, 0xea, 0xbd, 0xe2, 0x68, 0x34, 0x3d,
  0x9b, 0x9d, 0x02, 0xbe, 0x0d, 0xbb, 0x2f, 0xbe, 0xb7, 0x14, 0xb8, 0x3d,
  0xae, 0x67, 0x32, 0x3c, 0xdc, 0xa4, 0x69, 0x3b, 0x7c, 0x7f, 0xcf, 0x3d,
  0x3f, 0xa6, 0xcf, 0x3d, 0x8b, 0x48, 0x2f, 0x3e, 0xc8, 0xa4, 0xe6, 0x3c,
  0xc6, 0x60, 0xaa, 0xbc, 0xf9, 0x17, 0x56, 0xbd, 0x27, 0x4f, 0xa9, 0xbe,
  0xe2, 0x1c, 0xa8, 0x3d, 0xee, 0x8c, 0x71, 0xbe, 0x92, 0x4e, 0xf2, 0xbb,
  0xb6, 0xe3, 0x61, 0xbe, 0x7d, 0xea, 0x89, 0x3f, 0xc9, 0x77, 0xf2, 0x3d,
  0x35, 0xc7, 0x92, 0xbd, 0x89, 0x1d, 0x44, 0xbe, 0xbd, 0xa8, 0x10, 0xbf,
  0xea, 0xc4, 0xa4, 0x3c, 0x63, 0x1b, 0x1d, 0xbe, 0xa3, 0x5c, 0x96, 0x3d,
  0x46, 0xef, 0x4b, 0xbd, 0xc0, 0xb2, 0x6d, 0xbe, 0xda, 0x29, 0x61, 0xbe,
  0x08, 0x4e, 0x0d, 0xbe, 0x83, 0x40, 0x13, 0x3e, 0x53, 0x5c, 0x90, 0xbe,
  0x92, 0xa0, 0xa1, 0xbc, 0x71, 0x6c, 0x54, 0x3e, 0x4a, 0x1a, 0x8b, 0x3f,
  0x93, 0x6d, 0x4c, 0x3e, 0xf3, 0x31, 0x3a, 0x3d, 0x83, 0x30, 0x33, 0xbe,
  0x58, 0x62, 0x93, 0xbe, 0xe0, 0x8a, 0x8d, 0x3d, 0x8e, 0xeb, 0x0d, 0x3e,
  0x59, 0xd8, 0x9b, 0xbd, 0x78, 0x05, 0xaa, 0xbd, 0x6d, 0x8b, 0x53, 0xbd,
  0xa5, 0x4d, 0x59, 0xbe, 0xbe, 0x04, 0xa6, 0xbe, 0xf3, 0xd2, 0xce, 0xbc,
  0x72, 0x32, 0xb5, 0xbe, 0xf6, 0x70, 0x2a, 0x3c, 0x96, 0xa3, 0x54, 0x3e,
  0x09, 0x94, 0x8e, 0x3f, 0x31, 0x0a, 0x02, 0x3d, 0x8e, 0x90, 0x4e, 0xbe,
  0xa8, 0x2b, 0x41, 0xbe, 0x21, 0x21, 0x84, 0xbe, 0x42, 0xd1, 0x8e, 0xbe,
  0x43, 0x06, 0xab, 0x3d, 0xbb, 0xf2, 0x36, 0xbb, 0x25, 0xdc, 0x78, 0xbe,
  0x9c, 0xfe, 0xb9, 0xbd, 0x60, 0xa1, 0x5c, 0xbd, 0x34, 0x75, 0x08, 0x3e,
  0xaf, 0xe3, 0x33, 0x3d, 0xe0, 0x92, 0x16, 0xbe, 0x89, 0x47, 0x0d, 0x3e,
  0xa8, 0x03, 0x47, 0x3d, 0xc8, 0x6a, 0xf6, 0x3e, 0xd6, 0xce, 0x67, 0xbd,
  0xb8, 0xc9, 0x30, 0xbd, 0xdd, 0xe5, 0x10, 0xbe, 0xcb, 0xf0, 0xa8, 0xbe,
  0xbe, 0xd8, 0xee, 0x3c, 0x8c, 0x2c, 0xa0, 0xbc, 0xf1, 0x79, 0xbf, 0x3d,
  0xf7, 0x6a, 0x53, 0xbc, 0xce, 0xc3, 0xdf, 0x3b, 0x43, 0x6f, 0xe5, 0x3c,
  0x9b, 0x71, 0x0a, 0x3d, 0xe5, 0x67, 0xc8, 0x3d, 0xb2, 0xbd, 0x36, 0xbe,
  0xea, 0x13, 0x0c, 0x3e, 0xbb, 0x4e, 0x57, 0x3e, 0x6d, 0x15, 0x5a, 0x3f,
  0x8c, 0x63, 0xca, 0x3e, 0xd4, 0x77, 0x1d, 0xbd, 0xfe, 0x3f, 0x93, 0x3e,
  0xcb, 0xc9, 0x3e, 0x3d, 0x5f, 0x05, 0x89, 0xbd, 0xe9, 0x43, 0x8a, 0x3d,
  0xac, 0x33, 0x17, 0xbe, 0x6d, 0xdb, 0x52, 0xbe, 0xf7, 0x40, 0x07, 0x3e,
  0x09, 0xf0, 0xe5, 0xbd, 0x20, 0x8a, 0x4d, 0x3e, 0x1d, 0xc5, 0x96, 0x3c,
  0xcc, 0x13, 0x08, 0xbe, 0x09, 0x5c, 0x7f, 0x3e, 0x74, 0x38, 0xb8, 0x3e,
  0xb7, 0x06, 0x09, 0x3f, 0x85, 0x17, 0xca, 0x3c, 0x74, 0x22, 0x66, 0x3d,
  0xc1, 0xc5, 0x23, 0x3e, 0xf2, 0x48, 0xb2, 0xbe, 0x39, 0x5c, 0x5d, 0xbe,
  0xf9, 0x62, 0xdf, 0xbe, 0xc1, 0x19, 0xce, 0xbd, 0x95, 0xc3, 0x3b, 0xbe,
  0x2f, 0x47, 0x94, 0xbe, 0x8b, 0xf5, 0xa4, 0xbd, 0x35, 0x9b, 0x96, 0xbd,
  0x05, 0x0f, 0xde, 0xbe, 0xff, 0x8d, 0x9d, 0xbc, 0xca, 0x86, 0xaa, 0xbe,
  0xbe, 0x98, 0xaf, 0x3e, 0x62, 0x4e, 0x92, 0x3e, 0x68, 0x26, 0x60, 0xbd,
  0xc3, 0xb3, 0x8b, 0x3c, 0x95, 0x26, 0x80, 0x3c, 0x3b, 0x36, 0xe2, 0x3d,
  0x2b, 0x11, 0xaa, 0xbd, 0x33, 0xc4, 0xac, 0xbd, 0x84, 0x83, 0x63, 0x3d,
  0x89, 0xf2, 0xea, 0x3b, 0x2b, 0xdc, 0x88, 0xbe, 0x00, 0xbb, 0xa4, 0xbd,
  0x67, 0xda, 0x0a, 0xbe, 0x19, 0x39, 0x39, 0xbd, 0x22, 0x7c, 0x0b, 0xbe,
  0xa3, 0x90, 0xfc, 0x3d, 0x32, 0x90, 0x6b, 0xbe, 0x2d, 0x5a, 0xbd, 0xbd,
  0x5b, 0xe6, 0x81, 0xbd, 0x20, 0xe1, 0xc6, 0xbd, 0xdd, 0x37, 0xeb, 0xbb,
  0x16, 0xfe, 0x36, 0xbf, 0xee, 0x29, 0x43, 0xbe, 0xc8, 0xae, 0x6b, 0xbe,
  0x46, 0x5a, 0xd8, 0xbd, 0x58, 0x85, 0x6b, 0xbc, 0x28, 0xc8, 0x12, 0xbe,
  0xea, 0x53, 0x1c, 0x3e, 0xf2, 0x96, 0x38, 0xbe, 0x6f, 0xf6, 0x39, 0xbc,
  0x6e, 0xd6, 0x48, 0xbe, 0xba, 0xf8, 0x6a, 0x3d, 0xa0, 0x94, 0xa9, 0xbe,
  0xb6, 0x18, 0x09, 0x3e, 0x22, 0x34, 0x32, 0xbe, 0x05, 0xa9, 0xdd, 0xbc,
  0x74, 0xd6, 0x8d, 0xbd, 0xb9, 0x1a, 0x43, 0xbe, 0x93, 0x0e, 0x3f, 0x3d,
  0xbb, 0x5c, 0x14, 0xbe, 0xa6, 0xd8, 0x86, 0x3d, 0x91, 0x99, 0x4e, 0xbd,
  0x04, 0x1e, 0x87, 0xbe, 0xb0, 0x29, 0xe3, 0xbc, 0xbd, 0x78, 0x00, 0xbe,
  0x02, 0x8b, 0xe7, 0x3c, 0x5c, 0x69, 0x4b, 0xbe, 0x15, 0xc1, 0xc2, 0x3d,
  0x59, 0x1a, 0x5c, 0xbe, 0xda, 0xd2, 0xdd, 0x3d, 0xb9, 0x2b, 0x54, 0xbd,
  0x1e, 0xe9, 0xbb, 0x3d, 0xf1, 0x26, 0x80, 0xbc, 0x7b, 0x05, 0xb0, 0xbe,
  0x64, 0x40, 0x17, 0xbe, 0x12, 0x00, 0x17, 0x3c, 0xde, 0x3e, 0x8d, 0xbd,
  0x00, 0x9c, 0x23, 0xbe, 0x00, 0x45, 0x39, 0xbe, 0x3f, 0x30, 0x5e, 0xbe,
  0x7e, 0x5b, 0x84, 0xbe, 0xb7, 0x39, 0x29, 0x3b, 0x33, 0x20, 0x99, 0xbe,
  0xc8, 0x5b, 0xa9, 0x3d, 0xf1, 0x7e, 0x85, 0xbe, 0xc0, 0xb2, 0x8e, 0xbd,
  0x08, 0x93, 0x87, 0xbe, 0x45, 0x9f, 0x90, 0xbe, 0x19, 0x43, 0x8a, 0xbe,
  0xd6, 0xb2, 0xad, 0xbe, 0x7a, 0xa1, 0x42, 0xbe, 0x2a, 0x99, 0x32, 0xbe,
  0xf6, 0xc8, 0xec, 0x3d, 0x03, 0x95, 0x88, 0x3d, 0x0c, 0x25, 0x02, 0xbe,
  0xc9, 0x17, 0xba, 0xbc, 0x74, 0xa1, 0x22, 0x3e, 0x15, 0x81, 0x44, 0xbd,
  0x28, 0x60, 0x4a, 0xbe, 0x48, 0x21, 0x24, 0xbe, 0xed, 0xe5, 0xbe, 0xbd,
  0x57, 0xb0, 0x05, 0xbe, 0xd2, 0x87, 0xb2, 0x3e, 0x66, 0xfe, 0x9b, 0xbe,
  0x2a, 0x54, 0x20, 0xbe, 0xcf, 0x8e, 0xf3, 0xbd, 0x38, 0x14, 0xcc, 0xbc,
  0x74, 0x49, 0xb2, 0xbd, 0x5e, 0x81, 0x4b, 0x3d, 0x76, 0x40, 0x2c, 0xbe,
  0x65, 0xdb, 0xd5, 0xb9, 0x62, 0x86, 0x62, 0x3c, 0x76, 0x8b, 0x68, 0x3e,
  0xe5, 0x78, 0x2e, 0xba, 0xb5, 0xb3, 0x52, 0xbe, 0x93, 0x50, 0xaf, 0x3e,
  0x29, 0x81, 0xeb, 0xbd, 0xc3, 0xfa, 0x93, 0xbd, 0x13, 0x26, 0xc0, 0x3e,
  0xbe, 0x84, 0xf2, 0x3c, 0x1f, 0x84, 0x62, 0x3e, 0xf5, 0x92, 0xff, 0xbe,
  0x36, 0x98, 0x8d, 0xbe, 0xb7, 0xde, 0x3a, 0xbe, 0x80, 0xf3, 0x3d, 0xbd,
  0x68, 0x8b, 0xac, 0x3d, 0x59, 0xf2, 0x70, 0xbd, 0x79, 0xe9, 0x1d, 0xbe,
  0x73, 0x4e, 0x03, 0x3e, 0xe3, 0xb6, 0x0b, 0xbe, 0xae, 0x31, 0x6e, 0xbd,
  0x99, 0xf0, 0x84, 0xbd, 0x13, 0xaf, 0x26, 0xbe, 0x1b, 0xa4, 0x80, 0xbe,
  0xa2, 0xf4, 0x16, 0x3d, 0xc0, 0x54, 0x5c, 0x3c, 0x23, 0x01, 0x32, 0x3e,
  0x6c, 0xf5, 0x00, 0xbe, 0xaf, 0x34, 0xe4, 0xbd, 0xda, 0x55, 0x05, 0xbe,
  0x26, 0xf9, 0xe5, 0x3d, 0xaf, 0xcd, 0x64, 0xbe, 0xfd, 0x28, 0xa2, 0x3e,
  0xc6, 0xac, 0x08, 0xba, 0xf0, 0x4e, 0xda, 0x3d, 0x45, 0x41, 0x2a, 0xbd,
  0xd6, 0xd3, 0x8d, 0x3c, 0xb1, 0x15, 0xd3, 0x3e, 0x3e, 0xae, 0x97, 0xbe,
  0x8b, 0xfa, 0xe1, 0x3e, 0xab, 0x8b, 0x03, 0xbe, 0x7e, 0xb3, 0x3e, 0x3e,
  0x27, 0x83, 0x8b, 0x3e, 0x21, 0xbc, 0x23, 0xbf, 0x1e, 0x33, 0xab, 0xbe,
  0x27, 0x91, 0x30, 0xbe, 0xbc, 0x8a, 0x49, 0xb9, 0x0e, 0x20, 0x17, 0xbe,
  0x7c, 0x35, 0x28, 0xbe, 0x11, 0xd1, 0x59, 0xbe, 0xce, 0x1b, 0x13, 0xbe,
  0xcf, 0xb6, 0xa2, 0x3c, 0x0c, 0xa8, 0x85, 0xbd, 0x9f, 0x3f, 0xa0, 0x3d,
  0xa7, 0x97, 0x9c, 0x3c, 0x7f, 0x1f, 0x8b, 0xbd, 0xa8, 0x2f, 0xf9, 0xbe,
  0x3e, 0xb8, 0x55, 0x3d, 0xab, 0xbf, 0x71, 0xbd, 0xf1, 0x3c, 0x77, 0xbe,
  0x8f, 0x19, 0x2e, 0xbe, 0x7c, 0x56, 0x4a, 0xbe, 0x34, 0x0d, 0xd7, 0x3d,
  0x76, 0x54, 0x9b, 0xbe, 0x9e, 0x38, 0xbd, 0xbe, 0x63, 0x62, 0x20, 0xbf,
  0x77, 0xb9, 0x9d, 0xbe, 0xae, 0x92, 0x25, 0xbd, 0xd1, 0x9b, 0xd4, 0xbd,
  0x76, 0x6b, 0xcc, 0xbd, 0x6f, 0x3b, 0x99, 0x3d, 0xbb, 0xaa, 0x9c, 0x3d,
  0xe2, 0x99, 0xcd, 0xbe, 0xb9, 0x5f, 0x19, 0xbe, 0x1b, 0x83, 0x4b, 0xbe,
  0xb3, 0x2e, 0xba, 0x3d, 0xcd, 0xb2, 0xd8, 0xbc, 0x63, 0xa4, 0x01, 0xbe,
  0xc5, 0x30, 0xb7, 0xbe, 0x5f, 0xc6, 0x91, 0xbe, 0x5f, 0x1d, 0xb5, 0xbe,
  0x49, 0x93, 0xb4, 0xbd, 0xc9, 0x52, 0x1e, 0xbd, 0x46, 0x0a, 0x85, 0xbc,
  0x6b, 0x89, 0xd2, 0xbd, 0x67, 0xa9, 0x2c, 0xbe, 0xb2, 0x4c, 0x1a, 0x3d,
  0x2f, 0x68, 0xd8, 0xbd, 0x30, 0x63, 0xab, 0x3e, 0x04, 0xd4, 0xf0, 0xbe,
  0x93, 0x32, 0xea, 0xbe, 0x51, 0xd0, 0x03, 0xbd, 0x10, 0x90, 0x84, 0xbe,
  0x21, 0xb2, 0xfd, 0xbd, 0x3b, 0x59, 0x8d, 0xbe, 0x18, 0x04, 0x0a, 0xbe,
  0x5a, 0x80, 0x97, 0x3d, 0x5e, 0x73, 0xa8, 0x3d, 0xb3, 0x27, 0x77, 0x3d,
  0x75, 0x4a, 0x20, 0x3d, 0x14, 0xc6, 0x55, 0xbd, 0x3c, 0x77, 0xbd, 0xbd,
  0xe3, 0xf8, 0x10, 0x3c, 0x2a, 0x10, 0xf9, 0xbd, 0x1b, 0x64, 0x61, 0x3e,
  0xdc, 0x2d, 0xb9, 0xbe, 0xd1, 0x51, 0xc7, 0x3b, 0xab, 0x82, 0x8c, 0xbc,
  0xf2, 0x3e, 0x4d, 0xbe, 0x4a, 0x84, 0xb7, 0xbe, 0x56, 0xe5, 0x81, 0xbe,
  0xdb, 0xaa, 0x48, 0xbd, 0x37, 0xd3, 0x77, 0x3d, 0x69, 0x08, 0x09, 0x3e,
  0xa5, 0x60, 0x80, 0x3e, 0x95, 0x12, 0x81, 0x3c, 0x09, 0x12, 0xd0, 0xbb,
  0x4b, 0xf4, 0x70, 0x3e, 0x5b, 0x05, 0x67, 0x3d, 0x5d, 0xbf, 0x80, 0xbe,
  0xd5, 0xd0, 0x55, 0x3e, 0x31, 0xff, 0xd3, 0x3d, 0xbd, 0x72, 0x0e, 0x3e,
  0x1d, 0x2e, 0xac, 0xbd, 0xb8, 0x6c, 0xb3, 0xbd, 0x6d, 0x5b, 0x63, 0xbe,
  0xf7, 0x78, 0x83, 0x3d, 0xb6, 0x6b, 0xaa, 0xbd, 0xb7, 0x65, 0xf3, 0xbc,
  0x64, 0xab, 0x83, 0xbd, 0xcf, 0xf6, 0x40, 0x3e, 0x58, 0xf5, 0x8f, 0xbd,
  0xd5, 0xa8, 0xba, 0x3d, 0x2d, 0x70, 0xc6, 0xbc, 0xad, 0x90, 0x13, 0x3e,
  0x22, 0x80, 0x57, 0xbd, 0xa7, 0x6f, 0xe0, 0x3e, 0xd1, 0x99, 0x13, 0x3d,
  0x94, 0x65, 0x19, 0x3e, 0xd5, 0x78, 0x43, 0xbe, 0x89, 0x4b, 0x2a, 0xbc,
  0xb6, 0x1a, 0x30, 0xb9, 0x73, 0x11, 0x1f, 0x3d, 0x83, 0x8b, 0x69, 0x3e,
  0x87, 0xbf, 0x66, 0xbe, 0xf0, 0x8d, 0x1a, 0xbe, 0x18, 0xfe, 0x8f, 0x3e,
  0x7c, 0x35, 0x10, 0x3e, 0xbc, 0x27, 0x62, 0x3d, 0xbc, 0xaf, 0xfe, 0xbe,
  0x11, 0xe3, 0x3f, 0x3e, 0x33, 0x08, 0xce, 0x3e, 0x8e, 0xc3, 0x97, 0x3d,
  0x59, 0x75, 0x21, 0xbf, 0x6e, 0x3f, 0x32, 0xbe, 0x26, 0x09, 0x96, 0xbd,
  0x12, 0xe3, 0xa1, 0x3d, 0x66, 0xae, 0x9b, 0xbe, 0x69, 0xf6, 0xf6, 0xbe,
  0xe6, 0x81, 0x75, 0x3e, 0xe2, 0xd0, 0x5f, 0x3e, 0xe5, 0xb1, 0x78, 0xbe,
  0x9f, 0xac, 0xb9, 0x3d, 0x80, 0x86, 0x82, 0x3d, 0xb1, 0x05, 0x62, 0xbb,
  0x55, 0x8a, 0x3e, 0xbe, 0x7d, 0x3f, 0x85, 0x3e, 0xd6, 0xc3, 0x73, 0x3e,
  0xb3, 0x20, 0x0e, 0x3e, 0x85, 0xbd, 0x20, 0xbe, 0x35, 0x53, 0x10, 0xbe,
  0xa9, 0x84, 0x4b, 0x3d, 0x6f, 0x28, 0x95, 0xbc, 0xc8, 0xa0, 0x75, 0xbd,
  0x6b, 0xc7, 0xa9, 0xbe, 0x08, 0x99, 0x74, 0x3e, 0x70, 0x21, 0xa4, 0x3e,
  0x3a, 0x39, 0x3b, 0xbe, 0x76, 0xb4, 0x39, 0x3e, 0x5f, 0x1a, 0x25, 0xbc,
  0x72, 0x73, 0x3a, 0x3c, 0xef, 0xea, 0x31, 0x3e, 0xb4, 0xea, 0x4e, 0x3e,
  0x14, 0x2c, 0xda, 0x3e, 0x99, 0x57, 0x23, 0xbd, 0x2e, 0x52, 0x64, 0xbe,
  0x45, 0x7c, 0xc4, 0xbd, 0x53, 0x93, 0xda, 0x3d, 0x64, 0x5f, 0xaf, 0xbd,
  0xe9, 0x23, 0x4a, 0xbc, 0x12, 0x51, 0x28, 0xbe, 0x8f, 0x87, 0x2b, 0x3e,
  0xfb, 0x13, 0x25, 0x3e, 0xff, 0xdc, 0x45, 0x3d, 0x2f, 0x86, 0x32, 0x3e,
  0xde, 0x4f, 0x2c, 0xbd, 0x52, 0x26, 0xe9, 0x3c, 0xc5, 0xa2, 0xda, 0x3d,
  0x96, 0x85, 0x12, 0x3e, 0x1d, 0x98, 0xdd, 0x3e, 0x90, 0x79, 0xcd, 0xbd,
  0x4a, 0x97, 0x58, 0xbd, 0xba, 0x92, 0x7c, 0x3d, 0x08, 0x99, 0x6f, 0x3c,
  0x74, 0xb3, 0x1b, 0xbd, 0xdd, 0xaf, 0x5b, 0xbe, 0x0e, 0xb9, 0x48, 0xbe,
  0xbd, 0x51, 0xdf, 0x3d, 0x76, 0x72, 0x91, 0x3e, 0xd0, 0x33, 0xbb, 0xbe,
  0x78, 0xac, 0x4b, 0x3e, 0x5c, 0xa6, 0x1c, 0xbd, 0x48, 0x84, 0x47, 0x3d,
  0x46, 0x66, 0x14, 0xbe, 0x81, 0x5a, 0x59, 0x3e, 0x2a, 0xd7, 0x30, 0x3f,
  0x93, 0x63, 0x70, 0xbe, 0x96, 0xd8, 0xba, 0xbd, 0xb0, 0x7b, 0x81, 0xbe,
  0xeb, 0x5d, 0x96, 0xbd, 0x8f, 0xcc, 0x4f, 0xbe, 0x0d, 0xa1, 0xa8, 0xbd,
  0x69, 0x2d, 0xa7, 0xbe, 0x0d, 0x85, 0x33, 0x3e, 0x8e, 0xe9, 0x50, 0x3d,
  0x86, 0x69, 0x8e, 0xbe, 0x3c, 0xd1, 0xd3, 0xbd, 0x6d, 0x56, 0xe6, 0xbd,
  0x31, 0x0c, 0xde, 0x3b, 0x56, 0x5b, 0xa0, 0x3c, 0xb1, 0xe3, 0x69, 0x3e,
  0x97, 0x11, 0x26, 0x3f, 0xbb, 0xe0, 0x09, 0xbf, 0xc5, 0xe9, 0xb3, 0xbe,
  0xc7, 0xb1, 0x88, 0xbe, 0x47, 0x04, 0x1c, 0xbd, 0x1a, 0xca, 0x92, 0xbe,
  0xec, 0x30, 0x3e, 0x3d, 0xed, 0x86, 0xe8, 0xbe, 0xf8, 0x96, 0x89, 0x3d,
  0xab, 0x36, 0xcd, 0xbd, 0xae, 0xf4, 0x2d, 0xbe, 0xde, 0x07, 0x6e, 0xbc,
  0x47, 0x2f, 0x93, 0x3d, 0x5d, 0x26, 0xa6, 0x39, 0x7d, 0xef, 0xce, 0x3d,
  0x41, 0xb4, 0x70, 0x3e, 0x60, 0xf1, 0xf1, 0x3d, 0xd5, 0x54, 0x6a, 0xbe,
  0x26, 0x8a, 0x81, 0xbd, 0x50, 0xd3, 0xc7, 0xbd, 0x92, 0x80, 0x88, 0xbd,
  0x9e, 0x97, 0x29, 0xbd, 0x7f, 0x8e, 0x35, 0xbe, 0xc4, 0x4d, 0xce, 0xbe,
  0x60, 0xc1, 0x56, 0xbd, 0x1f, 0xa7, 0x97, 0x3e, 0xad, 0x34, 0xc5, 0xbd,
  0xbc, 0x9e, 0x1a, 0x3e, 0xa0, 0x67, 0x33, 0x3e, 0x5a, 0x19, 0xff, 0xba,
  0x6a, 0x5a, 0x89, 0x3e, 0xa8, 0x5f, 0xf6, 0xbd, 0x80, 0xac, 0x17, 0xbe,
  0x3d, 0xab, 0x8a, 0xbe, 0x79, 0xf3, 0x88, 0x3d, 0x70, 0x0a, 0x52, 0x3e,
  0x35, 0xd9, 0xbf, 0xbe, 0x4c, 0x01, 0x8c, 0xbd, 0xe5, 0xab, 0xa6, 0x3b,
  0x97, 0x5b, 0x45, 0x3c, 0x4f, 0xdb, 0x09, 0xbe, 0xb0, 0xb4, 0x3b, 0xbe,
  0xab, 0x3f, 0x6f, 0xbd, 0x12, 0x83, 0x60, 0x3e, 0xf2, 0x6d, 0x3f, 0xbd,
  0x5e, 0x6a, 0xa0, 0x3c, 0xea, 0x7e, 0x91, 0x3e, 0xba, 0xb3, 0xcc, 0xbd,
  0xde, 0x85, 0xf4, 0xbd, 0x00, 0xb5, 0xda, 0xbe, 0x39, 0x64, 0xd9, 0x3d,
  0x47, 0xd8, 0x8f, 0x3e, 0xdd, 0x3a, 0x3a, 0xbe, 0xda, 0xaf, 0x21, 0x3d,
  0xda, 0x2f, 0x08, 0xbe, 0xfc, 0x97, 0xdf, 0x3d, 0xc8, 0x1e, 0x52, 0xbd,
  0xd0, 0x51, 0x3e, 0xbe, 0xba, 0x15, 0x5a, 0xbe, 0xe4, 0xce, 0xee, 0xbd,
  0x2a, 0x53, 0xa6, 0xbd, 0x47, 0xeb, 0xb5, 0x3b, 0x4a, 0xda, 0x57, 0xbe,
  0xd3, 0xee, 0x44, 0xbb, 0x96, 0xb4, 0xea, 0x3c, 0x6b, 0xa3, 0x8a, 0xbe,
  0x49, 0xf8, 0x28, 0x3c, 0x8d, 0x98, 0xa9, 0xbe, 0xb6, 0x5b, 0x01, 0x3e,
  0x5b, 0x85, 0x2a, 0x3e, 0x8c, 0x36, 0x6e, 0x3d, 0xc7, 0x45, 0x87, 0x3e,
  0xa8, 0x1c, 0x15, 0xbe, 0xef, 0x98, 0xbb, 0xbe, 0xb4, 0x76, 0xb3, 0xbe,
  0x4b, 0x57, 0x86, 0xbe, 0xa0, 0x66, 0xac, 0xbd, 0x46, 0xf9, 0x76, 0xbd,
  0xa1, 0x61, 0xd2, 0xbe, 0x89, 0xe9, 0xb7, 0x3d, 0x00, 0x0b, 0x9e, 0xbd,
  0xff, 0x12, 0x8a, 0xbe, 0x7a, 0xb7, 0xbd, 0xbe, 0x5e, 0xcf, 0xc4, 0xbe,
  0x79, 0xbc, 0x26, 0xbb, 0xd4, 0xf0, 0x06, 0x3e, 0xff, 0x94, 0xa6, 0xbc,
  0x6a, 0xdb, 0x06, 0xbf, 0x9d, 0x48, 0x20, 0xbe, 0x89, 0xa1, 0x9f, 0xbe,
  0xde, 0x28, 0xa8, 0x3c, 0x3e, 0x1c, 0x74, 0xbd, 0x77, 0x4f, 0xe8, 0xbc,
  0x19, 0x0a, 0x24, 0xbd, 0x53, 0xee, 0xa3, 0xbe, 0xd9, 0x0b, 0xc6, 0xbd,
  0x3d, 0x5e, 0x0a, 0xbe, 0x0b, 0x96, 0x1a, 0x3e, 0xb7, 0xa0, 0x05, 0xbf,
  0xd1, 0x60, 0xe2, 0xbe, 0x94, 0x76, 0x96, 0x3d, 0x54, 0x50, 0x3d, 0x3e,
  0xf4, 0x35, 0x3c, 0xbe, 0x53, 0x63, 0xa5, 0xbe, 0x06, 0x76, 0x32, 0x3d,
  0x91, 0x78, 0x5e, 0xbe, 0xcf, 0x22, 0x17, 0x3e, 0xdc, 0xb7, 0xcb, 0x3d,
  0x60, 0x2a, 0x4b, 0xbc, 0x44, 0x20, 0x39, 0xbd, 0x8a, 0x9b, 0x43, 0xbe,
  0x1f, 0x2e, 0x15, 0xbc, 0x65, 0xc8, 0x58, 0xbe, 0x66, 0xff, 0xc1, 0x3e,
  0x6e, 0x67, 0xc8, 0xbe, 0xb0, 0x1a, 0x4e, 0xbe, 0x0f, 0xa7, 0x63, 0x3c,
  0xd5, 0x25, 0x83, 0xbe, 0xb6, 0xef, 0x0b, 0xbd, 0x8b, 0x88, 0x91, 0xbe,
  0xbe, 0x33, 0x20, 0x3d, 0x75, 0x1a, 0x7f, 0x3e, 0x5b, 0xc8, 0x4c, 0x3e,
  0x7a, 0x06, 0x80, 0x3c, 0xd6, 0x43, 0xc2, 0x3c, 0x26, 0x6d, 0x3d, 0xbc,
  0x3a, 0xc9, 0xbd, 0xbb, 0x75, 0x43, 0x83, 0xbb, 0xbd, 0x69, 0x81, 0xbe,
  0x49, 0x65, 0xe7, 0x3e, 0x2d, 0x72, 0x78, 0xbd, 0xd9, 0x58, 0x3c, 0xbc,
  0x14, 0x64, 0xa8, 0xbd, 0xf5, 0x47, 0xfe, 0xbc, 0x39, 0x44, 0xd9, 0xbd,
  0xb2, 0x26, 0xaf, 0x3c, 0xc3, 0x97, 0x77, 0xbe, 0x8c, 0xe2, 0x18, 0x3e,
  0x0b, 0xb5, 0xc9, 0xbd, 0x4f, 0x0d, 0x84, 0xbe, 0x83, 0x1a, 0x0d, 0xbe,
  0x71, 0x87, 0x46, 0xbe, 0x60, 0x47, 0x3d, 0xbc, 0x93, 0x93, 0x24, 0xbd,
  0xb1, 0x93, 0x0a, 0x3f, 0xf6, 0xf5, 0x45, 0xbe, 0x31, 0x85, 0xbc, 0x3c,
  0x24, 0x54, 0x4d, 0xbe, 0xf8, 0xf6, 0x68, 0xbe, 0xa0, 0x15, 0xcd, 0xbd,
  0xe1, 0xc1, 0xfe, 0xbd, 0x90, 0x32, 0x9f, 0x3d, 0x3b, 0x0c, 0xce, 0x3d,
  0x46, 0x3f, 0x73, 0xbe, 0x90, 0x9c, 0xfe, 0x3c, 0x73, 0x85, 0x1c, 0xbe,
  0x30, 0x7d, 0x9c, 0xbe, 0x13, 0xa2, 0x79, 0xbe, 0x05, 0x88, 0xac, 0xbd,
  0x45, 0xce, 0x6e, 0x3e, 0x3a, 0xeb, 0x12, 0x3f, 0x04, 0xaa, 0x19, 0xbe,
  0x2c, 0x03, 0x6b, 0xbd, 0x27, 0x80, 0x80, 0xbd, 0xc5, 0xe4, 0x7b, 0xbd,
  0xe2, 0xd4, 0xdc, 0x3c, 0x34, 0xbd, 0x71, 0xbe, 0x7d, 0x28, 0x1a, 0x3e,
  0x6e, 0xfa, 0xc5, 0xbd, 0x17, 0xc5, 0x3b, 0xbe, 0xf5, 0x34, 0x51, 0x3d,
  0x7e, 0x89, 0x0d, 0xbd, 0x17, 0x80, 0x05, 0xbe, 0x4a, 0x9f, 0x8b, 0xbe,
  0x01, 0xad, 0x37, 0xbe, 0xe9, 0xf8, 0x29, 0x3e, 0x31, 0xf6, 0x3b, 0x3f,
  0xed, 0xde, 0xab, 0x3d, 0x1f, 0x3d, 0x2b, 0x3e, 0xbe, 0xbf, 0x90, 0xbd,
  0xfb, 0x30, 0x45, 0xbd, 0x7b, 0x4b, 0x42, 0xbd, 0xc1, 0x93, 0x8c, 0xbe,
  0x0a, 0xc7, 0x0b, 0x3e, 0x09, 0xe2, 0x1d, 0xbd, 0x70, 0xe0, 0xb0, 0x3c,
  0x08, 0x33, 0x63, 0xbc, 0x11, 0x2c, 0x53, 0xbd, 0x16, 0xa7, 0x06, 0xbe,
  0x64, 0xa6, 0xd8, 0xbd, 0x9c, 0x78, 0x20, 0xbe, 0x44, 0x72, 0x08, 0x3e,
  0xc4, 0x49, 0x98, 0x3f, 0x5d, 0x47, 0x97, 0xbd, 0xa6, 0xe9, 0x1d, 0xbd,
  0x17, 0xaf, 0xbf, 0x3d, 0x5f, 0x9c, 0xc8, 0xbd, 0xfa, 0x79, 0x08, 0x3c,
  0x9c, 0x8e, 0x05, 0xbc, 0x2d, 0x7d, 0xcf, 0xbd, 0x9f, 0x80, 0xad, 0xbe,
  0xda, 0xff, 0xb2, 0xbd, 0xbc, 0x1a, 0x06, 0x3e, 0xa9, 0x51, 0x33, 0xbe,
  0xbe, 0x61, 0xe5, 0xbe, 0xcc, 0x25, 0x51, 0xbe, 0xc9, 0xfb, 0xc2, 0xbd,
  0xf7, 0x48, 0xb1, 0x3e, 0x78, 0x2d, 0x03, 0x3f, 0xb3, 0xd9, 0x81, 0x3d,
  0x31, 0x3e, 0x4f, 0x3b, 0x02, 0xfc, 0x5c, 0x3c, 0x5d, 0xa8, 0x82, 0xbe,
  0x45, 0x00, 0x49, 0xbe, 0x87, 0xe8, 0x10, 0xbd, 0xd7, 0x26, 0x0d, 0x3e,
  0x9f, 0x6c, 0xab, 0xbd, 0x53, 0xc2, 0x88, 0x3d, 0x05, 0xd0, 0x93, 0xbd,
  0xb6, 0x22, 0x4f, 0xbd, 0xd0, 0x32, 0x44, 0x3b, 0xa0, 0x5f, 0xf1, 0xbd,
  0xa3, 0x8e, 0xdd, 0xbd, 0xd8, 0xb0, 0x6e, 0x3e, 0xed, 0x93, 0x66, 0x3f,
  0xae, 0xc8, 0x39, 0xbe, 0x3b, 0xd9, 0x7e, 0x3d, 0x08, 0x6c, 0xe2, 0xbc,
  0xf7, 0x2e, 0xca, 0xbe, 0xb8, 0xaf, 0xf9, 0x3d, 0x78, 0x7b, 0x02, 0xbe,
  0x3a, 0x78, 0x03, 0x3e, 0x13, 0x03, 0x83, 0xbe, 0x4e, 0x52, 0x64, 0xbd,
  0x5a, 0x86, 0x44, 0xbe, 0x9b, 0x16, 0xb7, 0xbe, 0x86, 0xe2, 0xa9, 0xbe,
  0x9d, 0xa2, 0xad, 0xbe, 0x7c, 0x0c, 0x3d, 0xbd, 0xfb, 0x07, 0xf9, 0xbc,
  0x21, 0x38, 0x47, 0x3f, 0xd7, 0x93, 0x71, 0xbe, 0xc5, 0xb3, 0xa4, 0xbe,
  0x1c, 0x49, 0x74, 0xbe, 0x08, 0x72, 0xbf, 0xbe, 0x23, 0xb3, 0xa3, 0x3d,
  0x77, 0x14, 0xad, 0x3c, 0xbb, 0xce, 0x6c, 0xbe, 0x78, 0xf5, 0xce, 0xbd,
  0x44, 0xfe, 0x37, 0x3e, 0x8c, 0x24, 0xeb, 0xbb, 0x0c, 0x8d, 0xff, 0x3d,
  0x7d, 0x57, 0xab, 0x3d, 0xd9, 0x1e, 0xbd, 0xbd, 0x1c, 0xd7, 0x9f, 0x3e,
  0x9d, 0x78, 0xcf, 0xbe, 0xef, 0xa0, 0x10, 0x3e, 0xd3, 0xf3, 0xb6, 0xbc,
  0x71, 0xd5, 0x10, 0x3e, 0x12, 0x60, 0x11, 0x3d, 0x51, 0x71, 0xdd, 0xbe,
  0x5b, 0x08, 0x85, 0xbe, 0xfd, 0x87, 0x01, 0xbe, 0xa0, 0xc6, 0x1f, 0xbd,
  0xec, 0x56, 0x7b, 0x3d, 0xff, 0xd1, 0x1e, 0xbe, 0x8a, 0x2a, 0xdd, 0xbd,
  0xc6, 0x52, 0x74, 0x3e, 0x1e, 0x8a, 0xee, 0x3d, 0xad, 0x74, 0xd6, 0xbd,
  0x3b, 0x95, 0x4d, 0x3d, 0xb9, 0xc8, 0xce, 0xbe, 0x1d, 0xb1, 0x1f, 0x3e,
  0x90, 0xe6, 0xb4, 0xbe, 0xfc, 0x8c, 0x41, 0x3e, 0x50, 0xb1, 0xcc, 0x3d,
  0x55, 0x6d, 0x6c, 0xbe, 0xe8, 0x9e, 0x8e, 0xbd, 0x94, 0x75, 0x9c, 0xbd,
  0x05, 0x9a, 0xaa, 0x3d, 0x09, 0x83, 0x1d, 0xbe, 0x90, 0xde, 0xc9, 0xbd,
  0xe7, 0xc6, 0xdf, 0xbd, 0xba, 0xeb, 0x6c, 0xbe, 0xcd, 0xb5, 0xa5, 0xbd,
  0xae, 0x6c, 0x3a, 0xbd, 0xad, 0x70, 0x0c, 0xbe, 0x36, 0x67, 0xc0, 0xbe,
  0xcc, 0x49, 0x24, 0x3c, 0xfa, 0x23, 0x07, 0xbd, 0x9d, 0xe2, 0x93, 0xbd,
  0x48, 0x74, 0xb4, 0xbe, 0x1c, 0xa6, 0x36, 0x3d, 0x72, 0xd4, 0xb6, 0xba,
  0x35, 0x02, 0x08, 0xbe, 0x89, 0xaf, 0x13, 0xbe, 0xb6, 0x6e, 0x6f, 0xbe,
  0x24, 0xd8, 0x2d, 0xbe, 0x53, 0x4a, 0xe4, 0xbe, 0xc1, 0x7a, 0x33, 0xbe,
  0xa2, 0x00, 0xd3, 0xbd, 0x8f, 0x49, 0xc3, 0xbd, 0xa2, 0x47, 0x9a, 0xbe,
  0x43, 0x8e, 0x58, 0xbe, 0x62, 0x2e, 0xa4, 0xbd, 0x7b, 0x68, 0xe2, 0xbe,
  0xf2, 0x44, 0xc5, 0xbe, 0xd6, 0xea, 0x2d, 0xbf, 0x41, 0x45, 0xb0, 0xbd,
  0x40, 0xbc, 0xaf, 0xbd, 0x29, 0x65, 0x79, 0xbe, 0x3d, 0x92, 0xad, 0xbe,
  0x2b, 0x37, 0x9f, 0xbd, 0x41, 0x58, 0xa3, 0xbe, 0x17, 0x6f, 0x2e, 0xbe,
  0x60, 0x9c, 0xc6, 0x3c, 0x8a, 0xc6, 0x28, 0x3d, 0xf5, 0xd2, 0x0a, 0xbe,
  0x36, 0xb6, 0xb7, 0xbe, 0x6e, 0x63, 0xde, 0xbe, 0xd1, 0x1f, 0x05, 0xbe,
  0xb9, 0xdc, 0x03, 0x3e, 0xff, 0xb3, 0xb6, 0xbe, 0xfa, 0xfc, 0x80, 0xbe,
  0x4e, 0xf8, 0xba, 0xbc, 0x8f, 0xd7, 0x86, 0xbd, 0xcd, 0x96, 0xf0, 0xbe,
  0x5a, 0xce, 0x9a, 0xbe, 0xea, 0x5c, 0x73, 0xbd, 0x0d, 0x55, 0x49, 0x3e,
  0xa9, 0xb4, 0x99, 0x3d, 0x14, 0x6c, 0x92, 0x3d, 0x46, 0x1e, 0x74, 0x3d,
  0x3b, 0xbb, 0x53, 0xbd, 0xa1, 0x4d, 0x4f, 0x3d, 0xf0, 0x78, 0xd4, 0xbd,
  0x71, 0x04, 0x72, 0xbe, 0xf4, 0x6c, 0x51, 0x3e, 0x15, 0x95, 0xa3, 0xbd,
  0x62, 0xfa, 0x9d, 0x3d, 0xb0, 0x42, 0x82, 0xbd, 0x4d, 0xd3, 0x32, 0xbe,
  0x4d, 0x3d, 0x59, 0xbe, 0xd3, 0x1a, 0x87, 0xbe, 0xc6, 0xbb, 0xff, 0x3d,
  0x8e, 0xd4, 0xe3, 0x3d, 0x1f, 0x48, 0x42, 0x3d, 0x25, 0x28, 0x38, 0x3c,
  0xd0, 0x8a, 0xe3, 0xbc, 0x71, 0x0a, 0xaf, 0x3d, 0x1a, 0x4f, 0xb5, 0x3c,
  0xa7, 0xba, 0xec, 0xbe, 0x47, 0x34, 0xff, 0xbe, 0x55, 0xe5, 0x8f, 0x3e,
  0x38, 0xf2, 0xd4, 0x3d, 0x4f, 0x27, 0xb7, 0x3d, 0xe3, 0x32, 0xd2, 0xbd,
  0xf9, 0x11, 0xd6, 0x3c, 0xb5, 0x6e, 0xb9, 0xbc, 0xf5, 0xe9, 0x1d, 0xbc,
  0x5d, 0xc5, 0x6c, 0xbe, 0x54, 0x07, 0x53, 0xbe, 0x0c, 0x8c, 0xfd, 0x3e,
  0xe2, 0x1b, 0xbc, 0xbd, 0xf0, 0xde, 0x9b, 0xbe, 0x23, 0x5f, 0xd1, 0xbc,
  0x64, 0xb6, 0x03, 0xbe, 0xe7, 0x66, 0x60, 0xbe, 0x82, 0xb9, 0x1c, 0x3f,
  0xd4, 0x91, 0x81, 0xbe, 0x9c, 0x3e, 0x23, 0x3c, 0x24, 0x30, 0x0d, 0x3b,
  0x30, 0x20, 0x2d, 0x3e, 0xe9, 0xb1, 0x61, 0x3e, 0xe1, 0xe3, 0x63, 0x3e,
  0xe1, 0x11, 0xc0, 0x3d, 0xa5, 0xf3, 0xa3, 0xbe, 0x1c, 0x47, 0x9a, 0xbe,
  0xc7, 0x8f, 0xb5, 0x3e, 0x1d, 0x3d, 0xdc, 0xbd, 0xe6, 0x53, 0x43, 0xbc,
  0xad, 0xe8, 0x95, 0xbd, 0x52, 0x84, 0xc6, 0xbd, 0xc9, 0x05, 0x84, 0xbd,
  0xb0, 0xec, 0x59, 0x3f, 0xf6, 0x94, 0x91, 0x3e, 0x15, 0x51, 0x60, 0x3e,
  0xf2, 0x2e, 0xd7, 0xbd, 0x0d, 0xae, 0x32, 0xbd, 0xa9, 0xbb, 0x8a, 0xbe,
  0x83, 0xd8, 0x67, 0x3c, 0xbd, 0xfd, 0x0f, 0x3d, 0x5a, 0xbb, 0x3d, 0xbe,
  0xcd, 0x3b, 0xeb, 0xbe, 0x7d, 0xba, 0xfb, 0x3e, 0x0e, 0x9c, 0x01, 0xbe,
  0x11, 0xf4, 0x40, 0x3e, 0x9b, 0x1f, 0x53, 0xbd, 0x78, 0xc8, 0x09, 0x3d,
  0xdf, 0xc6, 0xd5, 0xbd, 0xdf, 0x76, 0x4d, 0x3f, 0x9d, 0x1a, 0x7f, 0x3e,
  0x1e, 0x92, 0x98, 0x3e, 0x37, 0xed, 0x09, 0x3f, 0x63, 0x4a, 0xd5, 0xbd,
  0x0c, 0xbd, 0x8e, 0x3d, 0x8b, 0x5f, 0x06, 0xbf, 0x5c, 0x10, 0xa2, 0x3d,
  0x11, 0xf9, 0x31, 0xbe, 0xa8, 0x69, 0x88, 0xbe, 0x2b, 0x80, 0xf7, 0xbd,
  0xff, 0x36, 0x26, 0xbe, 0xa6, 0x54, 0xef, 0xbc, 0xa6, 0x41, 0x62, 0x3d,
  0x8b, 0xc0, 0x56, 0xbd, 0x1b, 0x71, 0x71, 0xbe, 0xd2, 0xb4, 0xdc, 0x3e,
  0x03, 0x50, 0x43, 0x3e, 0x99, 0x2b, 0xab, 0x3e, 0x06, 0x38, 0xd8, 0x3e,
  0x42, 0x1a, 0x36, 0x3e, 0xa4, 0xa4, 0xa5, 0x3e, 0xb1, 0xdd, 0x9d, 0x3d,
  0x7e, 0x80, 0x6a, 0x3e, 0xcc, 0xe0, 0xb9, 0xbd, 0x0c, 0xd0, 0x68, 0xbe,
  0xfc, 0x89, 0xdc, 0x3e, 0x27, 0xbc, 0xe4, 0x3c, 0x17, 0x2b, 0x23, 0xbe,
  0xaa, 0xd8, 0x2c, 0xbd, 0x86, 0x79, 0xa9, 0x3e, 0xf2, 0x39, 0x1e, 0xbe,
  0x9b, 0x8e, 0x8b, 0x3f, 0x09, 0xd2, 0xc8, 0xbe, 0x77, 0xb6, 0x66, 0x3e,
  0xcb, 0x3a, 0xd2, 0x3e, 0x7c, 0x65, 0x12, 0x3e, 0x65, 0xa4, 0x6d, 0x3e,
  0x02, 0xe6, 0x98, 0x3e, 0x4a, 0x4e, 0xa3, 0x3e, 0x55, 0xa1, 0x26, 0xbe,
  0x4e, 0x0b, 0x03, 0xbe, 0x98, 0x6e, 0x97, 0x3e, 0x9d, 0xfa, 0xce, 0xbe,
  0xd7, 0x38, 0x3f, 0x3e, 0x2c, 0x09, 0xce, 0xbd, 0x45, 0xdc, 0xce, 0xbe,
  0xb7, 0x66, 0x80, 0xbd, 0xa9, 0xdd, 0xa9, 0x3e, 0xf5, 0xe9, 0xf8, 0x3d,
  0x47, 0xed, 0x31, 0xbd, 0xea, 0xa2, 0xa0, 0xbe, 0x2b, 0x0b, 0x8b, 0xbe,
  0xe2, 0x39, 0xcd, 0xbe, 0x0e, 0xee, 0x81, 0xbd, 0x23, 0x59, 0xd4, 0x3e,
  0x46, 0xa0, 0xce, 0xbd, 0x18, 0x69, 0x15, 0xbc, 0x56, 0x60, 0xc2, 0xbe,
  0x9e, 0x12, 0x09, 0xbe, 0x63, 0xc4, 0x20, 0x3e, 0xff, 0x81, 0x76, 0xbd,
  0x78, 0x16, 0x78, 0xbe, 0xc6, 0x08, 0x9d, 0x3c, 0x40, 0xd5, 0x40, 0xbe,
  0xf5, 0xb2, 0x4e, 0xbe, 0x96, 0x75, 0xa2, 0x3d, 0x67, 0x54, 0xf7, 0x3c,
  0xc0, 0x78, 0x3f, 0xbd, 0x4a, 0xf8, 0x13, 0xbe, 0xc2, 0x3d, 0x89, 0xbe,
  0xe0, 0x41, 0x2f, 0x3e, 0x7d, 0x48, 0x5b, 0x3c, 0x9f, 0x9c, 0x11, 0xbe,
  0x66, 0x1d, 0x0b, 0x3e, 0xfd, 0x5d, 0x1e, 0xbe, 0x6b, 0xce, 0x9c, 0xbe,
  0x54, 0xf5, 0x0f, 0x3d, 0xa8, 0x75, 0x3c, 0xbe, 0x74, 0x4f, 0x0e, 0xbe,
  0xe3, 0xb3, 0xda, 0x3d, 0x7e, 0x99, 0x19, 0x3c, 0x76, 0xcd, 0x7c, 0xbe,
  0x94, 0xee, 0xcf, 0xbd, 0xe5, 0x0b, 0x2c, 0xbe, 0x84, 0x16, 0xb1, 0x3d,
  0xb8, 0x25, 0x0b, 0xbd, 0xd2, 0x11, 0x9f, 0xbb, 0x1a, 0xdf, 0xe2, 0x3d,
  0xf7, 0xdd, 0x49, 0xbe, 0xa9, 0x4f, 0xcb, 0xbd, 0xcb, 0xce, 0x12, 0x3e,
  0x02, 0xd1, 0x95, 0xbc, 0x6e, 0xf4, 0x2d, 0xbe, 0x44, 0xeb, 0x10, 0x3d,
  0xd3, 0x28, 0x08, 0xbe, 0x5a, 0x01, 0xd6, 0xbd, 0x96, 0xc2, 0x1a, 0xbb,
  0x3f, 0x92, 0x4d, 0xbe, 0x86, 0x81, 0x1a, 0xbe, 0xc6, 0xec, 0x67, 0xbd,
  0xcd, 0x18, 0x07, 0x3d, 0xcf, 0x93, 0x24, 0x3d, 0x38, 0xef, 0x31, 0xbe,
  0x17, 0xad, 0xd3, 0xbc, 0x63, 0x01, 0xbc, 0xbd, 0x8b, 0x48, 0x3e, 0xbe,
  0xc8, 0x01, 0x89, 0xbd, 0xd2, 0x6a, 0x8d, 0xbe, 0xa0, 0x80, 0x84, 0xbe,
  0x2a, 0xe6, 0xfa, 0xbb, 0x6b, 0x35, 0xf1, 0x3d, 0x71, 0xcb, 0xfa, 0xbd,
  0x1f, 0xc0, 0x96, 0xbd, 0xd2, 0xe4, 0xdc, 0xbd, 0xc4, 0x53, 0xb1, 0xbd,
  0x45, 0xab, 0xd4, 0xbd, 0xc2, 0xa7, 0xf5, 0xbd, 0x6d, 0x69, 0xa2, 0xbd,
  0xe5, 0x09, 0x20, 0x3e, 0x7b, 0x9b, 0xf5, 0xbd, 0x8d, 0x23, 0x05, 0x3e,
  0x41, 0x60, 0xf1, 0xbc, 0xd9, 0x7a, 0xcb, 0xbd, 0x89, 0x69, 0x53, 0x3c,
  0xc2, 0x97, 0x73, 0xbc, 0x93, 0x97, 0x2f, 0xbe, 0x6a, 0x2b, 0xf2, 0x3d,
  0x0d, 0x40, 0x10, 0xbe, 0x0c, 0x0e, 0x61, 0xbe, 0x34, 0x10, 0xb1, 0x3a,
  0xb6, 0xce, 0xda, 0xbd, 0x5f, 0x00, 0x94, 0xbe, 0x15, 0xe4, 0xa9, 0xbd,
  0x50, 0x79, 0xa2, 0xbc, 0xc5, 0xf1, 0x10, 0xbc, 0x10, 0x76, 0x3b, 0xbe,
  0xdc, 0xc4, 0x4d, 0xbd, 0xf0, 0xff, 0x4c, 0xbe, 0x93, 0xda, 0x58, 0xbe,
  0xd4, 0xdb, 0x9f, 0xbe, 0x74, 0xeb, 0x90, 0xbe, 0x44, 0x92, 0x66, 0xbc,
  0x9f, 0xd2, 0x3f, 0xbe, 0x70, 0x62, 0xb1, 0x3d, 0xc8, 0x87, 0x94, 0xbd,
  0xe8, 0xc2, 0xf4, 0x3c, 0x77, 0x96, 0x47, 0xbd, 0x80, 0x33, 0x8b, 0x3b,
  0x16, 0x41, 0x5e, 0xbe, 0xd2, 0x19, 0x41, 0x3e, 0x8f, 0x90, 0x34, 0x3d,
  0xca, 0x20, 0x3b, 0x3e, 0x00, 0xdb, 0xf6, 0x3d, 0x2b, 0x2f, 0x18, 0xbe,
  0xc6, 0x71, 0xa4, 0xbd, 0x90, 0xc9, 0x9a, 0xbe, 0x7d, 0x34, 0x07, 0xbe,
  0xc1, 0xbe, 0xd8, 0xbd, 0x6f, 0xf0, 0x29, 0x3e, 0xb5, 0x64, 0x4e, 0xbe,
  0x8a, 0xba, 0xb5, 0x3d, 0x39, 0xac, 0x9c, 0xbd, 0x2f, 0xfc, 0x2c, 0xbe,
  0xdd, 0x07, 0x44, 0xbe, 0x05, 0xf1, 0x93, 0x3d, 0xc5, 0x47, 0x1d, 0x3e,
  0xf7, 0xe4, 0x1f, 0x3e, 0xd4, 0x88, 0x69, 0xbe, 0x56, 0x22, 0x50, 0xbe,
  0xa9, 0x4b, 0x48, 0xbe, 0x2d, 0x04, 0xcb, 0xbc, 0x6f, 0xe8, 0x3f, 0x3d,
  0xcb, 0xef, 0x75, 0xbe, 0x74, 0xd0, 0xf4, 0xbd, 0x44, 0x47, 0x44, 0x3d,
  0x69, 0x50, 0xbb, 0x3d, 0x45, 0x57, 0xa6, 0x3d, 0x5a, 0x60, 0xf9, 0xbd,
  0xfd, 0xbf, 0x57, 0xbe, 0x49, 0x36, 0xd9, 0x3d, 0x92, 0x4f, 0x4b, 0x3d,
  0x9f, 0xcd, 0xfb, 0x3b, 0xec, 0x3b, 0x56, 0xbe, 0xc5, 0x07, 0x9b, 0xbd,
  0x80, 0xc9, 0x0c, 0xbe, 0x84, 0xe0, 0x58, 0xbd, 0x4e, 0x46, 0xa7, 0xbe,
  0x03, 0xb5, 0xfe, 0xbd, 0x95, 0xe5, 0xbb, 0xbe, 0xde, 0x01, 0xf4, 0x3c,
  0xbc, 0xc0, 0x0f, 0x3e, 0xa1, 0x8f, 0x29, 0x3f, 0x7f, 0x9c, 0x00, 0xbd,
  0x53, 0x5e, 0x20, 0x3d, 0xb2, 0x1a, 0x55, 0xbe, 0x69, 0x21, 0x68, 0xbd,
  0xcb, 0xc2, 0xa1, 0xbc, 0x3a, 0xe3, 0x6d, 0xbe, 0x77, 0x3a, 0x93, 0x3c,
  0xb0, 0x7e, 0x84, 0x3d, 0x91, 0x36, 0x4c, 0xbe, 0x3e, 0x0b, 0xc3, 0x3d,
  0xbb, 0x59, 0xc5, 0xbd, 0x6a, 0xe8, 0x88, 0xbd, 0x80, 0x44, 0x8d, 0xbe,
  0x3b, 0x32, 0x37, 0xbe, 0xb0, 0x41, 0xb1, 0x3e, 0x5c, 0xf3, 0x14, 0x3f,
  0x7e, 0x54, 0x6c, 0x3e, 0xc5, 0xbc, 0xc7, 0x3c, 0x11, 0xd3, 0xbc, 0xbd,
  0xad, 0x38, 0x06, 0xbe, 0xf4, 0x95, 0x9f, 0x3d, 0x67, 0xd6, 0x6b, 0xbd,
  0x92, 0x68, 0x9d, 0xbd, 0xb9, 0x95, 0xc1, 0x3c, 0x95, 0xb3, 0x16, 0xbd,
  0xc8, 0x9a, 0x08, 0xbd, 0xdf, 0x61, 0xea, 0xbd, 0xfe, 0xda, 0x49, 0xbe,
  0x22, 0x02, 0x8e, 0xbe, 0x39, 0x1b, 0xb4, 0xbd, 0x57, 0x4e, 0x65, 0x3e,
  0x4b, 0xe4, 0x1c, 0x3f, 0x70, 0xc7, 0xd3, 0xbd, 0x34, 0xa1, 0x01, 0x3e,
  0x83, 0x40, 0x2b, 0xbe, 0xbd, 0x71, 0xca, 0x3d, 0x76, 0x37, 0xd0, 0xbb,
  0x27, 0x45, 0xfc, 0xbc, 0xad, 0x98, 0x5b, 0xbe, 0xc2, 0x86, 0xcc, 0x3d,
  0x06, 0x66, 0x46, 0xbe, 0x48, 0x3e, 0xd1, 0xba, 0xba, 0x0b, 0xdb, 0xbd,
  0x79, 0x14, 0x35, 0xbe, 0x2c, 0x1d, 0xa2, 0xbc, 0x18, 0xa0, 0x22, 0x3e,
  0xe4, 0xda, 0x42, 0x3e, 0x23, 0x13, 0x72, 0x3f, 0x1f, 0x28, 0x06, 0xbe,
  0xf8, 0xdc, 0xeb, 0x3d, 0x92, 0x76, 0xbe, 0xbd, 0x6a, 0xb3, 0x37, 0xbe,
  0x68, 0x27, 0x44, 0xbd, 0x6b, 0x84, 0x29, 0x3e, 0x4f, 0x13, 0xce, 0xbd,
  0x9b, 0xbe, 0xa2, 0xbd, 0x2d, 0xb5, 0x2d, 0xbe, 0x18, 0x4e, 0x1a, 0xbd,
  0x24, 0xbc, 0x24, 0xbe, 0x45, 0x51, 0xd2, 0xbc, 0x99, 0x93, 0x90, 0xbe,
  0x2a, 0x7d, 0x59, 0xbe, 0x5b, 0xcc, 0xa3, 0x3d, 0x59, 0x54, 0x29, 0x3f,
  0x1d, 0x2d, 0x1d, 0xbe, 0x52, 0xce, 0x94, 0x3d, 0xa6, 0xb9, 0x3f, 0xbe,
  0xaf, 0x19, 0x0c, 0x3d, 0xc6, 0x37, 0x8c, 0xbd, 0x95, 0x5f, 0x4f, 0x3e,
  0x2e, 0x60, 0x41, 0xbe, 0x0f, 0x41, 0x0c, 0xbe, 0xb6, 0x61, 0x41, 0xbc,
  0x6d, 0x88, 0xdc, 0xbd, 0xc8, 0x60, 0x86, 0xbe, 0x0e, 0x32, 0xac, 0xbe,
  0x61, 0xbd, 0x92, 0xbe, 0xbe, 0x13, 0x2e, 0xbe, 0x4c, 0xfd, 0x0a, 0x3d,
  0x3a, 0x7e, 0x56, 0x3f, 0xb6, 0xbb, 0xf4, 0xbd, 0xae, 0x9d, 0x54, 0xbe,
  0xad, 0xac, 0x4e, 0xbe, 0xc7, 0xd1, 0x39, 0xbe, 0x42, 0x18, 0x80, 0xbc,
  0x26, 0xd8, 0x18, 0xbd, 0xbc, 0x1d, 0x37, 0x3d, 0x97, 0x2a, 0x6f, 0xbd,
  0x2e, 0xa4, 0x9c, 0xbe, 0x03, 0xca, 0xb2, 0x3c, 0x9d, 0x54, 0x86, 0xbe,
  0xdb, 0xc0, 0x61, 0xbd, 0x6e, 0x89, 0xa3, 0xbe, 0x4d, 0xfe, 0x97, 0xbe,
  0x15, 0xd9, 0x41, 0x3e, 0xaf, 0xc9, 0x70, 0x3f, 0x40, 0x55, 0x26, 0x3d,
  0x3a, 0xdb, 0x0d, 0x3d, 0x1d, 0xde, 0xb9, 0xba, 0x5f, 0x93, 0xbe, 0xbd,
  0xa1, 0x8c, 0x80, 0xbd, 0xdb, 0x22, 0x4b, 0xbe, 0xa4, 0xb2, 0x12, 0x3e,
  0xda, 0xd7, 0xec, 0x3d, 0x26, 0x18, 0xbc, 0x3b, 0x47, 0xb0, 0xa7, 0xbe,
  0xac, 0xea, 0xe8, 0xbd, 0x91, 0x74, 0x01, 0xbe, 0x69, 0x5e, 0x1c, 0xbe,
  0x7f, 0x61, 0x4e, 0x3d, 0x08, 0xa1, 0x17, 0xbc, 0xc5, 0x26, 0x10, 0x3f,
  0xfd, 0x8e, 0xee, 0xbc, 0x2a, 0x74, 0xf7, 0xbd, 0xcb, 0x7c, 0x9f, 0x3b,
  0x02, 0xcb, 0x54, 0xbd, 0xa9, 0xba, 0x41, 0xbe, 0xe8, 0x91, 0x19, 0xbe,
  0x53, 0x98, 0x05, 0xbd, 0x81, 0xc2, 0x00, 0x3d, 0x18, 0x9f, 0x07, 0xbe,
  0x28, 0x79, 0xf6, 0x3d, 0x9e, 0xa0, 0xa8, 0xbe, 0xab, 0x89, 0xdf, 0xbd,
  0x44, 0xff, 0xf5, 0xbd, 0x36, 0x1e, 0x12, 0xbc, 0x36, 0x2f, 0xab, 0x3e,
  0x36, 0x0d, 0xe8, 0x3e, 0x4f, 0xde, 0x54, 0xbe, 0xf3, 0x8b, 0x11, 0xbe,
  0x6c, 0x93, 0xc3, 0x3c, 0x52, 0xb5, 0x09, 0x3e, 0x22, 0x88, 0xe7, 0x3b,
  0x89, 0x47, 0x82, 0xbe, 0xfc, 0x13, 0x0f, 0xbd, 0x22, 0xca, 0x0d, 0x3d,
  0x63, 0x68, 0x2e, 0xbe, 0x53, 0x7c, 0x1e, 0xbe, 0xbe, 0x24, 0xac, 0xbd,
  0xc2, 0x81, 0x5b, 0xbe, 0xcf, 0xdc, 0xbd, 0xbe, 0xbc, 0x3f, 0x11, 0xbe,
  0xff, 0x4c, 0xf5, 0x3e, 0x70, 0x5f, 0x79, 0x3f, 0x34, 0x11, 0x16, 0xbe,
  0xcd, 0x37, 0xb0, 0x3d, 0x89, 0x19, 0xb4, 0xbd, 0x8e, 0x04, 0xc7, 0x3b,
  0xa5, 0x3a, 0x80, 0xbe, 0xa8, 0x47, 0x6d, 0xbe, 0xbf, 0x5b, 0x06, 0xbe,
  0x87, 0xa0, 0xbd, 0x3d, 0xd0, 0x9e, 0x01, 0x3d, 0xc0, 0x70, 0xb8, 0xbc,
  0x4b, 0xcf, 0x77, 0xbb, 0x2f, 0x81, 0x1c, 0xbe, 0x72, 0xfe, 0x2f, 0xbe,
  0x4b, 0x0f, 0x1a, 0xbe, 0x76, 0xc2, 0xaa, 0x3d, 0x01, 0x9a, 0xf3, 0x3e,
  0x9a, 0x1f, 0x35, 0xbe, 0x6c, 0x5b, 0x4c, 0xbe, 0xf9, 0x59, 0x95, 0xbd,
  0x3d, 0x11, 0x3d, 0xbe, 0x90, 0xc4, 0x9a, 0xbe, 0xe4, 0xa5, 0x04, 0xbe,
  0x52, 0x5d, 0xe0, 0xbd, 0x3c, 0x22, 0x71, 0xbd, 0xc1, 0xe0, 0x25, 0x3d,
  0x41, 0x9d, 0x3e, 0x3e, 0xe1, 0x19, 0x69, 0xbe, 0x1b, 0xa0, 0x6f, 0xbe,
  0x5c, 0x46, 0xf9, 0xbd, 0xeb, 0x62, 0x33, 0xbe, 0x66, 0x8e, 0x76, 0x3e,
  0x61, 0x8b, 0xbc, 0x3e, 0x1f, 0x2f, 0x2f, 0x3d, 0xec, 0xef, 0x09, 0xbe,
  0x52, 0x48, 0xa5, 0xbd, 0xb0, 0xf6, 0x8c, 0xbe, 0x8e, 0x93, 0x69, 0xbc,
  0x2c, 0xb8, 0x8c, 0xbe, 0x60, 0xd6, 0x98, 0x3c, 0xc0, 0x61, 0x61, 0xbe,
  0x23, 0x08, 0x14, 0xbe, 0x1c, 0x48, 0x50, 0xbe, 0x1e, 0x62, 0xcf, 0x3c,
  0xbd, 0xf5, 0xde, 0xbd, 0x41, 0x8a, 0x43, 0xbe, 0x06, 0x39, 0x2d, 0xbc,
  0x83, 0x8e, 0xb4, 0x3d, 0xb2, 0xdb, 0xb0, 0x3e, 0x06, 0xfa, 0x53, 0xbe,
  0x36, 0x30, 0x3e, 0xbe, 0xdc, 0xcf, 0xb2, 0xbd, 0x9e, 0x9b, 0xc6, 0xbc,
  0xab, 0xaf, 0x85, 0xbe, 0x9a, 0xff, 0x82, 0xbe, 0xf8, 0xd1, 0x78, 0xbe,
  0x26, 0x8d, 0xf0, 0xbd, 0x20, 0xb2, 0xb7, 0xbe, 0xeb, 0xfb, 0x6f, 0xbd,
  0x29, 0x35, 0xaa, 0xbe, 0x95, 0xae, 0x9a, 0xbe, 0xca, 0xfa, 0x49, 0xbe,
  0x25, 0xcc, 0x45, 0xbe, 0xed, 0x08, 0x0c, 0x3f, 0x43, 0xae, 0x84, 0x3f,
  0xfa, 0x6d, 0x85, 0xbe, 0x3f, 0xc3, 0x20, 0xbe, 0x7b, 0x46, 0x6f, 0xbd,
  0x63, 0x23, 0xc8, 0x3c, 0x45, 0x80, 0xd3, 0xbc, 0x57, 0xd1, 0x8e, 0xbe,
  0xe1, 0x54, 0x1e, 0xbe, 0xbe, 0xa8, 0x46, 0x3e, 0xd8, 0xbf, 0xdc, 0x3b,
  0x44, 0x5c, 0xa8, 0xbd, 0xa7, 0xf8, 0x32, 0x3d, 0x24, 0x8c, 0xf5, 0xbd,
  0x67, 0xdf, 0xf6, 0xbb, 0x02, 0xf7, 0x90, 0xbe, 0x42, 0xfb, 0xde, 0x3e,
  0xcb, 0x22, 0x06, 0xbe, 0x72, 0xd5, 0x82, 0xbe, 0x69, 0xc2, 0xf8, 0xbe,
  0x8b, 0xc5, 0x97, 0xbe, 0x04, 0x18, 0x38, 0x3e, 0x82, 0x23, 0xb5, 0xbd,
  0x7c, 0x67, 0x5b, 0xbe, 0x2a, 0xea, 0x99, 0xbe, 0x6e, 0x6f, 0x72, 0x3e,
  0xb3, 0x67, 0xa7, 0x3d, 0x2a, 0xf5, 0xb3, 0xbc, 0xc1, 0xd6, 0xca, 0x3d,
  0xcc, 0xdd, 0x97, 0xbc, 0xe5, 0xc5, 0x45, 0xbc, 0xa6, 0x4a, 0xda, 0xbd,
  0x47, 0x5b, 0x6a, 0x3e, 0x48, 0x55, 0xfe, 0xbd, 0xf7, 0x56, 0x98, 0xbb,
  0x94, 0xd9, 0xe0, 0xbd, 0x21, 0xa4, 0x2d, 0xbe, 0xab, 0xb1, 0xf1, 0x3d,
  0x93, 0x2b, 0x4c, 0x3d, 0x3d, 0x81, 0xdc, 0xbd, 0x38, 0xb3, 0x43, 0xbe,
  0xed, 0x0d, 0xf4, 0x3e, 0xbc, 0x82, 0x45, 0x3e, 0x40, 0x81, 0x0d, 0x3e,
  0xc5, 0x27, 0x95, 0x3c, 0x16, 0x07, 0x4e, 0xbe, 0x49, 0x0d, 0x12, 0x3e,
  0xdb, 0xd4, 0x6d, 0x3d, 0xb7, 0xe9, 0xff, 0x3d, 0x98, 0x4f, 0xb0, 0x3d,
  0x71, 0x77, 0x57, 0xbe, 0xc7, 0x2f, 0x44, 0xbd, 0xa8, 0xe9, 0x9f, 0xbd,
  0xd2, 0x92, 0x8c, 0x3d, 0x9e, 0x77, 0x13, 0xbd, 0x40, 0x8a, 0x7a, 0xbc,
  0x37, 0x3c, 0x8f, 0xbc, 0x1a, 0x7a, 0x57, 0x3e, 0x0e, 0x19, 0x93, 0x3e,
  0x8b, 0x01, 0x17, 0xbc, 0xa7, 0xc1, 0x80, 0x3e, 0xd8, 0x52, 0xb3, 0xbd,
  0x69, 0xa8, 0xd3, 0x3d, 0xf6, 0x6d, 0x5a, 0x3e, 0x92, 0x9c, 0x70, 0x3e,
  0xae, 0x40, 0xdc, 0xb8, 0xac, 0x60, 0xfb, 0x3d, 0x3c, 0x7b, 0x2e, 0xbd,
  0x44, 0x3f, 0x90, 0xbc, 0x70, 0xbf, 0xc4, 0xbd, 0x00, 0xf8, 0x80, 0xbe,
  0x01, 0x57, 0xae, 0x3c, 0xe7, 0x76, 0x07, 0xbe, 0xd7, 0x44, 0xa1, 0x3e,
  0xab, 0x94, 0x1e, 0x3e, 0x76, 0x10, 0x31, 0xbd, 0xb4, 0x21, 0x26, 0x3e,
  0x2d, 0xa2, 0xba, 0xbc, 0x85, 0x02, 0x7b, 0x3b, 0x4a, 0x4a, 0xa3, 0xbd,
  0x3c, 0x0f, 0x1b, 0x3e, 0x16, 0x43, 0xdd, 0x3d, 0x05, 0x44, 0xc7, 0xbd,
  0x0b, 0x10, 0xec, 0xbd, 0xce, 0xda, 0x22, 0xbd, 0x97, 0x75, 0xa2, 0x3c,
  0x7f, 0x6e, 0x4c, 0xbe, 0x9a, 0xdf, 0xc6, 0xbd, 0x9f, 0x1f, 0xa3, 0x3c,
  0x16, 0xd6, 0x27, 0x3e, 0x6d, 0xe9, 0x41, 0x3e, 0xa7, 0xee, 0x9b, 0xbe,
  0xa6, 0x79, 0xf0, 0x3d, 0x3a, 0x28, 0xd9, 0xbe, 0xa5, 0x35, 0x2c, 0xbd,
  0x6b, 0x61, 0xd9, 0xbd, 0xbf, 0xcb, 0x15, 0x3e, 0x4f, 0x10, 0x0d, 0x3e,
  0x29, 0xc7, 0x9f, 0xbe, 0x96, 0x32, 0x66, 0xbe, 0x82, 0xb2, 0x9e, 0xbe,
  0xa8, 0x7a, 0xc0, 0xbc, 0x19, 0xbc, 0x48, 0xbe, 0xe7, 0x64, 0x4d, 0x3c,
  0xc0, 0xd8, 0x17, 0xbe, 0x51, 0xd6, 0x17, 0x3e, 0xdc, 0x4b, 0x39, 0x3d,
  0x65, 0x27, 0x9f, 0xbe, 0x11, 0xf6, 0xbb, 0xbd, 0x0c, 0x7a, 0xf0, 0xbe,
  0x0e, 0x31, 0x2b, 0x3d, 0xc1, 0x4a, 0xa5, 0xbd, 0xe3, 0xd1, 0xc6, 0x3d,
  0x5a, 0x1d, 0x32, 0xbd, 0xf4, 0xd6, 0xdf, 0xbd, 0x56, 0xc7, 0x02, 0xbe,
  0xba, 0x2a, 0xac, 0xbe, 0x07, 0x4d, 0x24, 0xbe, 0x72, 0x36, 0xfd, 0xbc,
  0xac, 0x65, 0x39, 0xbe, 0x38, 0xf2, 0x81, 0xbe, 0x4a, 0xfe, 0xff, 0xff,
  0x10, 0x00, 0x00, 0x00, 0x05, 0x00, 0x00, 0x00, 0x14, 0x00, 0x00, 0x00,
  0x2c, 0x00, 0x00, 0x00, 0x02, 0x00, 0x00, 0x00, 0x10, 0x00, 0x00, 0x00,
  0x70, 0x00, 0x00, 0x00, 0x17, 0x00, 0x00, 0x00, 0x73, 0x65, 0x71, 0x75,
  0x65, 0x6e, 0x74, 0x69, 0x61, 0x6c, 0x2f, 0x64, 0x65, 0x6e, 0x73, 0x65,
  0x2f, 0x4d, 0x61, 0x74, 0x4d, 0x75, 0x6c, 0x00, 0x38, 0xfe, 0xff, 0xff,
  0x2e, 0xff, 0xff, 0xff, 0x04, 0x00, 0x00, 0x00, 0x08, 0x00, 0x00, 0x00,
  0xff, 0xff, 0xff, 0xff, 0x70, 0x00, 0x00, 0x00, 0x00, 0x00, 0x0e, 0x00,
  0x18, 0x00, 0x08, 0x00, 0x07, 0x00, 0x0c, 0x00, 0x10, 0x00, 0x14, 0x00,
  0x0e, 0x00, 0x00, 0x00, 0x00, 0x00, 0x00, 0x02, 0x10, 0x00, 0x00, 0x00,
  0x04, 0x00, 0x00, 0x00, 0x10, 0x00, 0x00, 0x00, 0x2c, 0x00, 0x00, 0x00,
  0x01, 0x00, 0x00, 0x00, 0x02, 0x00, 0x00, 0x00, 0x18, 0x00, 0x00, 0x00,
  0x73, 0x65, 0x71, 0x75, 0x65, 0x6e, 0x74, 0x69, 0x61, 0x6c, 0x2f, 0x66,
  0x6c, 0x61, 0x74, 0x74, 0x65, 0x6e, 0x2f, 0x43, 0x6f, 0x6e, 0x73, 0x74,
  0x00, 0x00, 0x00, 0x00, 0xa0, 0xfe, 0xff, 0xff, 0x96, 0xff, 0xff, 0xff,
  0x04, 0x00, 0x00, 0x00, 0x0c, 0x00, 0x00, 0x00, 0x5d, 0x28, 0xd1, 0xbe,
  0x29, 0x54, 0xfb, 0xbf, 0xb5, 0xb0, 0xd1, 0x3f, 0x0a, 0xff, 0xff, 0xff,
  0x10, 0x00, 0x00, 0x00, 0x03, 0x00, 0x00, 0x00, 0x10, 0x00, 0x00, 0x00,
  0x3c, 0x00, 0x00, 0x00, 0x01, 0x00, 0x00, 0x00, 0x03, 0x00, 0x00, 0x00,
  0x29, 0x00, 0x00, 0x00, 0x73, 0x65, 0x71, 0x75, 0x65, 0x6e, 0x74, 0x69,
  0x61, 0x6c, 0x2f, 0x64, 0x65, 0x6e, 0x73, 0x65, 0x5f, 0x31, 0x2f, 0x42,
  0x69, 0x61, 0x73, 0x41, 0x64, 0x64, 0x2f, 0x52, 0x65, 0x61, 0x64, 0x56,
  0x61, 0x72, 0x69, 0x61, 0x62, 0x6c, 0x65, 0x4f, 0x70, 0x00, 0x00, 0x00,
  0x60, 0xff, 0xff, 0xff, 0x00, 0x00, 0x06, 0x00, 0x08, 0x00, 0x04, 0x00,
  0x06, 0x00, 0x00, 0x00, 0x04, 0x00, 0x00, 0x00, 0x40, 0x00, 0x00, 0x00,
  0x2c, 0xf4, 0xaf, 0xbe, 0xf6, 0xf4, 0x76, 0xbf, 0x1a, 0x2e, 0x8f, 0x40,
  0xfa, 0x5c, 0xe1, 0xbf, 0x0b, 0x26, 0x69, 0x3e, 0x87, 0xc6, 0x15, 0xbf,
  0xf0, 0x6b, 0x22, 0xbf, 0x4a, 0x94, 0x75, 0x40, 0xd4, 0x14, 0x5b, 0xbf,
  0x16, 0xc8, 0x24, 0x3f, 0xe6, 0x11, 0x1a, 0xbf, 0xee, 0x5e, 0x97, 0xbe,
  0x46, 0x4e, 0x1f, 0xbe, 0x7f, 0x5f, 0x3b, 0x3f, 0xed, 0x98, 0x09, 0x3f,
  0xf4, 0x6c, 0xc7, 0x3f, 0xae, 0xff, 0xff, 0xff, 0x10, 0x00, 0x00, 0x00,
  0x02, 0x00, 0x00, 0x00, 0x10, 0x00, 0x00, 0x00, 0x3c, 0x00, 0x00, 0x00,
  0x01, 0x00, 0x00, 0x00, 0x10, 0x00, 0x00, 0x00, 0x27, 0x00, 0x00, 0x00,
  0x73, 0x65, 0x71, 0x75, 0x65, 0x6e, 0x74, 0x69, 0x61, 0x6c, 0x2f, 0x64,
  0x65, 0x6e, 0x73, 0x65, 0x2f, 0x42, 0x69, 0x61, 0x73, 0x41, 0x64, 0x64,
  0x2f, 0x52, 0x65, 0x61, 0x64, 0x56, 0x61, 0x72, 0x69, 0x61, 0x62, 0x6c,
  0x65, 0x4f, 0x70, 0x00, 0x04, 0x00, 0x06, 0x00, 0x04, 0x00, 0x00, 0x00,
  0x00, 0x00, 0x0e, 0x00, 0x14, 0x00, 0x04, 0x00, 0x00, 0x00, 0x08, 0x00,
  0x0c, 0x00, 0x10, 0x00, 0x0e, 0x00, 0x00, 0x00, 0x10, 0x00, 0x00, 0x00,
  0x01, 0x00, 0x00, 0x00, 0x1c, 0x00, 0x00, 0x00, 0x2c, 0x00, 0x00, 0x00,
  0x04, 0x00, 0x00, 0x00, 0x01, 0x00, 0x00, 0x00, 0x40, 0x00, 0x00, 0x00,
  0x03, 0x00, 0x00, 0x00, 0x01, 0x00, 0x00, 0x00, 0x0c, 0x00, 0x00, 0x00,
  0x63, 0x6f, 0x6e, 0x76, 0x32, 0x64, 0x5f, 0x69, 0x6e, 0x70, 0x75, 0x74,
  0x00, 0x00, 0x00, 0x00, 0xfc, 0xff, 0xff, 0xff, 0x04, 0x00, 0x04, 0x00,
  0x04, 0x00, 0x00, 0x00
};

unsigned int model_tflite_len = 12316;// Fill the int in `src/model.cc` here