#include "magic_wand_model_data.h"

// We need to keep the data array aligned on some architectures.
#ifdef __has_attribute
#define HAVE_ATTRIBUTE(x) __has_attribute(x)
#else
#define HAVE_ATTRIBUTE(x) 0
#endif
#if HAVE_ATTRIBUTE(aligned) || (defined(__GNUC__) && !defined(__clang__))
#define DATA_ALIGN_ATTRIBUTE __attribute__((aligned(4)))
#else
#define DATA_ALIGN_ATTRIBUTE
#endif

const unsigned char g_magic_wand_model_data[] DATA_ALIGN_ATTRIBUTE = {
  // Paste the data of the char array in `src/model.cc` here
  0x20, 0x00, 0x00, 0x00, 0x54, 0x46, 0x4c, 0x33, 0x00, 0x00, 0x00, 0x00,
  0x00, 0x00, 0x12, 0x00, 0x1c, 0x00, 0x04, 0x00, 0x08, 0x00, 0x0c, 0x00,
  0x10, 0x00, 0x14, 0x00, 0x00, 0x00, 0x18, 0x00, 0x12, 0x00, 0x00, 0x00,
  0x03, 0x00, 0x00, 0x00, 0xf0, 0x1a, 0x00, 0x00, 0x20, 0x13, 0x00, 0x00,
  0x08, 0x13, 0x00, 0x00, 0x34, 0x00, 0x00, 0x00, 0x04, 0x00, 0x00, 0x00,
  0x01, 0x00, 0x00, 0x00, 0x04, 0x00, 0x00, 0x00, 0xc0, 0xe5, 0xff, 0xff,
  0x08, 0x00, 0x00, 0x00, 0x11, 0x00, 0x00, 0x00, 0x13, 0x00, 0x00, 0x00,
  0x6d, 0x69, 0x6e, 0x5f, 0x72, 0x75, 0x6e, 0x74, 0x69, 0x6d, 0x65, 0x5f,
  0x76, 0x65, 0x72, 0x73, 0x69, 0x6f, 0x6e, 0x00, 0x12, 0x00, 0x00, 0x00,
  0xc8, 0x12, 0x00, 0x00, 0x78, 0x12, 0x00, 0x00, 0xa8, 0x11, 0x00, 0x00,
  0x8c, 0x11, 0x00, 0x00, 0x3c, 0x11, 0x00, 0x00, 0x0c, 0x11, 0x00, 0x00,
  0xfc, 0x09, 0x00, 0x00, 0xf4, 0x09, 0x00, 0x00, 0xec, 0x09, 0x00, 0x00,
  0xe4, 0x09, 0x00, 0x00, 0xdc, 0x09, 0x00, 0x00, 0xd4, 0x09, 0x00, 0x00,
  0xcc, 0x09, 0x00, 0x00, 0xbc, 0x01, 0x00, 0x00, 0x2c, 0x00, 0x00, 0x00,
  0x24, 0x00, 0x00, 0x00, 0x1c, 0x00, 0x00, 0x00, 0x04, 0x00, 0x00, 0x00,
  0x06, 0xed, 0xff, 0xff, 0x04, 0x00, 0x00, 0x00, 0x05, 0x00, 0x00, 0x00,
  0x31, 0x2e, 0x35, 0x2e, 0x30, 0x00, 0x00, 0x00, 0xd4, 0xe5, 0xff, 0xff,
  0xd8, 0xe5, 0xff, 0xff, 0x22, 0xed, 0xff, 0xff, 0x04, 0x00, 0x00, 0x00,
  0x80, 0x01, 0x00, 0x00, 0xb7, 0x47, 0x90, 0x3c, 0xf2, 0xb9, 0xe9, 0x3d,
  0xa4, 0x13, 0xf1, 0xbd, 0x4b, 0xa7, 0xa0, 0x3e, 0x3e, 0x7d, 0xb5, 0x3d,
  0xce, 0xee, 0x1c, 0x3e, 0x1f, 0x96, 0x1b, 0xbe, 0x47, 0x3c, 0xeb, 0x3d,
  0xbb, 0xad, 0x08, 0xbd, 0x26, 0x95, 0x10, 0xbe, 0x89, 0x1f, 0xe6, 0x3c,
  0xb5, 0x2c, 0x70, 0xbe, 0xe7, 0x27, 0xf3, 0x3d, 0x9b, 0x52, 0x3b, 0x3d,
  0x63, 0xa1, 0x10, 0x3d, 0x51, 0xa1, 0xb0, 0xbe, 0x0c, 0x83, 0xe1, 0xbc,
  0x42, 0x37, 0x55, 0x3d, 0x50, 0x4f, 0xab, 0xbd, 0xdb, 0x33, 0x1c, 0xbe,
  0x34, 0xef, 0x2d, 0xbe, 0x25, 0x23, 0xba, 0x3b, 0x70, 0xe1, 0xf3, 0xbc,
  0x0c, 0x91, 0xac, 0x3d, 0xf5, 0x09, 0x6e, 0xbe, 0x5d, 0xfd, 0xc3, 0x3e,
  0xdf, 0xae, 0x07, 0xbe, 0x38, 0x90, 0x78, 0x3e, 0xb5, 0x6a, 0xa1, 0xbc,
  0x34, 0x13, 0x74, 0xbd, 0xad, 0x8f, 0x00, 0xbe, 0xa0, 0x24, 0x97, 0x3d,
  0x87, 0xad, 0xc6, 0xbe, 0xcb, 0x88, 0xa4, 0x3e, 0xd5, 0xca, 0x96, 0x3b,
  0xa2, 0x10, 0xb9, 0x3d, 0x08, 0x6d, 0x29, 0x3e, 0xec, 0x3c, 0x96, 0x3e,
  0x6f, 0x32, 0x77, 0x3d, 0x16, 0x39, 0x35, 0xbe, 0x3b, 0xd1, 0xe5, 0xbe,
  0x64, 0x8f, 0xef, 0xbd, 0x6a, 0x32, 0x8d, 0xbe, 0xd8, 0xf7, 0x59, 0x3d,
  0x85, 0x3c, 0x0a, 0xbe, 0xbe, 0xcf, 0xdb, 0x3e, 0x88, 0xe2, 0x87, 0xbd,
  0x64, 0xdf, 0x16, 0x3d, 0x43, 0xf7, 0xc4, 0x3c, 0xde, 0xdf, 0x4a, 0xbb,
  0x60, 0x85, 0x20, 0x3e, 0x33, 0x5a, 0x5a, 0x3d, 0x48, 0x95, 0x71, 0x3b,
  0x5c, 0x2b, 0xe6, 0xbc, 0xe1, 0xdd, 0x60, 0xbd, 0xf2, 0x1d, 0x24, 0xbe,
  0x4f, 0x6d, 0x1d, 0x3e, 0x6d, 0xa0, 0x59, 0xbd, 0x0c, 0xeb, 0x05, 0x3e,
  0x8b, 0x25, 0xa6, 0x3e, 0xfe, 0xd8, 0xbd, 0xbd, 0xc3, 0xa9, 0x81, 0xbd,
  0x09, 0xed, 0x33, 0x3d, 0x51, 0xf3, 0x2a, 0x3d, 0x58, 0xdf, 0x35, 0x3e,
  0xd4, 0x7b, 0x2a, 0xbd, 0x94, 0xf2, 0x86, 0x3e, 0x9b, 0x8c, 0xfe, 0xbd,
  0x5d, 0xfe, 0xb5, 0xbd, 0x9a, 0x78, 0x9f, 0xbd, 0x8e, 0x29, 0xc3, 0xbd,
  0x97, 0x10, 0x91, 0x3d, 0xf5, 0x8a, 0xa5, 0x3e, 0xad, 0x46, 0xfa, 0xbe,
  0x79, 0x90, 0x33, 0x3e, 0x16, 0xe5, 0xd2, 0xbd, 0x8a, 0x15, 0x24, 0x3e,
  0x32, 0x55, 0x00, 0x3c, 0x77, 0xaf, 0x44, 0xbd, 0x7b, 0x03, 0xe9, 0xbb,
  0x43, 0x4f, 0x88, 0x3e, 0x39, 0xc5, 0x06, 0xbe, 0x9f, 0xe2, 0xea, 0x3d,
  0xe0, 0x0a, 0xf4, 0x3c, 0xe5, 0x02, 0x6a, 0xbe, 0xfb, 0x88, 0x94, 0xbe,
  0x8e, 0xf7, 0x68, 0x3d, 0xfa, 0xa6, 0xf5, 0x3e, 0xc0, 0x39, 0x92, 0x3e,
  0x3f, 0xc0, 0x14, 0x3e, 0x92, 0xda, 0x80, 0x3e, 0xf3, 0xba, 0x49, 0x3e,
  0x4d, 0x5b, 0xe3, 0x3d, 0x9c, 0xc6, 0xcd, 0xbe, 0x6d, 0xf1, 0xbd, 0xbd,
  0xa5, 0x14, 0x2a, 0xbe, 0xae, 0xee, 0xff, 0xff, 0x04, 0x00, 0x00, 0x00,
  0x00, 0x08, 0x00, 0x00, 0x28, 0xb5, 0x08, 0xbe, 0xed, 0x1d, 0x66, 0x3d,
  0xf3, 0xde, 0x78, 0xbe, 0x26, 0xea, 0x57, 0xbc, 0xc4, 0x47, 0x54, 0xbe,
  0xfb, 0x09, 0x89, 0x3e, 0xc0, 0xd8, 0x72, 0xbd, 0xeb, 0xb0, 0x84, 0x3e,
  0xc0, 0x74, 0x8a, 0xbd, 0x56, 0xc8, 0x26, 0x3e, 0xed, 0xad, 0x63, 0xbe,
  0x42, 0xe5, 0x37, 0xbe, 0x09, 0x46, 0x30, 0x3e, 0x17, 0x9c, 0x69, 0x3e,
  0x48, 0xe3, 0x3b, 0x39, 0xa9, 0x29, 0x2b, 0xbd, 0xb3, 0x26, 0x97, 0x3b,
  0x52, 0xf4, 0x03, 0xbe, 0xa5, 0x57, 0xe2, 0x3d, 0xb8, 0xf5, 0x02, 0xbe,
  0x0e, 0xf6, 0xc0, 0xbe, 0x6d, 0x20, 0xc0, 0x3e, 0x2f, 0x61, 0x85, 0xbe,
  0xcb, 0xf4, 0x0a, 0xbe, 0x1e, 0x8d, 0x4c, 0xbe, 0x0c, 0x2d, 0xb5, 0xbe,
  0xc1, 0x11, 0xdb, 0xbd, 0xb4, 0x5e, 0x1c, 0x3e, 0xcb, 0xc4, 0x89, 0xbe,
  0xf5, 0xb5, 0x67, 0x3e, 0x78, 0xa2, 0xcb, 0xbe, 0xd8, 0x7c, 0xc0, 0xbe,
  0xe6, 0xa8, 0x04, 0xbe, 0xe8, 0x1b, 0x98, 0x3c, 0x78, 0xea, 0xeb, 0xbd,
  0x9a, 0x36, 0xa0, 0xbc, 0x1c, 0x6a, 0x7f, 0xbd, 0x42, 0x8f, 0xd3, 0x3e,
  0x8d, 0x1a, 0x28, 0xbd, 0x7b, 0xb5, 0xc8, 0xbe, 0x4c, 0xb6, 0x06, 0xbe,
  0x37, 0xf0, 0x8e, 0xbd, 0x5c, 0xc9, 0x13, 0xbe, 0xa7, 0xb3, 0x31, 0x3e,
  0xa9, 0x96, 0x90, 0xbd, 0x57, 0x3e, 0x3d, 0x3e, 0x25, 0x0e, 0x48, 0xbd,
  0xe9, 0x08, 0x81, 0xbe, 0x9f, 0x67, 0x01, 0xbe, 0x85, 0xa3, 0x53, 0xbd,
  0xba, 0xc6, 0x21, 0xbe, 0x10, 0x0b, 0x4d, 0x3d, 0x1e, 0xe8, 0xbf, 0x3c,
  0x95, 0xe4, 0x95, 0xbe, 0x07, 0x4d, 0xb8, 0xbc, 0xcf, 0x59, 0x35, 0xbe,
  0x29, 0xa8, 0x55, 0x3d, 0xe5, 0x34, 0xd4, 0x3e, 0x75, 0xaa, 0x32, 0xbe,
  0x96, 0x5d, 0xa7, 0xbb, 0xd2, 0x4f, 0xb3, 0x3d, 0x44, 0x36, 0x2e, 0x3e,
  0x78, 0x05, 0xfd, 0x3c, 0xe8, 0x0b, 0xa6, 0x3e, 0x50, 0x5f, 0xc7, 0x3e,
  0x21, 0x84, 0x1a, 0x3e, 0x44, 0x3b, 0xc9, 0xbd, 0xda, 0x7a, 0x11, 0x3d,
  0x77, 0xe0, 0x1d, 0xbe, 0x44, 0xee, 0x54, 0x3e, 0x14, 0x8d, 0xd3, 0xbe,
  0x65, 0xb8, 0x67, 0xbc, 0x8f, 0xe0, 0x9c, 0x3d, 0x53, 0xe3, 0x5f, 0x3e,
  0x17, 0xf2, 0xcb, 0xbc, 0xa5, 0x8a, 0x84, 0x3d, 0x02, 0x45, 0x3b, 0xbe,
  0x40, 0xbe, 0x85, 0x3e, 0x1c, 0x05, 0xeb, 0xbe, 0xde, 0xa2, 0x18, 0x3d,
  0xa5, 0xa4, 0x6f, 0xbd, 0xd4, 0x4b, 0x9b, 0x3e, 0x88, 0xd0, 0x87, 0xbd,
  0x7a, 0x11, 0x91, 0xbb, 0x78, 0x0a, 0x7c, 0xbd, 0xb2, 0x91, 0x3a, 0xbe,
  0x6d, 0x3c, 0xc2, 0xbe, 0xe9, 0x7d, 0x67, 0x3d, 0x8c, 0x99, 0x03, 0x3e,
  0x38, 0x66, 0x95, 0xbc, 0x4b, 0x52, 0xfc, 0xbc, 0x82, 0x6b, 0x43, 0xbd,
  0x15, 0xe4, 0x99, 0xbd, 0x79, 0x41, 0xc1, 0x3e, 0x89, 0x71, 0x7e, 0xbe,
  0xc8, 0x02, 0x16, 0x3e, 0x8e, 0xe6, 0x8d, 0x3d, 0x11, 0x64, 0xc2, 0xbd,
  0xdd, 0x84, 0x23, 0xbe, 0x01, 0x34, 0xd3, 0xbd, 0xc9, 0x4c, 0x90, 0xbe,
  0x03, 0x84, 0x2e, 0xbf, 0x1b, 0x1b, 0x39, 0xbe, 0xc4, 0xda, 0x42, 0x3d,
  0xfb, 0x81, 0x7b, 0x3e, 0xc1, 0x44, 0xa9, 0xbb, 0x8d, 0xd1, 0xe4, 0x3e,
  0x60, 0x92, 0x03, 0x3e, 0x0f, 0x46, 0x9f, 0xbe, 0x3f, 0x4c, 0xc5, 0x3d,
  0xa4, 0xb8, 0xa2, 0xbe, 0x1f, 0xf4, 0x09, 0x3d, 0xc5, 0x55, 0x08, 0xbf,
  0x80, 0x00, 0x67, 0x3d, 0x0e, 0xff, 0x7a, 0xbe, 0x03, 0x3a, 0xc6, 0xbc,
  0xed, 0x9a, 0x1c, 0xbe, 0xc7, 0x72, 0x85, 0x3e, 0xcf, 0x81, 0x68, 0xbe,
  0xa7, 0x18, 0x7f, 0xbe, 0xc1, 0xb6, 0xde, 0x3c, 0x07, 0xf3, 0x1b, 0xbd,
  0xba, 0xba, 0xbb, 0xbe, 0x42, 0x75, 0x9a, 0xbe, 0xba, 0x31, 0x02, 0xbd,
  0xb6, 0x08, 0x76, 0x3e, 0xea, 0xd8, 0x03, 0x3e, 0xcd, 0xcb, 0x39, 0xbc,
  0x62, 0xeb, 0x0d, 0x3d, 0x2a, 0x04, 0x0a, 0xbe, 0xe4, 0xea, 0xde, 0xbd,
  0x0c, 0xab, 0x09, 0xbe, 0xfc, 0xeb, 0x04, 0xbe, 0x91, 0xce, 0xb7, 0xbe,
  0x4f, 0x7b, 0xe5, 0xbd, 0xd6, 0xdb, 0xd3, 0x3e, 0x4d, 0x67, 0xb9, 0xbc,
  0x6d, 0x54, 0xe9, 0x3b, 0x25, 0xd3, 0x60, 0xbd, 0x98, 0x1d, 0x66, 0xbd,
  0x2a, 0x52, 0x28, 0xbe, 0xa5, 0x46, 0x11, 0x3e, 0x5b, 0xb0, 0xd1, 0xbd,
  0x60, 0xd0, 0x72, 0x3e, 0x1e, 0x8c, 0xa5, 0xbd, 0xa2, 0x56, 0xb8, 0x3e,
  0xee, 0x69, 0xe8, 0xbd, 0x76, 0x55, 0x7d, 0xbc, 0xc7, 0xad, 0x72, 0xbd,
  0xd2, 0xb8, 0x93, 0x3d, 0x9a, 0x3b, 0x78, 0xbd, 0xae, 0x2d, 0x27, 0x3e,
  0xe4, 0xa4, 0x40, 0x3d, 0x2f, 0x52, 0x93, 0x3d, 0x56, 0xf9, 0x43, 0xbd,
  0xf3, 0xb1, 0x63, 0xbd, 0x24, 0xe3, 0x9b, 0x3d, 0x69, 0x49, 0xdb, 0x3e,
  0xce, 0x59, 0xe9, 0x3c, 0x74, 0x27, 0x2f, 0x3e, 0x2a, 0xde, 0x60, 0xbe,
  0x3c, 0x85, 0x55, 0xbe, 0x68, 0xc2, 0x6e, 0xbd, 0xa7, 0x77, 0x01, 0xbd,
  0x35, 0x52, 0xeb, 0xbd, 0x99, 0x69, 0x9f, 0xbd, 0x1e, 0xd5, 0xc3, 0xbd,
  0x25, 0x84, 0x3c, 0x3d, 0x64, 0x17, 0x53, 0x3c, 0x5e, 0x84, 0x66, 0xbd,
  0x7a, 0x09, 0xad, 0xbd, 0x05, 0x22, 0x89, 0xbe, 0xcb, 0xbe, 0xc5, 0xbd,
  0x8b, 0x01, 0x94, 0xbc, 0xee, 0x75, 0xdc, 0xbd, 0xcd, 0xc9, 0x23, 0x3e,
  0x41, 0x9c, 0xc6, 0xbd, 0xa5, 0x56, 0x69, 0xbe, 0x83, 0xd4, 0x91, 0x3d,
  0xd7, 0x5e, 0xba, 0xbd, 0x24, 0xe5, 0x34, 0xbe, 0x13, 0x05, 0x15, 0x3e,
  0xbc, 0x76, 0x64, 0xbe, 0xec, 0x07, 0xaa, 0xbd, 0xc6, 0xa2, 0x75, 0xbe,
  0x9e, 0x41, 0xaf, 0x3d, 0x3f, 0xe6, 0xfc, 0xbc, 0x9f, 0xae, 0x2d, 0xbe,
  0xee, 0x4f, 0x9c, 0xbe, 0xf9, 0xb5, 0x9c, 0xbe, 0x94, 0x64, 0x1f, 0xbe,
  0x24, 0x9d, 0x17, 0xbe, 0xdb, 0x71, 0xb2, 0xbb, 0x78, 0xa1, 0x87, 0x3d,
  0xd7, 0xfe, 0x89, 0x3e, 0x15, 0x3b, 0x43, 0xbe, 0xb1, 0x70, 0x0a, 0x3f,
  0xe2, 0x98, 0x8b, 0x3d, 0x34, 0xf6, 0x78, 0x3d, 0x61, 0xa5, 0xfd, 0x3e,
  0xa4, 0xee, 0x6a, 0x3d, 0x80, 0x60, 0x3b, 0xbe, 0x73, 0xa4, 0xa5, 0x3d,
  0x07, 0x3c, 0xb5, 0xbe, 0x8c, 0x4c, 0x53, 0xbe, 0xd0, 0x4a, 0x06, 0xbe,
  0x6a, 0x74, 0xbe, 0xbd, 0x4d, 0x13, 0xb4, 0xbd, 0x94, 0x3b, 0x76, 0x3d,
  0x8f, 0xb5, 0x34, 0xbe, 0xfd, 0xa6, 0xca, 0xbd, 0xc3, 0x00, 0x29, 0xbe,
  0x84, 0x53, 0x94, 0xbe, 0x92, 0xbc, 0x9f, 0xbe, 0x5b, 0xe1, 0x13, 0xbe,
  0x1e, 0x2d, 0x49, 0x3e, 0x89, 0x7b, 0x99, 0x3d, 0x0e, 0x2f, 0x81, 0x3c,
  0xc3, 0xc1, 0x3b, 0xbe, 0x8f, 0xa9, 0xff, 0xbd, 0xfe, 0x80, 0x9b, 0xbe,
  0x91, 0x7d, 0x02, 0xbe, 0x3e, 0x82, 0x24, 0xbe, 0x9e, 0xee, 0x7e, 0x3e,
  0xda, 0xaf, 0x31, 0xbe, 0x15, 0xd2, 0x96, 0xbe, 0x60, 0x4a, 0xb0, 0xbe,
  0xcb, 0x07, 0xb7, 0xbe, 0xe0, 0x19, 0xe0, 0xbd, 0x0f, 0x63, 0x54, 0xbe,
  0x8c, 0x11, 0x85, 0xbc, 0x11, 0xbd, 0xfd, 0xbe, 0x26, 0x67, 0x34, 0x3d,
  0xaa, 0x14, 0x5a, 0x3e, 0xfe, 0x4f, 0xc6, 0xbe, 0x19, 0x36, 0xc9, 0xbe,
  0x2c, 0x27, 0x6d, 0x3d, 0x20, 0xbb, 0x19, 0x3e, 0x66, 0xf4, 0xa8, 0x3d,
  0x4a, 0x9d, 0x9f, 0x3d, 0xcd, 0x1d, 0x40, 0x3d, 0x8b, 0x08, 0x82, 0x3e,
  0x84, 0x11, 0x2e, 0x3d, 0xbc, 0xc7, 0x9f, 0xbe, 0x23, 0xbc, 0x35, 0x3e,
  0xa0, 0xde, 0x06, 0x3e, 0x4f, 0x4e, 0x1a, 0x3c, 0x44, 0x66, 0x3b, 0x3e,
  0x9e, 0xc9, 0x2a, 0xb9, 0xca, 0xd9, 0x87, 0x3d, 0xd2, 0x96, 0x6a, 0x3e,
  0xb7, 0x44, 0x99, 0xbe, 0xc5, 0xa8, 0x1b, 0x3d, 0x33, 0x36, 0x0b, 0x3e,
  0xc0, 0xc6, 0x7b, 0x3c, 0x62, 0x6b, 0x1e, 0x3e, 0xc6, 0xad, 0xf8, 0x3e,
  0x2c, 0x80, 0x86, 0x3d, 0x42, 0xc9, 0x9f, 0x3e, 0x7a, 0xaa, 0x84, 0x3c,
  0x79, 0xe2, 0x7f, 0xbd, 0x0c, 0x64, 0xc0, 0x3d, 0xc4, 0xea, 0x04, 0x3c,
  0x2d, 0xd2, 0xd6, 0xbb, 0xd1, 0xa5, 0x8b, 0xbb, 0x04, 0xf0, 0xc5, 0x3e,
  0xd6, 0x91, 0xa8, 0xbc, 0x66, 0x92, 0x3e, 0x3b, 0xf3, 0xde, 0xca, 0xbd,
  0xf8, 0xcd, 0x10, 0x3e, 0x66, 0xc1, 0x9f, 0xbc, 0x3a, 0x7c, 0x3f, 0xbe,
  0xf1, 0x8f, 0xbf, 0xbe, 0x86, 0xa1, 0x95, 0x3c, 0xea, 0xf3, 0xb0, 0xbc,
  0x08, 0x77, 0x86, 0xbd, 0x9a, 0xb5, 0x7e, 0x3d, 0x38, 0x4a, 0xae, 0x3d,
  0x44, 0x16, 0x81, 0xbd, 0xe6, 0x2f, 0x39, 0xbe, 0x1a, 0x96, 0x58, 0xbe,
  0x48, 0x4c, 0x15, 0xbf, 0xd7, 0xf8, 0xb0, 0xbc, 0x2d, 0xbc, 0x63, 0xbd,
  0xdd, 0x90, 0x70, 0xbd, 0x1d, 0xe5, 0xe7, 0xbe, 0x36, 0xb5, 0x1e, 0xbd,
  0xd0, 0x44, 0xdb, 0xbd, 0x8e, 0xef, 0x22, 0xbe, 0x4e, 0x3f, 0xc9, 0xbb,
  0xd7, 0x02, 0x7f, 0x3e, 0xe2, 0x8c, 0x81, 0xbe, 0x2a, 0x5a, 0x83, 0xbe,
  0x40, 0xd5, 0xcb, 0xbd, 0xd5, 0x18, 0xec, 0xbd, 0x81, 0xa9, 0xf3, 0xbd,
  0xa4, 0xf4, 0x26, 0xbe, 0x4f, 0x27, 0x71, 0xba, 0x75, 0x50, 0x33, 0x3e,
  0xb6, 0xd5, 0xfe, 0x3b, 0xdd, 0xbd, 0x55, 0xbe, 0x74, 0x22, 0x05, 0xbe,
  0xbf, 0x98, 0x0e, 0x3e, 0x4a, 0x09, 0x0c, 0xbe, 0x35, 0x6c, 0x4a, 0xbe,
  0x4c, 0x0f, 0x2b, 0xbe, 0xf6, 0x49, 0x24, 0x3e, 0xf6, 0xb0, 0x3b, 0xbd,
  0x49, 0xd4, 0xea, 0xbd, 0xa3, 0x44, 0x38, 0xbe, 0x2a, 0xc3, 0x96, 0x3e,
  0xcc, 0x8f, 0x47, 0xbe, 0xd9, 0xc2, 0x8a, 0xbc, 0xa9, 0x42, 0xac, 0x3c,
  0x9e, 0x67, 0x9d, 0xbd, 0xe9, 0xf8, 0x26, 0xbe, 0xf5, 0x99, 0x40, 0xbe,
  0xcb, 0x4e, 0x65, 0xbe, 0xfa, 0x6d, 0x05, 0x3e, 0xec, 0x31, 0x78, 0x3e,
  0xe7, 0x87, 0x6d, 0xbd, 0xd9, 0x72, 0xad, 0x3d, 0x16, 0xf2, 0x43, 0x3d,
  0x78, 0xb9, 0xd4, 0xbd, 0xbd, 0x7f, 0x64, 0x3d, 0x88, 0xde, 0x1e, 0x3e,
  0x82, 0xc5, 0x33, 0xbd, 0x45, 0x69, 0x27, 0xbe, 0x41, 0xb2, 0x2f, 0x3d,
  0x45, 0x56, 0x8a, 0xbd, 0xa3, 0x7b, 0x96, 0x3e, 0x5d, 0xeb, 0xe1, 0xbc,
  0x10, 0xd9, 0x06, 0x3e, 0x9f, 0xac, 0x93, 0x3d, 0x26, 0x24, 0x75, 0x3c,
  0x29, 0xb3, 0x8e, 0xbd, 0x96, 0x26, 0x15, 0x3e, 0x1c, 0x4c, 0x83, 0xbd,
  0xdd, 0xe9, 0xc4, 0x3c, 0x2a, 0x42, 0x1e, 0x3e, 0xa3, 0xa8, 0x52, 0xbd,
  0x8c, 0xc7, 0x2f, 0xbe, 0x7c, 0xf3, 0x21, 0x3e, 0x02, 0x6d, 0x17, 0xbe,
  0x25, 0xc7, 0xa5, 0xbd, 0x67, 0x30, 0x4f, 0xbe, 0xf1, 0x53, 0x15, 0x3e,
  0xdf, 0x3a, 0xb2, 0xbc, 0x54, 0x1e, 0x81, 0x3e, 0x93, 0xe1, 0x39, 0xbe,
  0x92, 0xcf, 0x90, 0xbd, 0x97, 0x57, 0x35, 0xbe, 0xbe, 0x95, 0xc9, 0x3d,
  0xcf, 0x57, 0xaa, 0x3e, 0x9a, 0x37, 0x4d, 0x3c, 0x01, 0xad, 0x64, 0xbd,
  0x01, 0xf2, 0xb0, 0xbe, 0x10, 0x01, 0x6d, 0x3e, 0x84, 0x7d, 0xa1, 0xbe,
  0xdf, 0x05, 0x37, 0x3d, 0xbc, 0x85, 0xe6, 0xbe, 0x5c, 0x3c, 0x99, 0x3e,
  0x28, 0x0d, 0x90, 0xbe, 0xff, 0x68, 0xea, 0x3d, 0xd3, 0xf9, 0x4a, 0xbe,
  0xb2, 0x0b, 0xd0, 0x3c, 0x8c, 0x6d, 0xfb, 0xbd, 0x9c, 0xfb, 0xe5, 0xbd,
  0x26, 0xb2, 0x0d, 0xbd, 0x29, 0xec, 0xc6, 0x3d, 0x84, 0x7a, 0x6a, 0xbe,
  0x3d, 0x38, 0x07, 0x3d, 0xc7, 0x4d, 0x20, 0xbe, 0xf1, 0x3e, 0xc4, 0xbe,
  0xdb, 0x98, 0xbf, 0x3c, 0xfc, 0xdd, 0x06, 0x3c, 0xf7, 0x92, 0xc0, 0x3d,
  0x4c, 0xf7, 0x2d, 0x3e, 0x32, 0x25, 0xbd, 0xbd, 0xc2, 0x5d, 0xf1, 0x3c,
  0x06, 0x78, 0xbc, 0x3c, 0x3d, 0x22, 0x95, 0xbe, 0x51, 0xde, 0x83, 0xbd,
  0x58, 0x70, 0x1f, 0x3e, 0x8a, 0xa8, 0x96, 0xbe, 0x60, 0xdf, 0xab, 0xbd,
  0xe3, 0x6b, 0xbf, 0x3b, 0x09, 0xf3, 0x5d, 0x3d, 0x8a, 0xa7, 0x7b, 0xbe,
  0x5f, 0x02, 0x98, 0xbe, 0x3d, 0x5e, 0x6b, 0xbe, 0x78, 0xd0, 0x34, 0x3d,
  0xfa, 0x36, 0x4a, 0x3f, 0x9b, 0x0e, 0x0e, 0xbe, 0xf4, 0x62, 0x0f, 0xbc,
  0x50, 0x1f, 0x0e, 0x3d, 0x27, 0x32, 0x0f, 0xbe, 0xc7, 0xa3, 0xe9, 0xbc,
  0xa4, 0xcb, 0x50, 0xbe, 0x23, 0xbf, 0x00, 0xbe, 0xbf, 0xbb, 0xfb, 0xbd,
  0x56, 0xb7, 0x69, 0x3a, 0x96, 0x82, 0x00, 0x3a, 0xcf, 0xc3, 0xb5, 0xbc,
  0x40, 0x60, 0x20, 0xbd, 0x01, 0x74, 0x9e, 0xbd, 0x29, 0x1f, 0x25, 0xbe,
  0x42, 0x25, 0xd0, 0xbb, 0xcc, 0x84, 0xab, 0xbc, 0x94, 0x55, 0x83, 0xbc,
  0xf9, 0x8a, 0x68, 0xbd, 0x57, 0x47, 0x31, 0xbc, 0xf4, 0x43, 0xea, 0x3c,
  0x86, 0x17, 0x52, 0x3d, 0xf0, 0x54, 0xb7, 0xbc, 0x5f, 0xdc, 0x07, 0xbe,
  0xd2, 0x12, 0x7c, 0xbe, 0x8f, 0xe5, 0xf5, 0x3b, 0xa3, 0xdd, 0xea, 0xbd,
  0x13, 0x51, 0x12, 0xbe, 0xc5, 0x56, 0x4b, 0xbd, 0xdb, 0x17, 0x96, 0xbd,
  0x1f, 0xf4, 0x1f, 0x3d, 0x77, 0x2c, 0x2f, 0xbe, 0x88, 0x58, 0x67, 0x3d,
  0xb5, 0xed, 0xa9, 0xbe, 0xba, 0x36, 0xa4, 0xbd, 0x56, 0xde, 0x3e, 0xbd,
  0xaf, 0xfd, 0xac, 0xbd, 0x5d, 0x27, 0x99, 0xbe, 0xd0, 0x22, 0x2c, 0x3d,
  0x08, 0xd4, 0x85, 0xbd, 0x9a, 0x7b, 0x05, 0x3e, 0x20, 0xc0, 0xb3, 0xbe,
  0x0b, 0x0c, 0x4f, 0x3d, 0xf2, 0x82, 0x64, 0xbd, 0x25, 0xa1, 0x12, 0xbd,
  0xd5, 0x3d, 0xa3, 0xbe, 0x32, 0x76, 0x25, 0xbc, 0x40, 0xf6, 0xbf, 0x3e,
  0x35, 0x74, 0x6b, 0x3e, 0x6d, 0x8d, 0x04, 0x3e, 0x2c, 0x88, 0xa1, 0x3e,
  0xb5, 0x67, 0xdb, 0x3d, 0xee, 0x57, 0xe8, 0xbd, 0xe6, 0x50, 0xc3, 0xbd,
  0x72, 0xe4, 0xec, 0xbc, 0x13, 0x6e, 0x32, 0x3e, 0x31, 0x61, 0x96, 0x3e,
  0x07, 0x93, 0xb8, 0x3e, 0x03, 0xaf, 0xf4, 0x3e, 0xd7, 0x40, 0x8a, 0x3d,
  0x3e, 0xcb, 0xbf, 0xbe, 0x8c, 0x4c, 0xf0, 0x3c, 0x11, 0x27, 0x9d, 0xbe,
  0x8a, 0x1e, 0x84, 0xbd, 0x5a, 0x66, 0x7e, 0xbe, 0x88, 0x85, 0xd2, 0xbd,
  0xbd, 0x1f, 0x58, 0xbe, 0xb0, 0x39, 0x8f, 0x3b, 0x30, 0x12, 0x29, 0xbe,
  0xf9, 0x8e, 0xd4, 0x3e, 0x14, 0xf0, 0x18, 0xbe, 0x3d, 0xd1, 0xae, 0xbe,
  0x2e, 0x7f, 0x50, 0xbd, 0xb9, 0x29, 0x16, 0x3e, 0xa2, 0xcd, 0xa5, 0xbe,
  0x0e, 0xcd, 0x2b, 0xbe, 0xcc, 0xac, 0x3e, 0xbd, 0x54, 0xaa, 0xb7, 0xbd,
  0x88, 0xf0, 0x03, 0xbd, 0x91, 0x5d, 0x59, 0xbd, 0xfe, 0x1f, 0xf6, 0x3d,
  0x8e, 0x36, 0x8b, 0xbe, 0xf0, 0xce, 0x9e, 0xbe, 0x3a, 0x53, 0xcb, 0xbd,
  0xf6, 0x57, 0x70, 0x3d, 0x8e, 0x2b, 0xe3, 0xbe, 0x5c, 0xfd, 0x80, 0x3d,
  0x59, 0x3d, 0x09, 0x3e, 0x19, 0x31, 0x52, 0xbd, 0x62, 0xa9, 0x01, 0x3e,
  0xb8, 0xb2, 0xa7, 0xbe, 0x50, 0x74, 0x9d, 0xbe, 0x17, 0xdb, 0xfc, 0xbd,
  0x43, 0x76, 0xe9, 0x3b, 0x02, 0x5b, 0x45, 0xbd, 0x28, 0xbd, 0xb9, 0xbe,
  0xa3, 0xc5, 0x70, 0x3e, 0x95, 0x86, 0x30, 0x3e, 0x44, 0x7b, 0x11, 0xbe,
  0xfe, 0xe7, 0x88, 0xbe, 0x29, 0x6d, 0x2b, 0x3e, 0xa5, 0xd2, 0x88, 0x3e,
  0x51, 0x4a, 0x12, 0xbd, 0xbf, 0x31, 0xfd, 0xba, 0x07, 0xf7, 0x59, 0xbe,
  0xa6, 0x66, 0xb7, 0x3e, 0xf6, 0xb1, 0x8f, 0x3e, 0xe2, 0x4a, 0xa1, 0xbe,
  0x24, 0x9c, 0x36, 0x3d, 0x42, 0x93, 0x44, 0x3d, 0x58, 0xa9, 0xb6, 0xbc,
  0x65, 0xa6, 0x1a, 0x3f, 0x01, 0xee, 0xc6, 0xbd, 0xa5, 0x3e, 0x05, 0xbf,
  0x2d, 0x51, 0x58, 0x3e, 0xa2, 0xfc, 0xba, 0xbe, 0x26, 0x84, 0xe3, 0xbd,
  0xa2, 0xa0, 0x01, 0xbf, 0x3a, 0x51, 0x37, 0xbd, 0xa7, 0xcb, 0x08, 0x3e,
  0x74, 0xef, 0xff, 0xff, 0x78, 0xef, 0xff, 0xff, 0x7c, 0xef, 0xff, 0xff,
  0x80, 0xef, 0xff, 0xff, 0x84, 0xef, 0xff, 0xff, 0x88, 0xef, 0xff, 0xff,
  0xd2, 0xf6, 0xff, 0xff, 0x04, 0x00, 0x00, 0x00, 0x00, 0x07, 0x00, 0x00,
  0x0b, 0xf0, 0xfe, 0xf6, 0xfc, 0xfc, 0x04, 0xf6, 0xf8, 0x13, 0xfa, 0x05,
  0xf6, 0x0a, 0x01, 0xfa, 0x0b, 0xfc, 0xfc, 0xfd, 0xef, 0xf7, 0xfc, 0x05,
  0xf9, 0x05, 0xff, 0x13, 0xfc, 0x00, 0xfc, 0x02, 0x07, 0xed, 0x0d, 0x0c,
  0xfb, 0xee, 0x0b, 0xfa, 0x12, 0x09, 0x05, 0x16, 0xfe, 0x09, 0x0a, 0x04,
  0x0a, 0xfc, 0x02, 0x0d, 0xfa, 0x06, 0x01, 0x07, 0x06, 0x11, 0xf8, 0x0c,
  0x00, 0xfd, 0x0d, 0x07, 0xfd, 0xf5, 0x06, 0x01, 0x01, 0xeb, 0xfe, 0x03,
  0x03, 0x0f, 0xfa, 0x0c, 0xfe, 0xfa, 0x0b, 0xf9, 0x03, 0xf6, 0xfb, 0x02,
  0xee, 0x06, 0x04, 0x04, 0x00, 0x0d, 0xfc, 0x0e, 0x06, 0xfc, 0xff, 0xff,
  0x04, 0xf5, 0xf5, 0x02, 0x01, 0x0f, 0xfb, 0xfa, 0xfd, 0x05, 0xf9, 0xfa,
  0x04, 0xfd, 0x06, 0xf5, 0x05, 0xf7, 0x08, 0x04, 0xfb, 0x01, 0x02, 0xfd,
  0xf3, 0x02, 0xf9, 0xfc, 0x04, 0xfd, 0xf6, 0xfc, 0x00, 0xfc, 0x06, 0x01,
  0x05, 0x04, 0xfe, 0xfd, 0xf9, 0x03, 0xee, 0x0c, 0xfd, 0xf8, 0xff, 0x03,
  0xff, 0xf7, 0x00, 0xfe, 0x05, 0xf7, 0x02, 0x01, 0x0a, 0xf3, 0xf3, 0xfe,
  0x02, 0xf8, 0x00, 0xfd, 0x08, 0xfe, 0x04, 0x0a, 0x04, 0x00, 0xfc, 0xf2,
  0xff, 0xff, 0xef, 0x07, 0x05, 0xf3, 0xff, 0xff, 0x02, 0xfd, 0x06, 0xfc,
  0xfc, 0xf4, 0x03, 0xfa, 0xfe, 0xfb, 0xf7, 0x09, 0x03, 0xfd, 0xff, 0xfb,
  0x0a, 0xf9, 0xff, 0xff, 0xfc, 0xfe, 0x04, 0xf6, 0xf8, 0xff, 0xfe, 0xfe,
  0x01, 0x00, 0x0a, 0xfb, 0xf9, 0xf2, 0x06, 0x0f, 0xff, 0xfe, 0xf3, 0xf5,
  0xf7, 0xf6, 0xfc, 0x07, 0xff, 0xf6, 0xf9, 0xf2, 0x04, 0x02, 0x0b, 0xfc,
  0x04, 0xff, 0x02, 0x02, 0xfb, 0x00, 0xee, 0xfb, 0x01, 0xfd, 0x06, 0xfd,
  0x03, 0xfd, 0x09, 0xfd, 0x10, 0xf9, 0xff, 0xfe, 0x02, 0x01, 0xed, 0xfd,
  0x03, 0xf3, 0xfa, 0x00, 0x07, 0x04, 0x0b, 0x08, 0x0f, 0x03, 0x0f, 0xfd,
  0x07, 0xfd, 0xf0, 0x06, 0x02, 0xfd, 0xff, 0x04, 0x02, 0xfe, 0x0e, 0x03,
  0x0c, 0xfc, 0x13, 0xf1, 0x08, 0x01, 0xe8, 0x05, 0x07, 0xf2, 0x04, 0x00,
  0x02, 0xfa, 0xfc, 0xff, 0x0b, 0xfc, 0xf8, 0xf8, 0xfd, 0xfd, 0xef, 0x03,
  0x09, 0xf4, 0xfb, 0x07, 0x04, 0xfe, 0x05, 0x08, 0x01, 0xfb, 0x02, 0xf6,
  0xfb, 0xf5, 0xf2, 0x02, 0x08, 0xf9, 0xf4, 0xfe, 0xf5, 0xf1, 0x06, 0x01,
  0xfe, 0x01, 0x09, 0xe8, 0xff, 0x00, 0xfb, 0x02, 0x02, 0xf3, 0xf9, 0xec,
  0x06, 0xfa, 0xf0, 0xed, 0x01, 0x7f, 0x0e, 0x04, 0x08, 0x03, 0xff, 0xf7,
  0xfa, 0x06, 0xf2, 0x0a, 0xec, 0xfc, 0xe8, 0x02, 0x0e, 0x51, 0x17, 0xfa,
  0x03, 0xfa, 0xff, 0xfe, 0xf9, 0x01, 0xf9, 0x03, 0xf4, 0x02, 0xe9, 0xfb,
  0x06, 0x77, 0x0f, 0xfc, 0x04, 0xfe, 0xff, 0x03, 0xf9, 0x05, 0x03, 0x0e,
  0xf9, 0x00, 0xe5, 0x07, 0x0c, 0x71, 0x17, 0xff, 0x0b, 0x00, 0xfe, 0xf6,
  0xfd, 0xfd, 0xf9, 0x16, 0xf9, 0x07, 0xdb, 0xf2, 0x09, 0x7c, 0x14, 0xfc,
  0x08, 0xff, 0xff, 0xfa, 0xf0, 0xff, 0xfb, 0x12, 0xfa, 0x08, 0xe6, 0xef,
  0x02, 0x6d, 0x19, 0x0a, 0x04, 0xf7, 0xff, 0xf3, 0xe8, 0x04, 0xed, 0x10,
  0x07, 0x00, 0xf5, 0xfb, 0x08, 0xf4, 0x08, 0x02, 0xfd, 0xf7, 0xfd, 0xf0,
  0xfc, 0xfc, 0xee, 0x01, 0x05, 0xf1, 0xfe, 0xfd, 0xfb, 0x3e, 0x06, 0x09,
  0xfd, 0xf4, 0x03, 0xf9, 0xfa, 0x07, 0x04, 0x01, 0x00, 0xf3, 0x06, 0xfd,
  0x00, 0x5e, 0x00, 0x02, 0x00, 0x02, 0xf2, 0x01, 0xf6, 0xf2, 0x0a, 0xf6,
  0x08, 0xf8, 0xf9, 0x05, 0xf6, 0x4b, 0x07, 0xfe, 0xfc, 0x0b, 0xfc, 0xfe,
  0xfb, 0xf6, 0x01, 0xfd, 0x07, 0xfd, 0x03, 0xf8, 0xfb, 0x75, 0xf8, 0xf8,
  0xf8, 0xfd, 0xf9, 0xf9, 0x01, 0xfc, 0x08, 0x04, 0xfe, 0x02, 0xff, 0xfb,
  0xfa, 0x47, 0x02, 0x01, 0xf2, 0xf9, 0xf7, 0x00, 0x07, 0xf3, 0xf7, 0xfa,
  0xfd, 0xfc, 0x00, 0x01, 0x01, 0x68, 0xfa, 0xfd, 0xfe, 0xf9, 0xfd, 0x03,
  0xf7, 0xfd, 0xf6, 0xfc, 0x04, 0xf8, 0xfa, 0x03, 0xfa, 0x10, 0xf0, 0x05,
  0xfa, 0x00, 0xfa, 0xfe, 0x04, 0xf7, 0xfc, 0xf6, 0xf4, 0xfa, 0xf5, 0xfe,
  0xf5, 0xf6, 0xf4, 0xdb, 0xe4, 0xeb, 0xfc, 0xef, 0xf7, 0xf1, 0xff, 0xf0,
  0xf6, 0xf9, 0xfb, 0xf4, 0xf8, 0x00, 0xfa, 0xeb, 0xff, 0xe8, 0xf7, 0xfb,
  0xf7, 0xeb, 0xf8, 0xf6, 0x03, 0xfe, 0xfd, 0xfa, 0xfb, 0xfd, 0xfd, 0xe0,
  0xf8, 0xef, 0xfa, 0xf8, 0xf6, 0xec, 0x01, 0xf3, 0xf6, 0xfc, 0xee, 0xfd,
  0xdf, 0xfc, 0x02, 0xde, 0xf3, 0xed, 0xf9, 0xf4, 0xed, 0xff, 0x04, 0xef,
  0xf9, 0xff, 0xf9, 0x09, 0xfd, 0xf7, 0xf0, 0xea, 0x07, 0xee, 0xfa, 0xff,
  0x0e, 0x06, 0x09, 0xff, 0x0c, 0xff, 0x01, 0x07, 0xff, 0x07, 0xfc, 0xf3,
  0x09, 0xfe, 0xfc, 0x0d, 0x0a, 0x0d, 0x14, 0xf7, 0x02, 0x06, 0x00, 0x06,
  0x03, 0xfb, 0xfb, 0xf8, 0x03, 0xf6, 0x09, 0x04, 0x0c, 0x0e, 0x03, 0xfe,
  0xfc, 0xff, 0x06, 0x07, 0xf1, 0x2f, 0xfd, 0x03, 0xfe, 0x04, 0x00, 0xf2,
  0xf9, 0x03, 0xf7, 0xf2, 0x01, 0xf9, 0xfc, 0xff, 0xf9, 0x36, 0x08, 0xfb,
  0xf6, 0xfb, 0xf7, 0x03, 0xfc, 0x00, 0xfb, 0x06, 0x02, 0xfd, 0xfd, 0x00,
  0xf7, 0x38, 0xfa, 0xf6, 0x03, 0xfd, 0xfe, 0xfb, 0xfc, 0xfd, 0xf8, 0xfc,
  0x07, 0x08, 0xff, 0x09, 0xf5, 0x2a, 0x0a, 0xf7, 0x03, 0x05, 0xf9, 0xf7,
  0x02, 0xfd, 0xf5, 0xfa, 0xfd, 0x04, 0x02, 0x0a, 0x00, 0x2b, 0x04, 0xf9,
  0x02, 0x01, 0xfe, 0x01, 0xfa, 0xf2, 0xfa, 0x02, 0x08, 0x01, 0xfc, 0xfd,
  0xfc, 0x2a, 0x04, 0x02, 0xf3, 0x04, 0xfa, 0x00, 0x00, 0xfb, 0x06, 0xfd,
  0x05, 0xfc, 0xfd, 0xfe, 0xf5, 0x1f, 0xfb, 0x00, 0xf7, 0xfe, 0xfd, 0x04,
  0xff, 0xf3, 0xfb, 0xf3, 0x02, 0x03, 0x0a, 0x07, 0x05, 0x00, 0xf1, 0xf3,
  0x14, 0xf7, 0xfd, 0x0b, 0x11, 0xfe, 0x13, 0xfd, 0x06, 0x02, 0xf2, 0x04,
  0xfa, 0xf6, 0xf9, 0xf2, 0x08, 0xf3, 0xfc, 0xfd, 0xfc, 0xfd, 0x05, 0x01,
  0x05, 0xfb, 0xf7, 0xff, 0xef, 0xfd, 0xf4, 0xfd, 0xfc, 0xf9, 0xfe, 0xf4,
  0xfa, 0xf9, 0xfc, 0xeb, 0xfb, 0xf7, 0xf5, 0x01, 0xdf, 0xfe, 0xf6, 0xf4,
  0xe4, 0xf9, 0xfd, 0x01, 0xfc, 0xf6, 0x02, 0xec, 0xfb, 0xfb, 0xfc, 0x0d,
  0xf8, 0xfd, 0xf6, 0xfb, 0xe8, 0xef, 0xfd, 0xf5, 0x02, 0x07, 0xf0, 0xf2,
  0x07, 0x00, 0x01, 0x12, 0x07, 0x03, 0xf8, 0xfb, 0x01, 0xf9, 0xff, 0x00,
  0x08, 0x07, 0x11, 0xfb, 0x05, 0xff, 0x03, 0x06, 0x01, 0xfc, 0xfb, 0xff,
  0x00, 0xfe, 0x03, 0x03, 0x05, 0x0c, 0x02, 0x01, 0xfd, 0xf8, 0xef, 0xf9,
  0xff, 0x37, 0x0e, 0x07, 0x01, 0xf4, 0xfc, 0xf6, 0xfb, 0x06, 0xf6, 0x0c,
  0xfd, 0xf9, 0xe8, 0x13, 0x02, 0x61, 0x0c, 0xf7, 0x05, 0xf3, 0xfd, 0xf8,
  0x01, 0xfc, 0x01, 0xfc, 0xf6, 0x06, 0xe8, 0x09, 0x0d, 0x46, 0x04, 0x02,
  0x05, 0xfc, 0xfd, 0xfa, 0xfc, 0xff, 0xfc, 0x11, 0x00, 0x09, 0xe5, 0x0c,
  0x07, 0x7f, 0xfe, 0x04, 0x07, 0xf9, 0x00, 0xfe, 0xf6, 0xfe, 0xf8, 0x16,
  0x08, 0x05, 0xea, 0xfc, 0x02, 0x58, 0x13, 0x04, 0x0d, 0x05, 0x00, 0x01,
  0xf7, 0x08, 0x00, 0x11, 0xf6, 0xf9, 0xf2, 0x02, 0x06, 0x6f, 0x11, 0xf3,
  0xff, 0x01, 0x00, 0xe6, 0xf7, 0xff, 0xf6, 0xfa, 0x0b, 0x00, 0xfa, 0xf7,
  0x00, 0x00, 0xf1, 0xfe, 0xf8, 0x03, 0xfd, 0x00, 0xff, 0xfb, 0xf8, 0xfd,
  0xf8, 0xfe, 0xf9, 0xfe, 0xf3, 0x1f, 0xff, 0x01, 0xf2, 0x03, 0xf8, 0xff,
  0xfc, 0x09, 0xfa, 0xf4, 0x01, 0x08, 0xfc, 0x0e, 0xf2, 0x24, 0xf3, 0xfe,
  0x05, 0xfc, 0x00, 0x01, 0x04, 0xff, 0x06, 0xff, 0x1e, 0xff, 0x00, 0x0a,
  0xf2, 0x17, 0x07, 0xfd, 0xfd, 0x03, 0xf7, 0x11, 0x06, 0xf5, 0x00, 0x00,
  0x04, 0x01, 0x0e, 0x04, 0xfd, 0x2d, 0x0a, 0x0a, 0x07, 0x03, 0xee, 0x07,
  0x02, 0x05, 0x06, 0x05, 0x10, 0x03, 0xfb, 0x04, 0xfb, 0x2f, 0xfe, 0x06,
  0xfd, 0x07, 0xfd, 0x04, 0x03, 0xf6, 0xf9, 0x06, 0x1a, 0xf9, 0xfa, 0x05,
  0xf8, 0x32, 0xf9, 0xf5, 0xf7, 0x01, 0x00, 0x06, 0xf3, 0x00, 0x00, 0x06,
  0x00, 0xf9, 0x01, 0x02, 0xfa, 0x16, 0xfa, 0x00, 0xfc, 0x01, 0xfe, 0x00,
  0xf3, 0xf7, 0x01, 0xff, 0x08, 0x00, 0x09, 0x05, 0x04, 0x52, 0x01, 0xfc,
  0x10, 0xff, 0x04, 0x04, 0x11, 0x0a, 0x08, 0xfd, 0x03, 0xfe, 0xf9, 0x0d,
  0x00, 0x4d, 0x04, 0x03, 0x02, 0xfc, 0xff, 0xf8, 0xf0, 0xfe, 0x0a, 0x05,
  0x01, 0xff, 0xfa, 0x03, 0xf5, 0x5c, 0xf7, 0x04, 0xfc, 0x01, 0xff, 0xf7,
  0xf0, 0xfb, 0xfa, 0xee, 0xfd, 0xfa, 0xfe, 0xf9, 0xe7, 0x5b, 0xfe, 0xfd,
  0xe8, 0x00, 0xff, 0xfb, 0xec, 0x03, 0xf3, 0xf6, 0x02, 0xfd, 0x00, 0x08,
  0xfb, 0x4f, 0xf3, 0xff, 0xf8, 0xfd, 0x01, 0xfa, 0x01, 0x05, 0xf4, 0xfb,
  0x06, 0xff, 0x00, 0x17, 0x08, 0x47, 0x00, 0xfe, 0x04, 0x00, 0xff, 0x01,
  0x09, 0xfe, 0x0b, 0x02, 0xfb, 0xff, 0xfe, 0xfd, 0xfb, 0x18, 0xff, 0x02,
  0xfd, 0x06, 0xfe, 0x02, 0xfd, 0xfe, 0x00, 0xff, 0xf9, 0xf8, 0xee, 0xf5,
  0x01, 0x66, 0x0a, 0x05, 0x08, 0xfa, 0x00, 0xf5, 0xfa, 0x00, 0xfc, 0x0f,
  0xfd, 0xf9, 0xee, 0x06, 0x03, 0x64, 0x0e, 0xfc, 0x00, 0xfb, 0xfc, 0xf1,
  0xfc, 0xfd, 0xff, 0x01, 0xf9, 0x05, 0xf1, 0xfe, 0x10, 0x63, 0x0c, 0xfc,
  0x08, 0xfc, 0xfd, 0xfd, 0x01, 0x06, 0x00, 0x11, 0xf6, 0x01, 0xef, 0x00,
  0x0b, 0x65, 0x0c, 0xfc, 0x0e, 0x00, 0xfe, 0xff, 0xf7, 0x06, 0x03, 0x16,
  0xf8, 0x00, 0xeb, 0xef, 0x01, 0x65, 0x16, 0x04, 0x07, 0x07, 0x00, 0x03,
  0xed, 0xfa, 0xfd, 0x0b, 0xfe, 0x0a, 0xe3, 0xfa, 0x00, 0x5e, 0x19, 0x06,
  0xfe, 0x02, 0x00, 0xf1, 0xeb, 0xfd, 0xf0, 0x0c, 0x0b, 0xfe, 0xf7, 0xfd,
  0x05, 0x05, 0x07, 0x04, 0x00, 0x02, 0x01, 0xf6, 0xfd, 0xfe, 0xf4, 0x00,
  0x01, 0x0b, 0x02, 0x0d, 0x00, 0x4b, 0xf7, 0xf1, 0x04, 0xf6, 0xfd, 0x01,
  0x0b, 0x02, 0x0e, 0xfc, 0x01, 0x03, 0xf9, 0x09, 0xff, 0x49, 0x03, 0x03,
  0x0e, 0xf9, 0xf6, 0x04, 0xf2, 0x06, 0x04, 0x0e, 0x00, 0xfa, 0xf8, 0xf5,
  0xf2, 0x49, 0xfc, 0x01, 0x06, 0x02, 0x05, 0xfc, 0xf2, 0x01, 0x02, 0xf9,
  0xfe, 0xed, 0xf8, 0xfb, 0xde, 0x39, 0xf4, 0x04, 0xec, 0x00, 0xfc, 0xf8,
  0xfe, 0xfb, 0xfc, 0xf4, 0x00, 0xf7, 0x04, 0xfa, 0xee, 0x49, 0xfe, 0xf9,
  0xf0, 0xfc, 0x00, 0x05, 0x05, 0xf8, 0x02, 0xf9, 0x03, 0xf4, 0xff, 0x05,
  0xfb, 0x45, 0xfc, 0x01, 0xf9, 0xf4, 0xfc, 0x00, 0xf5, 0xf9, 0xf9, 0xfd,
  0xf1, 0xfb, 0xfc, 0xfa, 0xf6, 0x1f, 0x08, 0xfc, 0xfb, 0x02, 0xf9, 0xf6,
  0xfa, 0xfa, 0xff, 0x04, 0x00, 0x04, 0xeb, 0xfa, 0xf9, 0xef, 0xfe, 0xfd,
  0xe2, 0x0b, 0x00, 0xf7, 0xeb, 0xfa, 0xf8, 0xeb, 0x1d, 0x05, 0x09, 0x02,
  0xdd, 0xe9, 0xf3, 0x05, 0xfa, 0x0e, 0x04, 0x18, 0x06, 0x06, 0x04, 0xf6,
  0x1e, 0x03, 0x07, 0x10, 0xe5, 0xe8, 0x0d, 0x04, 0xfc, 0x08, 0x04, 0x11,
  0x10, 0x08, 0x07, 0xf9, 0x1e, 0x05, 0x03, 0x12, 0xf4, 0xe3, 0xf9, 0x04,
  0xf9, 0x08, 0x03, 0x06, 0x0b, 0x03, 0x0f, 0xf9, 0x1b, 0x03, 0x02, 0x0e,
  0xe5, 0xe8, 0xf9, 0x02, 0x04, 0x08, 0x06, 0x0b, 0x0d, 0x00, 0x0c, 0xf9,
  0x21, 0xf6, 0x02, 0x01, 0xda, 0xdf, 0xf7, 0xfb, 0xff, 0x05, 0x04, 0x06,
  0x04, 0xf9, 0x07, 0xe9, 0xfa, 0x04, 0xfe, 0xf8, 0xf8, 0x23, 0xf9, 0xfc,
  0xfd, 0x07, 0xfd, 0x04, 0xfd, 0xff, 0xf9, 0xff, 0xf8, 0xf9, 0xf7, 0xfa,
  0xf4, 0xfd, 0xf4, 0xfb, 0xf1, 0x06, 0xfd, 0xf8, 0xfd, 0xf6, 0xf3, 0xeb,
  0xf7, 0x00, 0xfe, 0xf1, 0xfd, 0xfc, 0x02, 0x03, 0xf9, 0x02, 0xfd, 0xf9,
  0xf8, 0xfd, 0xf3, 0x14, 0xfd, 0xfa, 0xf8, 0xff, 0x04, 0xf9, 0x09, 0x00,
  0xf7, 0x01, 0xfe, 0xfe, 0xf8, 0xfa, 0xf6, 0x06, 0xfa, 0xfd, 0xeb, 0xf0,
  0xf4, 0xfc, 0x05, 0xfe, 0x05, 0xfe, 0xfe, 0xfb, 0xf1, 0xfd, 0xf8, 0x07,
  0xee, 0x02, 0xf7, 0x06, 0x04, 0xf7, 0x06, 0xff, 0x01, 0xf9, 0xfe, 0xfd,
  0xfe, 0x05, 0x04, 0x04, 0x00, 0x0a, 0xf9, 0x02, 0x01, 0x03, 0xff, 0xff,
  0x07, 0xf9, 0xfd, 0x03, 0x01, 0x09, 0x06, 0x02, 0x06, 0x00, 0x00, 0x06,
  0x07, 0xd9, 0x04, 0x04, 0x02, 0xf0, 0x04, 0x01, 0x01, 0xff, 0xfe, 0x02,
  0xf7, 0x05, 0x05, 0xf5, 0x07, 0x04, 0x03, 0x03, 0xfd, 0x02, 0xeb, 0xfd,
  0x03, 0xf3, 0x03, 0xfa, 0x02, 0x0b, 0x0d, 0xfe, 0x03, 0x04, 0xf6, 0x02,
  0xfe, 0x04, 0xed, 0xfe, 0x07, 0xfb, 0x04, 0x01, 0x04, 0x07, 0x0a, 0xfd,
  0x06, 0xf4, 0xfb, 0xf7, 0x03, 0xfe, 0xf4, 0x06, 0x10, 0x02, 0x05, 0x10,
  0xff, 0x03, 0x0c, 0xfe, 0x08, 0xf5, 0x0b, 0x02, 0x05, 0x00, 0xf9, 0x0b,
  0x0f, 0x05, 0x0a, 0xff, 0x03, 0xf3, 0x08, 0x06, 0x05, 0xfe, 0xfb, 0xf1,
  0xff, 0x02, 0xef, 0x06, 0x02, 0xf3, 0x07, 0x05, 0x01, 0xfa, 0x06, 0x03,
  0x04, 0xf5, 0x09, 0xf8, 0x02, 0x05, 0xed, 0xfe, 0x03, 0xf9, 0x05, 0xf7,
  0xfc, 0xf1, 0x10, 0x04, 0xf9, 0xfd, 0x05, 0xfa, 0xff, 0xfc, 0xf4, 0x05,
  0xfc, 0xf5, 0xf9, 0xf7, 0xde, 0xfd, 0xff, 0xff, 0x04, 0x00, 0x00, 0x00,
  0x20, 0x00, 0x00, 0x00, 0x9b, 0x3a, 0x3a, 0xc0, 0x1b, 0x28, 0xa7, 0xbf,
  0x22, 0x11, 0xde, 0xbf, 0x3f, 0x64, 0xd6, 0xbe, 0xd1, 0x45, 0x0f, 0xc0,
  0x0e, 0x8c, 0x06, 0xc0, 0xbd, 0xb1, 0x13, 0xbf, 0x99, 0x3d, 0xc6, 0xbf,
  0x0a, 0xfe, 0xff, 0xff, 0x04, 0x00, 0x00, 0x00, 0x40, 0x00, 0x00, 0x00,
  0xf1, 0xf3, 0xf5, 0xbe, 0xf3, 0x67, 0xc4, 0x3e, 0x62, 0xba, 0x06, 0xbf,
  0x7e, 0x34, 0xd5, 0xbe, 0x88, 0xc5, 0x57, 0xbf, 0x48, 0x57, 0x5b, 0x40,
  0x72, 0x66, 0x69, 0xbf, 0x47, 0xd1, 0x62, 0xbd, 0x20, 0x7a, 0xec, 0xbf,
  0x58, 0x38, 0x71, 0x3f, 0x41, 0x96, 0x51, 0x3e, 0x33, 0x7f, 0xbb, 0xbe,
  0x35, 0x15, 0xc8, 0xbf, 0x7a, 0x47, 0xd1, 0xbe, 0x43, 0xc0, 0x98, 0xbf,
  0x15, 0xd5, 0xaf, 0xbf, 0x56, 0xfe, 0xff, 0xff, 0x04, 0x00, 0x00, 0x00,
  0x0c, 0x00, 0x00, 0x00, 0x51, 0xf1, 0x06, 0xc0, 0x50, 0xd4, 0x0f, 0xc0,
  0x3c, 0x4f, 0x56, 0x40, 0x6e, 0xfe, 0xff, 0xff, 0x04, 0x00, 0x00, 0x00,
  0xc0, 0x00, 0x00, 0x00, 0x1f, 0x4b, 0x82, 0xbe, 0x56, 0xa3, 0xa6, 0xbe,
  0xe2, 0xab, 0xa3, 0xbe, 0x93, 0x3f, 0x3c, 0x3e, 0x47, 0x22, 0x1f, 0x3e,
  0x4a, 0x65, 0x18, 0x3e, 0xdc, 0x31, 0x2a, 0x3f, 0xbe, 0x40, 0xe1, 0x3d,
  0x78, 0xe2, 0x99, 0xbe, 0x45, 0x17, 0x90, 0x3e, 0xc8, 0xfb, 0xb8, 0x3e,
  0x5f, 0x01, 0xc5, 0xbe, 0x79, 0x94, 0xea, 0xbd, 0xa4, 0xbd, 0x88, 0x3e,
  0x5c, 0x2c, 0xdf, 0xbd, 0x53, 0x2e, 0x82, 0xbe, 0x3b, 0x93, 0x83, 0xbe,
  0xb6, 0xa2, 0xc6, 0x3d, 0xf0, 0x41, 0x8c, 0xbe, 0xa6, 0x36, 0x12, 0x3e,
  0x5b, 0x0c, 0x33, 0xbe, 0x6a, 0xeb, 0x64, 0x3e, 0xcb, 0x1d, 0x8b, 0xbe,
  0x07, 0xf0, 0x17, 0x3e, 0xd1, 0xd5, 0xa8, 0xbe, 0xf0, 0x30, 0x86, 0x3d,
  0x8b, 0x9a, 0xc3, 0x3e, 0x73, 0x85, 0xdc, 0xbe, 0xa3, 0x78, 0xda, 0xbc,
  0x1c, 0xdc, 0x85, 0x3e, 0x09, 0x80, 0xc8, 0xbd, 0xb5, 0x8f, 0x2f, 0xbe,
  0x06, 0x78, 0x67, 0xbe, 0xbe, 0x83, 0x1a, 0x3e, 0x49, 0x03, 0x30, 0xbe,
  0x88, 0x52, 0x0f, 0x3e, 0x14, 0xf5, 0xee, 0xbd, 0xa6, 0x48, 0x3f, 0x3e,
  0x68, 0xe1, 0x75, 0x3c, 0xa5, 0x97, 0xcf, 0x3d, 0xe3, 0x3e, 0xb8, 0xbe,
  0x64, 0x52, 0x5b, 0x3e, 0x51, 0x70, 0xa6, 0x3e, 0x9f, 0xaa, 0xda, 0xbe,
  0xd4, 0x68, 0x08, 0xbe, 0x3c, 0x91, 0xa2, 0x3e, 0x7f, 0x58, 0x37, 0xbe,
  0x96, 0x67, 0x13, 0xbe, 0x3a, 0xff, 0xff, 0xff, 0x04, 0x00, 0x00, 0x00,
  0x40, 0x00, 0x00, 0x00, 0x5e, 0x02, 0xc5, 0xbd, 0x29, 0x64, 0x94, 0xbe,
  0xd5, 0x23, 0x04, 0x3e, 0x1c, 0xe8, 0xfc, 0xbe, 0x98, 0x40, 0xd0, 0x3d,
  0xf3, 0xc3, 0x23, 0xbf, 0x8e, 0x58, 0xf1, 0x3e, 0x0c, 0x86, 0x69, 0xbf,
  0x8f, 0xe3, 0x18, 0xbf, 0xb1, 0x4a, 0xc4, 0x3e, 0x19, 0x2b, 0xea, 0xbe,
  0xc1, 0xa9, 0x4f, 0xbf, 0x18, 0x38, 0xba, 0xbe, 0x08, 0x17, 0x37, 0x40,
  0x10, 0x21, 0x94, 0xbf, 0x21, 0xe6, 0x7f, 0xbd, 0x40, 0xf8, 0xff, 0xff,
  0x0f, 0x00, 0x00, 0x00, 0x54, 0x4f, 0x43, 0x4f, 0x20, 0x43, 0x6f, 0x6e,
  0x76, 0x65, 0x72, 0x74, 0x65, 0x64, 0x2e, 0x00, 0x01, 0x00, 0x00, 0x00,
  0x10, 0x00, 0x00, 0x00, 0x0c, 0x00, 0x14, 0x00, 0x04, 0x00, 0x08, 0x00,
  0x0c, 0x00, 0x10, 0x00, 0x0c, 0x00, 0x00, 0x00, 0x4c, 0x02, 0x00, 0x00,
  0x40, 0x02, 0x00, 0x00, 0x34, 0x02, 0x00, 0x00, 0x04, 0x00, 0x00, 0x00,
  0x07, 0x00, 0x00, 0x00, 0xd4, 0x01, 0x00, 0x00, 0x70, 0x01, 0x00, 0x00,
  0x24, 0x01, 0x00, 0x00, 0xc4, 0x00, 0x00, 0x00, 0x88, 0x00, 0x00, 0x00,
  0x40, 0x00, 0x00, 0x00, 0x04, 0x00, 0x00, 0x00, 0x56, 0xfe, 0xff, 0xff,
  0x00, 0x00, 0x00, 0x09, 0x04, 0x00, 0x00, 0x00, 0x24, 0x00, 0x00, 0x00,
  0x18, 0x00, 0x00, 0x00, 0x0c, 0x00, 0x00, 0x00, 0x00, 0x00, 0x06, 0x00,
  0x08, 0x00, 0x04, 0x00, 0x06, 0x00, 0x00, 0x00, 0x00, 0x00, 0x80, 0x3f,
  0x01, 0x00, 0x00, 0x00, 0x00, 0x00, 0x00, 0x00, 0x01, 0x00, 0x00, 0x00,
  0x0b, 0x00, 0x00, 0x00, 0xca, 0xff, 0xff, 0xff, 0x00, 0x00, 0x00, 0x08,
  0x02, 0x00, 0x00, 0x00, 0x18, 0x00, 0x00, 0x00, 0x0c, 0x00, 0x00, 0x00,
  0x04, 0x00, 0x00, 0x00, 0xf0, 0xf8, 0xff, 0xff, 0x01, 0x00, 0x00, 0x00,
  0x0b, 0x00, 0x00, 0x00, 0x03, 0x00, 0x00, 0x00, 0x0a, 0x00, 0x00, 0x00,
  0x0c, 0x00, 0x00, 0x00, 0x0d, 0x00, 0x00, 0x00, 0x00, 0x00, 0x0e, 0x00,
  0x18, 0x00, 0x08, 0x00, 0x0c, 0x00, 0x10, 0x00, 0x07, 0x00, 0x14, 0x00,
  0x0e, 0x00, 0x00, 0x00, 0x00, 0x00, 0x00, 0x08, 0x02, 0x00, 0x00, 0x00,
  0x1c, 0x00, 0x00, 0x00, 0x10, 0x00, 0x00, 0x00, 0x04, 0x00, 0x00, 0x00,
  0xf6, 0xf8, 0xff, 0xff, 0x00, 0x00, 0x00, 0x01, 0x01, 0x00, 0x00, 0x00,
  0x0a, 0x00, 0x00, 0x00, 0x03, 0x00, 0x00, 0x00, 0x0f, 0x00, 0x00, 0x00,
  0x08, 0x00, 0x00, 0x00, 0x09, 0x00, 0x00, 0x00, 0x0a, 0xff, 0xff, 0xff,
  0x00, 0x00, 0x00, 0x05, 0x03, 0x00, 0x00, 0x00, 0x38, 0x00, 0x00, 0x00,
  0x2c, 0x00, 0x00, 0x00, 0x14, 0x00, 0x00, 0x00, 0x00, 0x00, 0x0e, 0x00,
  0x14, 0x00, 0x00, 0x00, 0x04, 0x00, 0x08, 0x00, 0x0c, 0x00, 0x10, 0x00,
  0x0e, 0x00, 0x00, 0x00, 0x01, 0x00, 0x00, 0x00, 0x03, 0x00, 0x00, 0x00,
  0x01, 0x00, 0x00, 0x00, 0x03, 0x00, 0x00, 0x00, 0x01, 0x00, 0x00, 0x00,
  0x0f, 0x00, 0x00, 0x00, 0x01, 0x00, 0x00, 0x00, 0x07, 0x00, 0x00, 0x00,
  0x00, 0x00, 0x0e, 0x00, 0x14, 0x00, 0x00, 0x00, 0x08, 0x00, 0x0c, 0x00,
  0x07, 0x00, 0x10, 0x00, 0x0e, 0x00, 0x00, 0x00, 0x00, 0x00, 0x00, 0x01,
  0x30, 0x00, 0x00, 0x00, 0x24, 0x00, 0x00, 0x00, 0x10, 0x00, 0x00, 0x00,
  0x0c, 0x00, 0x10, 0x00, 0x00, 0x00, 0x08, 0x00, 0x0c, 0x00, 0x07, 0x00,
  0x0c, 0x00, 0x00, 0x00, 0x00, 0x00, 0x00, 0x01, 0x01, 0x00, 0x00, 0x00,
  0x01, 0x00, 0x00, 0x00, 0x01, 0x00, 0x00, 0x00, 0x07, 0x00, 0x00, 0x00,
  0x03, 0x00, 0x00, 0x00, 0x0e, 0x00, 0x00, 0x00, 0x05, 0x00, 0x00, 0x00,
  0x06, 0x00, 0x00, 0x00, 0xae, 0xff, 0xff, 0xff, 0x00, 0x00, 0x00, 0x05,
  0x03, 0x00, 0x00, 0x00, 0x3c, 0x00, 0x00, 0x00, 0x30, 0x00, 0x00, 0x00,
  0x14, 0x00, 0x00, 0x00, 0x00, 0x00, 0x0e, 0x00, 0x18, 0x00, 0x07, 0x00,
  0x08, 0x00, 0x0c, 0x00, 0x10, 0x00, 0x14, 0x00, 0x0e, 0x00, 0x00, 0x00,
  0x00, 0x00, 0x00, 0x01, 0x03, 0x00, 0x00, 0x00, 0x03, 0x00, 0x00, 0x00,
  0x03, 0x00, 0x00, 0x00, 0x03, 0x00, 0x00, 0x00, 0x01, 0x00, 0x00, 0x00,
  0x0e, 0x00, 0x00, 0x00, 0x01, 0x00, 0x00, 0x00, 0x04, 0x00, 0x00, 0x00,
  0x00, 0x00, 0x0e, 0x00, 0x1a, 0x00, 0x08, 0x00, 0x0c, 0x00, 0x10, 0x00,
  0x07, 0x00, 0x14, 0x00, 0x0e, 0x00, 0x00, 0x00, 0x00, 0x00, 0x00, 0x02,
  0x01, 0x00, 0x00, 0x00, 0x38, 0x00, 0x00, 0x00, 0x2c, 0x00, 0x00, 0x00,
  0x14, 0x00, 0x00, 0x00, 0x00, 0x00, 0x0e, 0x00, 0x14, 0x00, 0x00, 0x00,
  0x08, 0x00, 0x0c, 0x00, 0x10, 0x00, 0x07, 0x00, 0x0e, 0x00, 0x00, 0x00,
  0x00, 0x00, 0x00, 0x01, 0x01, 0x00, 0x00, 0x00, 0x01, 0x00, 0x00, 0x00,
  0x08, 0x00, 0x00, 0x00, 0x01, 0x00, 0x00, 0x00, 0x04, 0x00, 0x00, 0x00,
  0x03, 0x00, 0x00, 0x00, 0x01, 0x00, 0x00, 0x00, 0x02, 0x00, 0x00, 0x00,
  0x03, 0x00, 0x00, 0x00, 0x01, 0x00, 0x00, 0x00, 0x00, 0x00, 0x00, 0x00,
  0x01, 0x00, 0x00, 0x00, 0x01, 0x00, 0x00, 0x00, 0x10, 0x00, 0x00, 0x00,
  0x2c, 0x05, 0x00, 0x00, 0xb8, 0x04, 0x00, 0x00, 0x5c, 0x04, 0x00, 0x00,
  0x14, 0x04, 0x00, 0x00, 0xc8, 0x03, 0x00, 0x00, 0x68, 0x03, 0x00, 0x00,
  0x20, 0x03, 0x00, 0x00, 0xd0, 0x02, 0x00, 0x00, 0x40, 0x02, 0x00, 0x00,
  0xe8, 0x01, 0x00, 0x00, 0xa4, 0x01, 0x00, 0x00, 0x5c, 0x01, 0x00, 0x00,
  0xfc, 0x00, 0x00, 0x00, 0xb4, 0x00, 0x00, 0x00, 0x5c, 0x00, 0x00, 0x00,
  0x04, 0x00, 0x00, 0x00, 0x22, 0xfb, 0xff, 0xff, 0x3c, 0x00, 0x00, 0x00,
  0x0a, 0x00, 0x00, 0x00, 0x0c, 0x00, 0x00, 0x00, 0x04, 0x00, 0x00, 0x00,
  0x14, 0xfb, 0xff, 0xff, 0x22, 0x00, 0x00, 0x00, 0x73, 0x65, 0x71, 0x75,
  0x65, 0x6e, 0x74, 0x69, 0x61, 0x6c, 0x2f, 0x6d, 0x61, 0x78, 0x5f, 0x70,
  0x6f, 0x6f, 0x6c, 0x69, 0x6e, 0x67, 0x32, 0x64, 0x5f, 0x31, 0x2f, 0x4d,
  0x61, 0x78, 0x50, 0x6f, 0x6f, 0x6c, 0x00, 0x00, 0x04, 0x00, 0x00, 0x00,
  0x01, 0x00, 0x00, 0x00, 0x07, 0x00, 0x00, 0x00, 0x01, 0x00, 0x00, 0x00,
  0x10, 0x00, 0x00, 0x00, 0x76, 0xfb, 0xff, 0xff, 0x3c, 0x00, 0x00, 0x00,
  0x10, 0x00, 0x00, 0x00, 0x0c, 0x00, 0x00, 0x00, 0x04, 0x00, 0x00, 0x00,
  0x68, 0xfb, 0xff, 0xff, 0x20, 0x00, 0x00, 0x00, 0x73, 0x65, 0x71, 0x75,
  0x65, 0x6e, 0x74, 0x69, 0x61, 0x6c, 0x2f, 0x6d, 0x61, 0x78, 0x5f, 0x70,
  0x6f, 0x6f, 0x6c, 0x69, 0x6e, 0x67, 0x32, 0x64, 0x2f, 0x4d, 0x61, 0x78,
  0x50, 0x6f, 0x6f, 0x6c, 0x00, 0x00, 0x00, 0x00, 0x04, 0x00, 0x00, 0x00,
  0x01, 0x00, 0x00, 0x00, 0x15, 0x00, 0x00, 0x00, 0x01, 0x00, 0x00, 0x00,
  0x08, 0x00, 0x00, 0x00, 0xca, 0xfb, 0xff, 0xff, 0x38, 0x00, 0x00, 0x00,
  0x03, 0x00, 0x00, 0x00, 0x0c, 0x00, 0x00, 0x00, 0x04, 0x00, 0x00, 0x00,
  0xbc, 0xfb, 0xff, 0xff, 0x1e, 0x00, 0x00, 0x00, 0x73, 0x65, 0x71, 0x75,
  0x65, 0x6e, 0x74, 0x69, 0x61, 0x6c, 0x2f, 0x64, 0x65, 0x6e, 0x73, 0x65,
  0x5f, 0x31, 0x2f, 0x4d, 0x61, 0x74, 0x4d, 0x75, 0x6c, 0x5f, 0x62, 0x69,
  0x61, 0x73, 0x00, 0x00, 0x01, 0x00, 0x00, 0x00, 0x03, 0x00, 0x00, 0x00,
  0x0e, 0xfc, 0xff, 0xff, 0x4c, 0x00, 0x00, 0x00, 0x02, 0x00, 0x00, 0x00,
  0x0c, 0x00, 0x00, 0x00, 0x04, 0x00, 0x00, 0x00, 0x00, 0xfc, 0xff, 0xff,
  0x32, 0x00, 0x00, 0x00, 0x73, 0x65, 0x71, 0x75, 0x65, 0x6e, 0x74, 0x69,
  0x61, 0x6c, 0x2f, 0x64, 0x65, 0x6e, 0x73, 0x65, 0x5f, 0x31, 0x2f, 0x4d,
  0x61, 0x74, 0x4d, 0x75, 0x6c, 0x2f, 0x52, 0x65, 0x61, 0x64, 0x56, 0x61,
  0x72, 0x69, 0x61, 0x62, 0x6c, 0x65, 0x4f, 0x70, 0x2f, 0x74, 0x72, 0x61,
  0x6e, 0x73, 0x70, 0x6f, 0x73, 0x65, 0x00, 0x00, 0x02, 0x00, 0x00, 0x00,
  0x03, 0x00, 0x00, 0x00, 0x10, 0x00, 0x00, 0x00, 0x6a, 0xfc, 0xff, 0xff,
  0x34, 0x00, 0x00, 0x00, 0x08, 0x00, 0x00, 0x00, 0x0c, 0x00, 0x00, 0x00,
  0x04, 0x00, 0x00, 0x00, 0x5c, 0xfc, 0xff, 0xff, 0x1a, 0x00, 0x00, 0x00,
  0x73, 0x65, 0x71, 0x75, 0x65, 0x6e, 0x74, 0x69, 0x61, 0x6c, 0x2f, 0x64,
  0x65, 0x6e, 0x73, 0x65, 0x5f, 0x31, 0x2f, 0x42, 0x69, 0x61, 0x73, 0x41,
  0x64, 0x64, 0x00, 0x00, 0x02, 0x00, 0x00, 0x00, 0x01, 0x00, 0x00, 0x00,
  0x03, 0x00, 0x00, 0x00, 0xae, 0xfc, 0xff, 0xff, 0x30, 0x00, 0x00, 0x00,
  0x09, 0x00, 0x00, 0x00, 0x0c, 0x00, 0x00, 0x00, 0x04, 0x00, 0x00, 0x00,
  0xa0, 0xfc, 0xff, 0xff, 0x15, 0x00, 0x00, 0x00, 0x73, 0x65, 0x71, 0x75,
  0x65, 0x6e, 0x74, 0x69, 0x61, 0x6c, 0x2f, 0x64, 0x65, 0x6e, 0x73, 0x65,
  0x2f, 0x52, 0x65, 0x6c, 0x75, 0x00, 0x00, 0x00, 0x02, 0x00, 0x00, 0x00,
  0x01, 0x00, 0x00, 0x00, 0x10, 0x00, 0x00, 0x00, 0xee, 0xfc, 0xff, 0xff,
  0x38, 0x00, 0x00, 0x00, 0x01, 0x00, 0x00, 0x00, 0x0c, 0x00, 0x00, 0x00,
  0x04, 0x00, 0x00, 0x00, 0xe0, 0xfc, 0xff, 0xff, 0x1c, 0x00, 0x00, 0x00,
  0x73, 0x65, 0x71, 0x75, 0x65, 0x6e, 0x74, 0x69, 0x61, 0x6c, 0x2f, 0x64,
  0x65, 0x6e, 0x73, 0x65, 0x2f, 0x4d, 0x61, 0x74, 0x4d, 0x75, 0x6c, 0x5f,
  0x62, 0x69, 0x61, 0x73, 0x00, 0x00, 0x00, 0x00, 0x01, 0x00, 0x00, 0x00,
  0x10, 0x00, 0x00, 0x00, 0x00, 0x00, 0x0e, 0x00, 0x18, 0x00, 0x08, 0x00,
  0x07, 0x00, 0x0c, 0x00, 0x10, 0x00, 0x14, 0x00, 0x0e, 0x00, 0x00, 0x00,
  0x00, 0x00, 0x00, 0x09, 0x78, 0x00, 0x00, 0x00, 0x06, 0x00, 0x00, 0x00,
  0x38, 0x00, 0x00, 0x00, 0x10, 0x00, 0x00, 0x00, 0x0c, 0x00, 0x0c, 0x00,
  0x00, 0x00, 0x00, 0x00, 0x04, 0x00, 0x08, 0x00, 0x0c, 0x00, 0x00, 0x00,
  0x18, 0x00, 0x00, 0x00, 0x04, 0x00, 0x00, 0x00, 0x01, 0x00, 0x00, 0x00,
  0x00, 0x00, 0x00, 0x00, 0x00, 0x00, 0x00, 0x00, 0x00, 0x00, 0x00, 0x00,
  0x01, 0x00, 0x00, 0x00, 0x52, 0x70, 0xb2, 0x3c, 0x30, 0x00, 0x00, 0x00,
  0x73, 0x65, 0x71, 0x75, 0x65, 0x6e, 0x74, 0x69, 0x61, 0x6c, 0x2f, 0x64,
  0x65, 0x6e, 0x73, 0x65, 0x2f, 0x4d, 0x61, 0x74, 0x4d, 0x75, 0x6c, 0x2f,
  0x52, 0x65, 0x61, 0x64, 0x56, 0x61, 0x72, 0x69, 0x61, 0x62, 0x6c, 0x65,
  0x4f, 0x70, 0x2f, 0x74, 0x72, 0x61, 0x6e, 0x73, 0x70, 0x6f, 0x73, 0x65,
  0x00, 0x00, 0x00, 0x00, 0x02, 0x00, 0x00, 0x00, 0x10, 0x00, 0x00, 0x00,
  0x70, 0x00, 0x00, 0x00, 0xce, 0xfd, 0xff, 0xff, 0x34, 0x00, 0x00, 0x00,
  0x0b, 0x00, 0x00, 0x00, 0x0c, 0x00, 0x00, 0x00, 0x04, 0x00, 0x00, 0x00,
  0xc0, 0xfd, 0xff, 0xff, 0x18, 0x00, 0x00, 0x00, 0x73, 0x65, 0x71, 0x75,
  0x65, 0x6e, 0x74, 0x69, 0x61, 0x6c, 0x2f, 0x63, 0x6f, 0x6e, 0x76, 0x32,
  0x64, 0x5f, 0x31, 0x2f, 0x52, 0x65, 0x6c, 0x75, 0x00, 0x00, 0x00, 0x00,
  0x04, 0x00, 0x00, 0x00, 0x01, 0x00, 0x00, 0x00, 0x15, 0x00, 0x00, 0x00,
  0x01, 0x00, 0x00, 0x00, 0x10, 0x00, 0x00, 0x00, 0x1a, 0xfe, 0xff, 0xff,
  0x38, 0x00, 0x00, 0x00, 0x04, 0x00, 0x00, 0x00, 0x0c, 0x00, 0x00, 0x00,
  0x04, 0x00, 0x00, 0x00, 0x0c, 0xfe, 0xff, 0xff, 0x1f, 0x00, 0x00, 0x00,
  0x73, 0x65, 0x71, 0x75, 0x65, 0x6e, 0x74, 0x69, 0x61, 0x6c, 0x2f, 0x63,
  0x6f, 0x6e, 0x76, 0x32, 0x64, 0x5f, 0x31, 0x2f, 0x43, 0x6f, 0x6e, 0x76,
  0x32, 0x44, 0x5f, 0x62, 0x69, 0x61, 0x73, 0x00, 0x01, 0x00, 0x00, 0x00,
  0x10, 0x00, 0x00, 0x00, 0x5e, 0xfe, 0xff, 0xff, 0x44, 0x00, 0x00, 0x00,
  0x0d, 0x00, 0x00, 0x00, 0x0c, 0x00, 0x00, 0x00, 0x04, 0x00, 0x00, 0x00,
  0x50, 0xfe, 0xff, 0xff, 0x29, 0x00, 0x00, 0x00, 0x73, 0x65, 0x71, 0x75,
  0x65, 0x6e, 0x74, 0x69, 0x61, 0x6c, 0x2f, 0x63, 0x6f, 0x6e, 0x76, 0x32,
  0x64, 0x5f, 0x31, 0x2f, 0x43, 0x6f, 0x6e, 0x76, 0x32, 0x44, 0x2f, 0x52,
  0x65, 0x61, 0x64, 0x56, 0x61, 0x72, 0x69, 0x61, 0x62, 0x6c, 0x65, 0x4f,
  0x70, 0x00, 0x00, 0x00, 0x04, 0x00, 0x00, 0x00, 0x10, 0x00, 0x00, 0x00,
  0x04, 0x00, 0x00, 0x00, 0x01, 0x00, 0x00, 0x00, 0x08, 0x00, 0x00, 0x00,
  0xba, 0xfe, 0xff, 0xff, 0x30, 0x00, 0x00, 0x00, 0x0f, 0x00, 0x00, 0x00,
  0x0c, 0x00, 0x00, 0x00, 0x04, 0x00, 0x00, 0x00, 0xac, 0xfe, 0xff, 0xff,
  0x16, 0x00, 0x00, 0x00, 0x73, 0x65, 0x71, 0x75, 0x65, 0x6e, 0x74, 0x69,
  0x61, 0x6c, 0x2f, 0x63, 0x6f, 0x6e, 0x76, 0x32, 0x64, 0x2f, 0x52, 0x65,
  0x6c, 0x75, 0x00, 0x00, 0x04, 0x00, 0x00, 0x00, 0x01, 0x00, 0x00, 0x00,
  0x40, 0x00, 0x00, 0x00, 0x03, 0x00, 0x00, 0x00, 0x08, 0x00, 0x00, 0x00,
  0x02, 0xff, 0xff, 0xff, 0x38, 0x00, 0x00, 0x00, 0x05, 0x00, 0x00, 0x00,
  0x0c, 0x00, 0x00, 0x00, 0x04, 0x00, 0x00, 0x00, 0xf4, 0xfe, 0xff, 0xff,
  0x1d, 0x00, 0x00, 0x00, 0x73, 0x65, 0x71, 0x75, 0x65, 0x6e, 0x74, 0x69,
  0x61, 0x6c, 0x2f, 0x63, 0x6f, 0x6e, 0x76, 0x32, 0x64, 0x2f, 0x43, 0x6f,
  0x6e, 0x76, 0x32, 0x44, 0x5f, 0x62, 0x69, 0x61, 0x73, 0x00, 0x00, 0x00,
  0x01, 0x00, 0x00, 0x00, 0x08, 0x00, 0x00, 0x00, 0x46, 0xff, 0xff, 0xff,
  0x40, 0x00, 0x00, 0x00, 0x0e, 0x00, 0x00, 0x00, 0x0c, 0x00, 0x00, 0x00,
  0x04, 0x00, 0x00, 0x00, 0x38, 0xff, 0xff, 0xff, 0x27, 0x00, 0x00, 0x00,
  0x73, 0x65, 0x71, 0x75, 0x65, 0x6e, 0x74, 0x69, 0x61, 0x6c, 0x2f, 0x63,
  0x6f, 0x6e, 0x76, 0x32, 0x64, 0x2f, 0x43, 0x6f, 0x6e, 0x76, 0x32, 0x44,
  0x2f, 0x52, 0x65, 0x61, 0x64, 0x56, 0x61, 0x72, 0x69, 0x61, 0x62, 0x6c,
  0x65, 0x4f, 0x70, 0x00, 0x04, 0x00, 0x00, 0x00, 0x01, 0x00, 0x00, 0x00,
  0x04, 0x00, 0x00, 0x00, 0x03, 0x00, 0x00, 0x00, 0x08, 0x00, 0x00, 0x00,
  0x9e, 0xff, 0xff, 0xff, 0x48, 0x00, 0x00, 0x00, 0x0c, 0x00, 0x00, 0x00,
  0x2c, 0x00, 0x00, 0x00, 0x0c, 0x00, 0x00, 0x00, 0x08, 0x00, 0x0c, 0x00,
  0x04, 0x00, 0x08, 0x00, 0x08, 0x00, 0x00, 0x00, 0x10, 0x00, 0x00, 0x00,
  0x04, 0x00, 0x00, 0x00, 0x01, 0x00, 0x00, 0x00, 0x00, 0x00, 0x7f, 0x43,
  0x01, 0x00, 0x00, 0x00, 0x00, 0x00, 0x00, 0x00, 0x0c, 0x00, 0x00, 0x00,
  0x63, 0x6f, 0x6e, 0x76, 0x32, 0x64, 0x5f, 0x69, 0x6e, 0x70, 0x75, 0x74,
  0x00, 0x00, 0x00, 0x00, 0x04, 0x00, 0x00, 0x00, 0x01, 0x00, 0x00, 0x00,
  0x40, 0x00, 0x00, 0x00, 0x03, 0x00, 0x00, 0x00, 0x01, 0x00, 0x00, 0x00,
  0x00, 0x00, 0x0e, 0x00, 0x14, 0x00, 0x04, 0x00, 0x00, 0x00, 0x08, 0x00,
  0x0c, 0x00, 0x10, 0x00, 0x0e, 0x00, 0x00, 0x00, 0x28, 0x00, 0x00, 0x00,
  0x07, 0x00, 0x00, 0x00, 0x10, 0x00, 0x00, 0x00, 0x08, 0x00, 0x00, 0x00,
  0x04, 0x00, 0x04, 0x00, 0x04, 0x00, 0x00, 0x00, 0x08, 0x00, 0x00, 0x00,
  0x49, 0x64, 0x65, 0x6e, 0x74, 0x69, 0x74, 0x79, 0x00, 0x00, 0x00, 0x00,
  0x02, 0x00, 0x00, 0x00, 0x01, 0x00, 0x00, 0x00, 0x03, 0x00, 0x00, 0x00,
  0x05, 0x00, 0x00, 0x00, 0x58, 0x00, 0x00, 0x00, 0x44, 0x00, 0x00, 0x00,
  0x2c, 0x00, 0x00, 0x00, 0x18, 0x00, 0x00, 0x00, 0x0c, 0x00, 0x00, 0x00,
  0x00, 0x00, 0x06, 0x00, 0x08, 0x00, 0x07, 0x00, 0x06, 0x00, 0x00, 0x00,
  0x00, 0x00, 0x00, 0x19, 0xe2, 0xff, 0xff, 0xff, 0x00, 0x11, 0x0a, 0x00,
  0x0e, 0x00, 0x07, 0x00, 0x00, 0x00, 0x08, 0x00, 0x0a, 0x00, 0x00, 0x00,
  0x00, 0x00, 0x00, 0x09, 0x03, 0x00, 0x00, 0x00, 0x00, 0x00, 0x06, 0x00,
  0x06, 0x00, 0x05, 0x00, 0x06, 0x00, 0x00, 0x00, 0x00, 0x04, 0x0a, 0x00,
  0x0c, 0x00, 0x07, 0x00, 0x00, 0x00, 0x08, 0x00, 0x0a, 0x00, 0x00, 0x00,
  0x00, 0x00, 0x00, 0x03, 0x02, 0x00, 0x00, 0x00
};

unsigned int model_tflite_len = 7040;// Fill the int in `src/model.cc` here