#include "magic_wand_model_data.h"

// We need to keep the data array aligned on some architectures.
#ifdef __has_attribute
#define HAVE_ATTRIBUTE(x) __has_attribute(x)
#else
#define HAVE_ATTRIBUTE(x) 0
#endif
#if HAVE_ATTRIBUTE(aligned) || (defined(__GNUC__) && !defined(__clang__))
#define DATA_ALIGN_ATTRIBUTE __attribute__((aligned(4)))
#else
#define DATA_ALIGN_ATTRIBUTE
#endif

const unsigned char g_magic_wand_model_data[] DATA_ALIGN_ATTRIBUTE = {
  // Paste the data of the char array in `src/model.cc` here
  0x08, 0x00, 0x00, 0x00, 0x54, 0x46, 0x4c, 0x33, 0x62, 0xff, 0xff, 0xff,
  0x03, 0x00, 0x00, 0x00, 0x10, 0x00, 0x00, 0x00, 0x24, 0x00, 0x00, 0x00,
  0x78, 0x00, 0x00, 0x00, 0x24, 0x00, 0x00, 0x00, 0x05, 0x00, 0x00, 0x00,
  0x78, 0x05, 0x00, 0x00, 0xb0, 0x04, 0x00, 0x00, 0xe0, 0x02, 0x00, 0x00,
  0x60, 0x02, 0x00, 0x00, 0x54, 0x01, 0x00, 0x00, 0x01, 0x00, 0x00, 0x00,
  0x78, 0x00, 0x00, 0x00, 0x13, 0x00, 0x00, 0x00, 0x18, 0x30, 0x00, 0x00,
  0x14, 0x30, 0x00, 0x00, 0x20, 0x2f, 0x00, 0x00, 0xa8, 0x2e, 0x00, 0x00,
  0x3c, 0x2e, 0x00, 0x00, 0xec, 0x11, 0x00, 0x00, 0x98, 0x10, 0x00, 0x00,
  0xbc, 0x0e, 0x00, 0x00, 0x60, 0x06, 0x00, 0x00, 0xfc, 0x05, 0x00, 0x00,
  0x78, 0x05, 0x00, 0x00, 0xec, 0x2f, 0x00, 0x00, 0xe8, 0x2f, 0x00, 0x00,
  0xe4, 0x2f, 0x00, 0x00, 0xe0, 0x2f, 0x00, 0x00, 0xdc, 0x2f, 0x00, 0x00,
  0xd8, 0x2f, 0x00, 0x00, 0xd4, 0x2f, 0x00, 0x00, 0xd0, 0x2f, 0x00, 0x00,
  0x0f, 0x00, 0x00, 0x00, 0x4d, 0x4c, 0x49, 0x52, 0x20, 0x43, 0x6f, 0x6e,
  0x76, 0x65, 0x72, 0x74, 0x65, 0x64, 0x2e, 0x00, 0x00, 0x00, 0x0e, 0x00,
  0x18, 0x00, 0x04, 0x00, 0x08, 0x00, 0x0c, 0x00, 0x10, 0x00, 0x14, 0x00,
  0x0e, 0x00, 0x00, 0x00, 0x14, 0x00, 0x00, 0x00, 0x5c, 0x00, 0x00, 0x00,
  0x60, 0x00, 0x00, 0x00, 0x64, 0x00, 0x00, 0x00, 0x84, 0x00, 0x00, 0x00,
  0x12, 0x00, 0x00, 0x00, 0x48, 0x2f, 0x00, 0x00, 0xe4, 0x2e, 0x00, 0x00,
  0x3c, 0x2e, 0x00, 0x00, 0xd8, 0x2d, 0x00, 0x00, 0x70, 0x2d, 0x00, 0x00,
  0x1c, 0x11, 0x00, 0x00, 0xc0, 0x0f, 0x00, 0x00, 0xe4, 0x0d, 0x00, 0x00,
  0xa0, 0x05, 0x00, 0x00, 0x3c, 0x05, 0x00, 0x00, 0xb0, 0x04, 0x00, 0x00,
  0xe8, 0x03, 0x00, 0x00, 0x38, 0x03, 0x00, 0x00, 0xa4, 0x02, 0x00, 0x00,
  0x10, 0x02, 0x00, 0x00, 0x90, 0x01, 0x00, 0x00, 0xfc, 0x00, 0x00, 0x00,
  0x80, 0x00, 0x00, 0x00, 0x01, 0x00, 0x00, 0x00, 0x00, 0x00, 0x00, 0x00,
  0x01, 0x00, 0x00, 0x00, 0x11, 0x00, 0x00, 0x00, 0x08, 0x00, 0x00, 0x00,
  0x1c, 0x04, 0x00, 0x00, 0x58, 0x03, 0x00, 0x00, 0xc8, 0x02, 0x00, 0x00,
  0x24, 0x02, 0x00, 0x00, 0xac, 0x01, 0x00, 0x00, 0x10, 0x01, 0x00, 0x00,
  0x94, 0x00, 0x00, 0x00, 0x10, 0x00, 0x00, 0x00, 0x04, 0x00, 0x00, 0x00,
  0x6d, 0x61, 0x69, 0x6e, 0x00, 0x00, 0x00, 0x00, 0x8e, 0xff, 0xff, 0xff,
  0x00, 0x00, 0x00, 0x09, 0x04, 0x00, 0x00, 0x00, 0x1c, 0x00, 0x00, 0x00,
  0x10, 0x00, 0x00, 0x00, 0x04, 0x00, 0x00, 0x00, 0x0a, 0xd2, 0xff, 0xff,
  0x00, 0x00, 0x80, 0x3f, 0x01, 0x00, 0x00, 0x00, 0x11, 0x00, 0x00, 0x00,
  0x01, 0x00, 0x00, 0x00, 0x10, 0x00, 0x00, 0x00, 0xf6, 0xfb, 0xff, 0xff,
  0x00, 0x00, 0x00, 0x19, 0x01, 0x00, 0x00, 0x00, 0x8a, 0xd1, 0xff, 0xff,
  0x10, 0x00, 0x00, 0x00, 0x12, 0x00, 0x00, 0x00, 0x14, 0x00, 0x00, 0x00,
  0x20, 0x00, 0x00, 0x00, 0x02, 0x00, 0x00, 0x00, 0x01, 0x00, 0x00, 0x00,
  0x04, 0x00, 0x00, 0x00, 0x08, 0x00, 0x00, 0x00, 0x49, 0x64, 0x65, 0x6e,
  0x74, 0x69, 0x74, 0x79, 0x00, 0x00, 0x00, 0x00, 0xc4, 0xd1, 0xff, 0xff,
  0x00, 0x00, 0x0e, 0x00, 0x18, 0x00, 0x08, 0x00, 0x0c, 0x00, 0x10, 0x00,
  0x07, 0x00, 0x14, 0x00, 0x0e, 0x00, 0x00, 0x00, 0x00, 0x00, 0x00, 0x08,
  0x03, 0x00, 0x00, 0x00, 0x18, 0x00, 0x00, 0x00, 0x0c, 0x00, 0x00, 0x00,
  0x04, 0x00, 0x00, 0x00, 0x98, 0xd1, 0xff, 0xff, 0x01, 0x00, 0x00, 0x00,
  0x10, 0x00, 0x00, 0x00, 0x03, 0x00, 0x00, 0x00, 0x0f, 0x00, 0x00, 0x00,
  0x05, 0x00, 0x00, 0x00, 0x02, 0x00, 0x00, 0x00, 0x02, 0xd2, 0xff, 0xff,
  0x10, 0x00, 0x00, 0x00, 0x11, 0x00, 0x00, 0x00, 0x14, 0x00, 0x00, 0x00,
  0x30, 0x00, 0x00, 0x00, 0x02, 0x00, 0x00, 0x00, 0x01, 0x00, 0x00, 0x00,
  0x04, 0x00, 0x00, 0x00, 0x1a, 0x00, 0x00, 0x00, 0x73, 0x65, 0x71, 0x75,
  0x65, 0x6e, 0x74, 0x69, 0x61, 0x6c, 0x2f, 0x64, 0x65, 0x6e, 0x73, 0x65,
  0x5f, 0x31, 0x2f, 0x42, 0x69, 0x61, 0x73, 0x41, 0x64, 0x64, 0x00, 0x00,
  0xf4, 0xd1, 0xff, 0xff, 0xd6, 0xfd, 0xff, 0xff, 0x00, 0x00, 0x00, 0x08,
  0x03, 0x00, 0x00, 0x00, 0x24, 0x00, 0x00, 0x00, 0x18, 0x00, 0x00, 0x00,
  0x0c, 0x00, 0x00, 0x00, 0x00, 0x00, 0x06, 0x00, 0x08, 0x00, 0x07, 0x00,
  0x06, 0x00, 0x00, 0x00, 0x00, 0x00, 0x00, 0x01, 0x01, 0x00, 0x00, 0x00,
  0x0f, 0x00, 0x00, 0x00, 0x03, 0x00, 0x00, 0x00, 0x0e, 0x00, 0x00, 0x00,
  0x04, 0x00, 0x00, 0x00, 0x01, 0x00, 0x00, 0x00, 0xfe, 0xfc, 0xff, 0xff,
  0x00, 0x00, 0x00, 0x09, 0x01, 0x00, 0x00, 0x00, 0x92, 0xd2, 0xff, 0xff,
  0x10, 0x00, 0x00, 0x00, 0x10, 0x00, 0x00, 0x00, 0x14, 0x00, 0x00, 0x00,
  0x2c, 0x00, 0x00, 0x00, 0x02, 0x00, 0x00, 0x00, 0x01, 0x00, 0x00, 0x00,
  0x10, 0x00, 0x00, 0x00, 0x15, 0x00, 0x00, 0x00, 0x73, 0x65, 0x71, 0x75,
  0x65, 0x6e, 0x74, 0x69, 0x61, 0x6c, 0x2f, 0x64, 0x65, 0x6e, 0x73, 0x65,
  0x2f, 0x52, 0x65, 0x6c, 0x75, 0x00, 0x00, 0x00, 0xd8, 0xd2, 0xff, 0xff,
  0x00, 0x00, 0x0a, 0x00, 0x10, 0x00, 0x04, 0x00, 0x08, 0x00, 0x0c, 0x00,
  0x0a, 0x00, 0x00, 0x00, 0x02, 0x00, 0x00, 0x00, 0x10, 0x00, 0x00, 0x00,
  0x04, 0x00, 0x00, 0x00, 0x01, 0x00, 0x00, 0x00, 0x0e, 0x00, 0x00, 0x00,
  0x02, 0x00, 0x00, 0x00, 0x0d, 0x00, 0x00, 0x00, 0x03, 0x00, 0x00, 0x00,
  0x7a, 0xfd, 0xff, 0xff, 0x00, 0x00, 0x00, 0x16, 0x01, 0x00, 0x00, 0x00,
  0x0e, 0xd3, 0xff, 0xff, 0x10, 0x00, 0x00, 0x00, 0x0f, 0x00, 0x00, 0x00,
  0x14, 0x00, 0x00, 0x00, 0x30, 0x00, 0x00, 0x00, 0x02, 0x00, 0x00, 0x00,
  0x01, 0x00, 0x00, 0x00, 0x70, 0x00, 0x00, 0x00, 0x1a, 0x00, 0x00, 0x00,
  0x73, 0x65, 0x71, 0x75, 0x65, 0x6e, 0x74, 0x69, 0x61, 0x6c, 0x2f, 0x66,
  0x6c, 0x61, 0x74, 0x74, 0x65, 0x6e, 0x2f, 0x52, 0x65, 0x73, 0x68, 0x61,
  0x70, 0x65, 0x00, 0x00, 0x00, 0xd3, 0xff, 0xff, 0xe2, 0xfe, 0xff, 0xff,
  0x00, 0x00, 0x00, 0x05, 0x01, 0x00, 0x00, 0x00, 0x38, 0x00, 0x00, 0x00,
  0x2c, 0x00, 0x00, 0x00, 0x14, 0x00, 0x00, 0x00, 0x00, 0x00, 0x0e, 0x00,
  0x14, 0x00, 0x00, 0x00, 0x10, 0x00, 0x0c, 0x00, 0x08, 0x00, 0x04, 0x00,
  0x0e, 0x00, 0x00, 0x00, 0x03, 0x00, 0x00, 0x00, 0x01, 0x00, 0x00, 0x00,
  0x03, 0x00, 0x00, 0x00, 0x01, 0x00, 0x00, 0x00, 0x01, 0x00, 0x00, 0x00,
  0x0d, 0x00, 0x00, 0x00, 0x01, 0x00, 0x00, 0x00, 0x0c, 0x00, 0x00, 0x00,
  0x9e, 0xd3, 0xff, 0xff, 0x10, 0x00, 0x00, 0x00, 0x0e, 0x00, 0x00, 0x00,
  0x1c, 0x00, 0x00, 0x00, 0x40, 0x00, 0x00, 0x00, 0x04, 0x00, 0x00, 0x00,
  0x01, 0x00, 0x00, 0x00, 0x07, 0x00, 0x00, 0x00, 0x01, 0x00, 0x00, 0x00,
  0x10, 0x00, 0x00, 0x00, 0x22, 0x00, 0x00, 0x00, 0x73, 0x65, 0x71, 0x75,
  0x65, 0x6e, 0x74, 0x69, 0x61, 0x6c, 0x2f, 0x6d, 0x61, 0x78, 0x5f, 0x70,
  0x6f, 0x6f, 0x6c, 0x69, 0x6e, 0x67, 0x32, 0x64, 0x5f, 0x31, 0x2f, 0x4d,
  0x61, 0x78, 0x50, 0x6f, 0x6f, 0x6c, 0x00, 0x00, 0xa0, 0xd3, 0xff, 0xff,
  0xc2, 0xfe, 0xff, 0xff, 0x00, 0x00, 0x00, 0x01, 0x24, 0x00, 0x00, 0x00,
  0x18, 0x00, 0x00, 0x00, 0x04, 0x00, 0x00, 0x00, 0xb4, 0xfe, 0xff, 0xff,
  0x01, 0x00, 0x00, 0x00, 0x01, 0x00, 0x00, 0x00, 0x00, 0x00, 0x00, 0x01,
  0x01, 0x00, 0x00, 0x00, 0x0c, 0x00, 0x00, 0x00, 0x03, 0x00, 0x00, 0x00,
  0x0b, 0x00, 0x00, 0x00, 0x07, 0x00, 0x00, 0x00, 0x09, 0x00, 0x00, 0x00,
  0x2e, 0xd4, 0xff, 0xff, 0x10, 0x00, 0x00, 0x00, 0x0d, 0x00, 0x00, 0x00,
  0x1c, 0x00, 0x00, 0x00, 0x2c, 0x00, 0x00, 0x00, 0x04, 0x00, 0x00, 0x00,
  0x01, 0x00, 0x00, 0x00, 0x15, 0x00, 0x00, 0x00, 0x01, 0x00, 0x00, 0x00,
  0x10, 0x00, 0x00, 0x00, 0x0c, 0x00, 0x00, 0x00, 0x74, 0x66, 0x6c, 0x2e,
  0x63, 0x6f, 0x6e, 0x76, 0x5f, 0x32, 0x64, 0x31, 0x00, 0x00, 0x00, 0x00,
  0x74, 0xd4, 0xff, 0xff, 0x00, 0x00, 0x0e, 0x00, 0x1a, 0x00, 0x08, 0x00,
  0x0c, 0x00, 0x10, 0x00, 0x07, 0x00, 0x14, 0x00, 0x0e, 0x00, 0x00, 0x00,
  0x00, 0x00, 0x00, 0x05, 0x01, 0x00, 0x00, 0x00, 0x3c, 0x00, 0x00, 0x00,
  0x30, 0x00, 0x00, 0x00, 0x14, 0x00, 0x00, 0x00, 0x00, 0x00, 0x0e, 0x00,
  0x18, 0x00, 0x17, 0x00, 0x10, 0x00, 0x0c, 0x00, 0x08, 0x00, 0x04, 0x00,
  0x0e, 0x00, 0x00, 0x00, 0x03, 0x00, 0x00, 0x00, 0x03, 0x00, 0x00, 0x00,
  0x03, 0x00, 0x00, 0x00, 0x03, 0x00, 0x00, 0x00, 0x00, 0x00, 0x00, 0x01,
  0x01, 0x00, 0x00, 0x00, 0x0b, 0x00, 0x00, 0x00, 0x01, 0x00, 0x00, 0x00,
  0x0a, 0x00, 0x00, 0x00, 0x46, 0xff, 0xff, 0xff, 0x00, 0x00, 0x00, 0x11,
  0x01, 0x00, 0x00, 0x00, 0xda, 0xd4, 0xff, 0xff, 0x10, 0x00, 0x00, 0x00,
  0x0c, 0x00, 0x00, 0x00, 0x1c, 0x00, 0x00, 0x00, 0x40, 0x00, 0x00, 0x00,
  0x04, 0x00, 0x00, 0x00, 0x01, 0x00, 0x00, 0x00, 0x15, 0x00, 0x00, 0x00,
  0x01, 0x00, 0x00, 0x00, 0x08, 0x00, 0x00, 0x00, 0x20, 0x00, 0x00, 0x00,
  0x73, 0x65, 0x71, 0x75, 0x65, 0x6e, 0x74, 0x69, 0x61, 0x6c, 0x2f, 0x6d,
  0x61, 0x78, 0x5f, 0x70, 0x6f, 0x6f, 0x6c, 0x69, 0x6e, 0x67, 0x32, 0x64,
  0x2f, 0x4d, 0x61, 0x78, 0x50, 0x6f, 0x6f, 0x6c, 0x00, 0x00, 0x00, 0x00,
  0x34, 0xd5, 0xff, 0xff, 0x00, 0x00, 0x0e, 0x00, 0x14, 0x00, 0x00, 0x00,
  0x08, 0x00, 0x0c, 0x00, 0x07, 0x00, 0x10, 0x00, 0x0e, 0x00, 0x00, 0x00,
  0x00, 0x00, 0x00, 0x01, 0x30, 0x00, 0x00, 0x00, 0x24, 0x00, 0x00, 0x00,
  0x10, 0x00, 0x00, 0x00, 0x0c, 0x00, 0x10, 0x00, 0x00, 0x00, 0x04, 0x00,
  0x08, 0x00, 0x0f, 0x00, 0x0c, 0x00, 0x00, 0x00, 0x01, 0x00, 0x00, 0x00,
  0x01, 0x00, 0x00, 0x00, 0x00, 0x00, 0x00, 0x01, 0x01, 0x00, 0x00, 0x00,
  0x0a, 0x00, 0x00, 0x00, 0x03, 0x00, 0x00, 0x00, 0x00, 0x00, 0x00, 0x00,
  0x06, 0x00, 0x00, 0x00, 0x08, 0x00, 0x00, 0x00, 0x00, 0x00, 0x0a, 0x00,
  0x0c, 0x00, 0x07, 0x00, 0x00, 0x00, 0x08, 0x00, 0x0a, 0x00, 0x00, 0x00,
  0x00, 0x00, 0x00, 0x03, 0x01, 0x00, 0x00, 0x00, 0x9e, 0xd5, 0xff, 0xff,
  0x10, 0x00, 0x00, 0x00, 0x0b, 0x00, 0x00, 0x00, 0x1c, 0x00, 0x00, 0x00,
  0x28, 0x00, 0x00, 0x00, 0x04, 0x00, 0x00, 0x00, 0x01, 0x00, 0x00, 0x00,
  0x40, 0x00, 0x00, 0x00, 0x03, 0x00, 0x00, 0x00, 0x08, 0x00, 0x00, 0x00,
  0x0b, 0x00, 0x00, 0x00, 0x74, 0x66, 0x6c, 0x2e, 0x63, 0x6f, 0x6e, 0x76,
  0x5f, 0x32, 0x64, 0x00, 0x88, 0xd5, 0xff, 0xff, 0x7e, 0xd6, 0xff, 0xff,
  0x04, 0x00, 0x00, 0x00, 0x40, 0x00, 0x00, 0x00, 0x01, 0x6c, 0x2b, 0xbf,
  0xaf, 0x4e, 0x42, 0xbf, 0xf3, 0x39, 0xae, 0xbe, 0x35, 0xb2, 0x01, 0xc0,
  0xf2, 0x73, 0x41, 0xbf, 0x7b, 0x9b, 0x33, 0xbf, 0xf0, 0xd2, 0x35, 0xbf,
  0x97, 0xb1, 0xc3, 0xbe, 0xac, 0x1a, 0x25, 0xbf, 0x2b, 0x8d, 0x82, 0x3e,
  0x80, 0x28, 0xa8, 0xbe, 0xb9, 0x54, 0x4b, 0xbf, 0x94, 0xef, 0x8a, 0x40,
  0x6a, 0x90, 0x3a, 0xbf, 0x3d, 0x1a, 0x61, 0x40, 0x82, 0xda, 0x27, 0xbd,
  0x26, 0xd6, 0xff, 0xff, 0x10, 0x00, 0x00, 0x00, 0x0a, 0x00, 0x00, 0x00,
  0x10, 0x00, 0x00, 0x00, 0x20, 0x00, 0x00, 0x00, 0x01, 0x00, 0x00, 0x00,
  0x10, 0x00, 0x00, 0x00, 0x0d, 0x00, 0x00, 0x00, 0x73, 0x74, 0x64, 0x2e,
  0x63, 0x6f, 0x6e, 0x73, 0x74, 0x61, 0x6e, 0x74, 0x31, 0x00, 0x00, 0x00,
  0x08, 0xd6, 0xff, 0xff, 0xfe, 0xd6, 0xff, 0xff, 0x04, 0x00, 0x00, 0x00,
  0x20, 0x00, 0x00, 0x00, 0xcb, 0xac, 0x1a, 0xc0, 0x22, 0x6d, 0x0a, 0xbf,
  0x2e, 0x3a, 0xd7, 0xbf, 0x83, 0x03, 0x8e, 0xbf, 0x94, 0xb7, 0xaf, 0x3f,
  0x5c, 0x5e, 0xfd, 0xbe, 0xf9, 0xbb, 0xc6, 0xbf, 0x10, 0x79, 0x49, 0xc0,
  0x86, 0xd6, 0xff, 0xff, 0x10, 0x00, 0x00, 0x00, 0x09, 0x00, 0x00, 0x00,
  0x10, 0x00, 0x00, 0x00, 0x20, 0x00, 0x00, 0x00, 0x01, 0x00, 0x00, 0x00,
  0x08, 0x00, 0x00, 0x00, 0x0c, 0x00, 0x00, 0x00, 0x73, 0x74, 0x64, 0x2e,
  0x63, 0x6f, 0x6e, 0x73, 0x74, 0x61, 0x6e, 0x74, 0x00, 0x00, 0x00, 0x00,
  0x68, 0xd6, 0xff, 0xff, 0x5e, 0xd7, 0xff, 0xff, 0x04, 0x00, 0x00, 0x00,
  0x00, 0x08, 0x00, 0x00, 0xfa, 0xfa, 0x54, 0xbe, 0xea, 0xe0, 0x5f, 0xbf,
  0xdb, 0xb6, 0x4a, 0xbe, 0x0b, 0x5c, 0x9c, 0xbd, 0x42, 0x49, 0x70, 0xbf,
  0x44, 0x92, 0x33, 0xbf, 0x95, 0xee, 0x25, 0xbe, 0x6a, 0xaa, 0x77, 0x3e,
  0x09, 0xfe, 0xac, 0x3d, 0x15, 0xfa, 0xd4, 0xbc, 0x9f, 0xca, 0x0e, 0x3e,
  0x97, 0x1a, 0x20, 0x3d, 0xe0, 0x74, 0x5c, 0xbf, 0x04, 0xba, 0xed, 0xbc,
  0x4e, 0x31, 0x00, 0xbe, 0x5e, 0x87, 0x3e, 0x3e, 0x1a, 0x72, 0x07, 0xbe,
  0x6a, 0x85, 0x51, 0x3e, 0x6b, 0x71, 0x80, 0x3c, 0x52, 0xc4, 0xf0, 0x3d,
  0x7e, 0x60, 0xd6, 0xbe, 0x46, 0x43, 0xfd, 0xbd, 0x45, 0x68, 0x32, 0xbd,
  0xa3, 0x3f, 0x80, 0x3d, 0x7a, 0xa1, 0x0e, 0x3d, 0x05, 0x56, 0x02, 0x3e,
  0x22, 0x58, 0x1c, 0xbc, 0x70, 0x78, 0x0e, 0x3b, 0x65, 0x2f, 0xac, 0xbe,
  0xc5, 0x44, 0xcd, 0xbd, 0x8d, 0x03, 0x3b, 0x3e, 0xb4, 0xe2, 0x68, 0xbd,
  0x36, 0x81, 0x29, 0xbe, 0xb5, 0xa8, 0xd8, 0xbd, 0xc7, 0xcc, 0x0a, 0xbe,
  0x58, 0x23, 0x98, 0x3d, 0x46, 0x18, 0xf0, 0xbe, 0x07, 0xee, 0xab, 0x3d,
  0x69, 0x3b, 0x86, 0x3d, 0x91, 0xc6, 0x99, 0x3e, 0xf1, 0xde, 0xce, 0x3e,
  0x9a, 0x2a, 0xa6, 0xbb, 0xd6, 0x96, 0x11, 0xbe, 0x9e, 0x5a, 0x33, 0xbd,
  0x4a, 0x76, 0xb2, 0xbe, 0x36, 0x34, 0x06, 0x3e, 0x47, 0x11, 0x83, 0xbc,
  0x5d, 0x7c, 0x88, 0xbb, 0xfd, 0x23, 0x86, 0x3d, 0xe8, 0x42, 0x50, 0xbe,
  0xfd, 0x43, 0x8b, 0xbc, 0x56, 0x15, 0xcd, 0xbd, 0x3e, 0x27, 0x01, 0xbf,
  0x49, 0xaa, 0x21, 0x3e, 0x73, 0xec, 0x32, 0xbe, 0x27, 0x4d, 0x36, 0x3e,
  0x36, 0xb8, 0x92, 0xbd, 0x0b, 0x80, 0x38, 0xbe, 0xe5, 0x7f, 0x69, 0xbc,
  0x57, 0x06, 0x4d, 0xbd, 0xbc, 0x7d, 0x30, 0xbf, 0x3d, 0x9a, 0xb2, 0xbe,
  0xe4, 0xb0, 0xc5, 0xbe, 0x76, 0x74, 0xeb, 0x3d, 0xa4, 0x7b, 0x85, 0x3e,
  0x98, 0x8e, 0xaa, 0xbc, 0xf4, 0x42, 0xfc, 0x3c, 0x07, 0xec, 0x25, 0xbe,
  0xad, 0x87, 0x88, 0x3d, 0xcc, 0xdc, 0x9f, 0x3b, 0x5d, 0x53, 0xf3, 0x3e,
  0xe9, 0x06, 0x73, 0x3e, 0x8d, 0xb8, 0x32, 0xbd, 0xdc, 0x3d, 0xa6, 0xbe,
  0xe0, 0x11, 0x9e, 0xbe, 0xcc, 0x50, 0xbe, 0xbd, 0xad, 0x3b, 0xd7, 0xbd,
  0x6f, 0xe9, 0xfc, 0xbd, 0xd4, 0xfc, 0xc0, 0xbd, 0x7a, 0xfb, 0xd8, 0xbc,
  0x6d, 0x14, 0x1d, 0x3e, 0xd0, 0xef, 0x01, 0xbe, 0x89, 0x87, 0x20, 0xbe,
  0x70, 0xb5, 0xcc, 0x3c, 0x2f, 0x00, 0x16, 0xbe, 0x2e, 0x42, 0x31, 0x3b,
  0x60, 0x81, 0x01, 0xbe, 0x82, 0xfb, 0xab, 0xbd, 0xb1, 0x74, 0xb0, 0x3d,
  0x26, 0xd0, 0x88, 0xbd, 0xde, 0x31, 0x4e, 0x3d, 0xcc, 0xcd, 0x0b, 0x3c,
  0x75, 0xba, 0x1a, 0xbd, 0x4f, 0xb0, 0xf1, 0x3d, 0x27, 0xe8, 0x37, 0xbe,
  0x5b, 0x2e, 0x8a, 0xbd, 0x84, 0xc3, 0x19, 0x3f, 0xd4, 0x79, 0x93, 0xbe,
  0xff, 0xd2, 0x29, 0xbe, 0x63, 0x69, 0x87, 0xbd, 0x67, 0x35, 0x41, 0xbe,
  0x8b, 0xd4, 0xd9, 0xbe, 0xb2, 0x64, 0xc8, 0xbe, 0x3c, 0xe2, 0xdd, 0x3e,
  0x21, 0x2f, 0xd4, 0x3a, 0x47, 0x0d, 0xcd, 0x3e, 0x40, 0xdd, 0x7f, 0xbe,
  0x2d, 0x00, 0x09, 0xbe, 0x5d, 0x2f, 0x95, 0xbe, 0xec, 0xca, 0xbe, 0xbe,
  0xf8, 0xae, 0x0e, 0xbf, 0x99, 0x91, 0x4b, 0x3e, 0x8b, 0xfd, 0x9a, 0xbe,
  0x1c, 0x5a, 0x33, 0x3b, 0x97, 0x48, 0x9f, 0x3e, 0xe7, 0x92, 0xe4, 0xbe,
  0x1f, 0x51, 0xe4, 0x3c, 0xb4, 0xeb, 0x9c, 0xbd, 0xd2, 0x46, 0x90, 0xbd,
  0xc4, 0x05, 0xa1, 0x3d, 0x79, 0x79, 0x89, 0xbd, 0x1d, 0x38, 0x2c, 0xbd,
  0xd5, 0x78, 0x53, 0x3d, 0x92, 0xa1, 0x2f, 0xbf, 0x40, 0xa4, 0xf0, 0x3d,
  0xac, 0xaf, 0x2b, 0xbb, 0x27, 0x3e, 0xb0, 0x3d, 0xe4, 0xb4, 0xcf, 0xbe,
  0xce, 0x0f, 0x7a, 0x3e, 0x82, 0x19, 0x5b, 0xbf, 0xc4, 0x48, 0x78, 0xbc,
  0x72, 0x1f, 0x7f, 0x3e, 0x74, 0x57, 0xb5, 0xbe, 0x09, 0xc2, 0xa2, 0xbe,
  0xa1, 0x7a, 0x65, 0xbd, 0x38, 0xa2, 0x0c, 0x3e, 0xe0, 0xe2, 0x2e, 0xbe,
  0xea, 0x4d, 0xf5, 0xbd, 0x17, 0xf6, 0xca, 0xbd, 0xe8, 0x52, 0x2a, 0xbd,
  0x03, 0x83, 0x1a, 0xbf, 0xac, 0xb5, 0xef, 0xbe, 0x52, 0x45, 0xd3, 0xbc,
  0xfc, 0xac, 0x99, 0x3e, 0x34, 0xd4, 0xc9, 0xbd, 0x4b, 0xdf, 0x66, 0x3e,
  0xa5, 0xcf, 0xe3, 0x3c, 0x01, 0xd3, 0xf3, 0xbc, 0xc8, 0xd2, 0xa6, 0xbd,
  0x2b, 0x57, 0xe9, 0xbd, 0x21, 0xc1, 0x95, 0x3d, 0xba, 0x53, 0x82, 0x3e,
  0xc5, 0x32, 0xd7, 0xbd, 0x5c, 0xb6, 0x00, 0xbe, 0x1a, 0x5a, 0xe2, 0x3c,
  0xe6, 0xe7, 0xce, 0xbc, 0x3a, 0x1d, 0x9e, 0x3c, 0xa2, 0x54, 0xb2, 0x3d,
  0x9b, 0xa1, 0xcf, 0x3d, 0x71, 0x7f, 0xe6, 0xbd, 0xcd, 0xbd, 0xcf, 0xbe,
  0x9e, 0x09, 0x80, 0xbb, 0xf4, 0x6a, 0xaa, 0xbd, 0x96, 0x72, 0x3c, 0xbe,
  0xaf, 0x14, 0x9e, 0xbc, 0x7d, 0x7a, 0x15, 0xbe, 0xec, 0xbb, 0xe0, 0xbb,
  0xd7, 0xe2, 0xeb, 0x3d, 0x73, 0x30, 0x0c, 0xbc, 0xad, 0x9c, 0xbf, 0xbd,
  0x6d, 0xa0, 0x9c, 0xbe, 0x73, 0x59, 0x3b, 0xbe, 0x7a, 0x02, 0xf3, 0xbd,
  0x35, 0x7e, 0x55, 0xbe, 0x42, 0x13, 0xc6, 0x3d, 0x9a, 0x66, 0x9c, 0x3d,
  0x67, 0x66, 0xaa, 0x3e, 0xdb, 0x15, 0x1f, 0xbf, 0x08, 0x09, 0x18, 0xbf,
  0x13, 0xf5, 0x01, 0xbd, 0xf3, 0xee, 0x45, 0xbf, 0x8b, 0x1b, 0xe5, 0x3e,
  0x48, 0xa1, 0x2a, 0xbc, 0xf8, 0x05, 0x1b, 0x3e, 0xf4, 0xf3, 0x99, 0x3e,
  0x31, 0x31, 0x2f, 0xbf, 0x33, 0x25, 0x27, 0x3e, 0xb7, 0xcc, 0x14, 0x3e,
  0x4f, 0x4f, 0x42, 0xbf, 0xc0, 0x6d, 0x82, 0x3d, 0xaf, 0x5a, 0x07, 0xbe,
  0x10, 0xa7, 0x8c, 0x3b, 0x19, 0x49, 0x5d, 0x3e, 0xc8, 0xfe, 0xc8, 0x3c,
  0xf4, 0x81, 0xba, 0xbd, 0x4e, 0xaa, 0x99, 0xbd, 0xe0, 0x6f, 0x2e, 0xbd,
  0xfc, 0x28, 0x32, 0xbd, 0x63, 0x45, 0x3d, 0x3c, 0x14, 0x4b, 0x96, 0x3e,
  0x44, 0xb8, 0x6b, 0xbc, 0x91, 0x86, 0xff, 0xbd, 0x1c, 0xea, 0xde, 0xbd,
  0x80, 0xd4, 0x8a, 0x3e, 0x57, 0x8e, 0xe3, 0xbe, 0x6e, 0xb7, 0x18, 0xbe,
  0x5b, 0xa1, 0xcf, 0x3c, 0xf2, 0x8a, 0x7c, 0x3e, 0xeb, 0x94, 0xbe, 0xbd,
  0xdd, 0xd8, 0xbc, 0xbd, 0xfd, 0xc9, 0x84, 0xbd, 0xb9, 0x1c, 0x2d, 0xbc,
  0x75, 0x28, 0xe3, 0xbe, 0x2f, 0xf3, 0xdb, 0xbe, 0xf8, 0x5f, 0x11, 0x3c,
  0x9f, 0xfd, 0x94, 0xbe, 0x52, 0xf9, 0xe3, 0xbd, 0x05, 0x04, 0x6f, 0x3e,
  0x84, 0xc6, 0x75, 0xbd, 0x1d, 0xde, 0x23, 0xbc, 0x0b, 0x35, 0x3d, 0xbf,
  0x28, 0x7d, 0x04, 0xbf, 0xe4, 0x72, 0xf7, 0xba, 0x24, 0x49, 0x64, 0xbe,
  0xf1, 0xee, 0xfe, 0xbd, 0xce, 0x67, 0x8f, 0x3e, 0xbb, 0x4a, 0xd1, 0x3d,
  0x0c, 0x39, 0x68, 0x3d, 0x73, 0x27, 0x89, 0x3d, 0x61, 0x41, 0x44, 0xbc,
  0x7f, 0xba, 0x76, 0xbc, 0x90, 0x1a, 0x3d, 0x3c, 0xfe, 0xa9, 0x39, 0x3e,
  0xf9, 0xd4, 0x1e, 0x3e, 0xec, 0x3b, 0xfc, 0xbb, 0xd9, 0x4a, 0x1d, 0xbe,
  0xe2, 0xfb, 0xe2, 0xba, 0xf5, 0xc3, 0xa4, 0xbb, 0xdb, 0xd6, 0x74, 0xba,
  0xf2, 0x77, 0xba, 0x3e, 0x8f, 0x6d, 0x74, 0xbd, 0x4b, 0x0e, 0xb1, 0xbd,
  0xb6, 0x89, 0x2e, 0xbe, 0x78, 0x37, 0x3a, 0xbe, 0x1a, 0x75, 0xe2, 0xbd,
  0x54, 0xca, 0x3c, 0xbd, 0x52, 0xfa, 0xed, 0xbd, 0x9e, 0x70, 0x58, 0x3d,
  0xaf, 0xb4, 0xef, 0x3c, 0x18, 0xe6, 0x0e, 0x3e, 0xa3, 0x98, 0x63, 0xbd,
  0x11, 0x7d, 0x65, 0xbe, 0x4a, 0x81, 0xa9, 0xbd, 0x93, 0x93, 0x8b, 0xbd,
  0x00, 0x50, 0xe3, 0xbd, 0x29, 0xd5, 0xed, 0x3d, 0x8e, 0xc3, 0xd0, 0x3e,
  0x4c, 0x8d, 0x19, 0x3d, 0x41, 0xf8, 0x86, 0x3d, 0x4c, 0xce, 0x9c, 0x3c,
  0xa6, 0x35, 0x80, 0xbc, 0x9d, 0x69, 0xbe, 0x3c, 0x29, 0xf2, 0xf8, 0xbe,
  0xfc, 0x80, 0x2d, 0x3f, 0x12, 0x49, 0x5c, 0xbe, 0x85, 0xb2, 0x8a, 0xbe,
  0x8f, 0x6d, 0x62, 0x3d, 0xf0, 0x64, 0xa8, 0xb9, 0x4d, 0x95, 0xe6, 0xbe,
  0x63, 0x09, 0x8c, 0xbe, 0xd4, 0x57, 0x05, 0xbf, 0xd3, 0x3b, 0xf4, 0xbd,
  0x06, 0x4f, 0x64, 0xbc, 0xa1, 0xb2, 0x7b, 0xbe, 0xb4, 0x32, 0x4f, 0xbd,
  0xd9, 0x24, 0x82, 0xbd, 0x32, 0x75, 0x0d, 0xbf, 0xf4, 0x41, 0xd4, 0xbe,
  0x77, 0x7b, 0x90, 0xbe, 0xce, 0x68, 0x46, 0x3e, 0x9e, 0x14, 0x39, 0x3b,
  0xe0, 0x7d, 0xca, 0xbe, 0x13, 0x3b, 0x6c, 0xbc, 0x50, 0x29, 0x8a, 0xbd,
  0x00, 0x39, 0x0d, 0xbf, 0x28, 0x57, 0xe6, 0xbe, 0x7d, 0x41, 0x6d, 0xbd,
  0x9b, 0x69, 0xea, 0x3d, 0x7a, 0x87, 0x91, 0xbe, 0xc4, 0x3c, 0x99, 0xbd,
  0x5a, 0x63, 0xbf, 0xbc, 0xef, 0xe5, 0x2b, 0xbe, 0xd7, 0x01, 0x4e, 0xbc,
  0x8a, 0x3b, 0xee, 0xbc, 0xe6, 0xac, 0xaf, 0xbd, 0x24, 0xb6, 0x74, 0xbd,
  0xba, 0xfe, 0xa8, 0xbe, 0x2c, 0xc2, 0x0a, 0x3e, 0x0b, 0xee, 0xa5, 0xbc,
  0xc5, 0x6c, 0x7c, 0xbe, 0xcf, 0x1b, 0xf7, 0x3c, 0x81, 0x4f, 0x80, 0xbb,
  0xa0, 0x02, 0xa1, 0xbc, 0xde, 0x6d, 0x17, 0x3f, 0xa3, 0xd7, 0x12, 0xbe,
  0x24, 0x58, 0x42, 0xbd, 0x24, 0xcc, 0x50, 0x3e, 0xe6, 0xa1, 0xa3, 0xbe,
  0xa4, 0x3b, 0x0b, 0x3c, 0x7a, 0x38, 0x63, 0xbd, 0x8e, 0x18, 0xc0, 0x3d,
  0x7b, 0x3f, 0xdd, 0x3e, 0xd6, 0xc7, 0xbf, 0x3c, 0x1e, 0xe1, 0x3a, 0xbe,
  0xff, 0xf4, 0x25, 0xbe, 0xad, 0xd6, 0x96, 0xbe, 0x0c, 0x0d, 0x72, 0xbd,
  0xf8, 0x50, 0xa9, 0xbd, 0x9f, 0xb4, 0xaf, 0x3c, 0x30, 0x7f, 0x5f, 0xbd,
  0x3d, 0x51, 0x35, 0xbe, 0xac, 0x65, 0x96, 0xbe, 0x00, 0xe1, 0x28, 0xbe,
  0x04, 0xec, 0xa7, 0xbe, 0x2b, 0xf6, 0x76, 0xbf, 0xaf, 0x73, 0xd3, 0xbb,
  0x21, 0x99, 0x1f, 0xbe, 0x5f, 0xf6, 0x47, 0x3e, 0x20, 0xe5, 0x21, 0xbd,
  0xb2, 0x2f, 0xd3, 0xbd, 0xb0, 0xc1, 0x94, 0x3d, 0xbf, 0xfb, 0x19, 0x3f,
  0x0d, 0x1a, 0x70, 0xbd, 0xcd, 0x19, 0x84, 0x3b, 0xc5, 0xe8, 0x9d, 0xbd,
  0x46, 0xe9, 0x69, 0xbd, 0xf7, 0x79, 0x10, 0xbe, 0x21, 0x18, 0x0e, 0xbe,
  0xd8, 0x09, 0x20, 0x3d, 0x56, 0x66, 0x04, 0xbe, 0x42, 0x73, 0xe3, 0x3b,
  0x7d, 0x81, 0xde, 0xbc, 0x7f, 0xc1, 0xaf, 0xbc, 0x96, 0x0b, 0x73, 0xbd,
  0xa1, 0xf5, 0x56, 0xbd, 0x36, 0xce, 0x23, 0x3a, 0x59, 0x39, 0x16, 0xbd,
  0xf4, 0xf0, 0xa8, 0xbd, 0xde, 0xd5, 0x00, 0x3d, 0x39, 0x67, 0x10, 0xbd,
  0xa5, 0xd2, 0xb8, 0xbd, 0xb3, 0x2e, 0xc8, 0xbd, 0x66, 0x72, 0x75, 0x3d,
  0x3c, 0x4e, 0xc3, 0xbe, 0xe5, 0x56, 0xf5, 0xbc, 0x58, 0x6f, 0x89, 0xbd,
  0xe3, 0x8b, 0x30, 0x3d, 0x6a, 0x56, 0xa4, 0xbc, 0x17, 0x90, 0xa5, 0xbe,
  0xd4, 0x51, 0x74, 0xbe, 0x57, 0xa8, 0x3a, 0x3f, 0x8e, 0xea, 0x5b, 0x3d,
  0x3d, 0x6f, 0x02, 0xbe, 0x65, 0xd0, 0x74, 0xbc, 0x36, 0xd2, 0x8c, 0xbe,
  0xbd, 0xa3, 0x90, 0xbe, 0x56, 0xd0, 0xae, 0xbe, 0xac, 0x78, 0x4e, 0x3d,
  0x7b, 0xef, 0x6b, 0xbe, 0x51, 0xb6, 0x91, 0x3d, 0xfe, 0x7f, 0xc7, 0x3c,
  0xba, 0x80, 0x63, 0xbc, 0x57, 0xd5, 0x26, 0xbd, 0xcd, 0x13, 0x3e, 0xbe,
  0x4e, 0xf0, 0x84, 0xbd, 0x4e, 0x74, 0xdc, 0x3c, 0x77, 0x31, 0x33, 0x3e,
  0x8e, 0x84, 0x0d, 0xbd, 0x06, 0xb9, 0x0d, 0xbc, 0xe0, 0x02, 0x03, 0xbe,
  0xe8, 0xac, 0xaf, 0x3d, 0x91, 0x0e, 0xa5, 0x3d, 0x14, 0x22, 0x80, 0x3d,
  0x7b, 0xfb, 0xad, 0xbd, 0xf9, 0x20, 0xdc, 0xbe, 0xab, 0x55, 0x9b, 0xbe,
  0x83, 0x37, 0x99, 0xbe, 0x11, 0x80, 0xce, 0xbe, 0x0a, 0x11, 0xb4, 0x3d,
  0x47, 0xea, 0xb1, 0xbd, 0x4f, 0xcb, 0xa2, 0xbe, 0x61, 0x2d, 0xb2, 0xbe,
  0x9b, 0x2a, 0xea, 0xbd, 0x3e, 0x38, 0xa8, 0xbe, 0xb5, 0xba, 0x80, 0xbe,
  0xbf, 0xa1, 0xdf, 0xbe, 0xd3, 0xc2, 0x43, 0x3e, 0xe3, 0x67, 0xcd, 0xbe,
  0x5f, 0xad, 0x8c, 0xbe, 0x5f, 0x2b, 0x01, 0xbe, 0x44, 0x45, 0x21, 0x3a,
  0x14, 0xf8, 0x96, 0xbe, 0x5c, 0xa7, 0x76, 0xbe, 0xbc, 0x2b, 0x98, 0xbe,
  0x56, 0x7e, 0x4d, 0x3e, 0xf6, 0x7d, 0x97, 0xbe, 0xe9, 0xc5, 0x8d, 0xbe,
  0x9b, 0x95, 0xbd, 0xbe, 0xe7, 0x07, 0xa9, 0xbe, 0xb6, 0xd8, 0xf8, 0xbd,
  0x06, 0xa3, 0x40, 0xbe, 0x2e, 0x35, 0x5c, 0x3b, 0x98, 0xba, 0xad, 0x3d,
  0x77, 0xd5, 0x41, 0xbe, 0x85, 0xfc, 0x50, 0xbe, 0x01, 0x34, 0xe0, 0xbd,
  0x77, 0x1e, 0x10, 0x3d, 0x76, 0x18, 0xcf, 0x3e, 0x8c, 0x79, 0xc7, 0x3d,
  0x3c, 0x28, 0x95, 0x3e, 0x08, 0xd9, 0xa3, 0xbe, 0xdf, 0x3e, 0xaa, 0xbe,
  0xd0, 0x51, 0x8f, 0xbe, 0x7d, 0x86, 0x8e, 0x3e, 0xe5, 0xf9, 0xf6, 0x3d,
  0xf2, 0x8c, 0xb0, 0x3e, 0xaa, 0x80, 0xb8, 0xbd, 0xf6, 0x40, 0x9c, 0xbd,
  0xb6, 0x4a, 0x82, 0xbe, 0x04, 0xff, 0x88, 0xbe, 0x4b, 0x91, 0x64, 0xbe,
  0x00, 0x21, 0xaf, 0x3e, 0x09, 0x42, 0xe6, 0x3d, 0x3c, 0x52, 0x1e, 0xbe,
  0x6f, 0xae, 0x97, 0x3d, 0x7b, 0xac, 0xa4, 0x3d, 0x63, 0x3a, 0x0b, 0xbe,
  0xab, 0xeb, 0xdb, 0xbd, 0x1b, 0x2b, 0xb3, 0xbd, 0x04, 0xa9, 0x25, 0x3e,
  0x5a, 0x04, 0x22, 0x3e, 0x69, 0xa8, 0xb0, 0x3e, 0xbf, 0x17, 0x38, 0x3a,
  0x02, 0xd3, 0x87, 0xbd, 0xfa, 0x7e, 0x93, 0xbd, 0x68, 0x73, 0x56, 0xbd,
  0x0c, 0x76, 0x33, 0x3d, 0x7e, 0x09, 0x16, 0x3d, 0x98, 0xd1, 0x82, 0xbc,
  0x7e, 0x91, 0x3c, 0xbe, 0xb9, 0xc8, 0x44, 0xbe, 0x8b, 0xe8, 0x86, 0xbe,
  0x97, 0x55, 0x84, 0xbd, 0xca, 0x39, 0xc2, 0xbd, 0x7c, 0x90, 0x9b, 0xbd,
  0xde, 0xf8, 0xf3, 0xbe, 0x9d, 0xc9, 0x2f, 0x3e, 0x4e, 0x78, 0xc4, 0xbd,
  0x3b, 0x32, 0xf9, 0xbd, 0x27, 0x27, 0x16, 0xbe, 0x68, 0x4d, 0x5f, 0xbd,
  0x85, 0x1c, 0x86, 0x3b, 0x64, 0xb4, 0xad, 0xbd, 0xf4, 0x1f, 0x88, 0xbd,
  0xce, 0x77, 0xb5, 0x3d, 0x25, 0xbb, 0xe2, 0xbb, 0x7f, 0xce, 0x83, 0xbd,
  0x07, 0xee, 0xf4, 0xbc, 0xe7, 0x0e, 0x1a, 0xbd, 0x03, 0xe5, 0x7a, 0xbc,
  0xd1, 0x57, 0xfb, 0xbd, 0xac, 0xad, 0x1a, 0x3d, 0x3a, 0x1b, 0x8e, 0xbb,
  0x50, 0xf8, 0x94, 0x3e, 0x2f, 0xa4, 0xb5, 0x3e, 0xc5, 0x45, 0x88, 0xbb,
  0x2a, 0xd0, 0x3b, 0x3d, 0x70, 0x06, 0x1b, 0x3e, 0x75, 0x68, 0x7a, 0xbd,
  0xf5, 0x59, 0x5b, 0x3e, 0xdb, 0x3f, 0x13, 0x3d, 0x13, 0xea, 0xc1, 0xbd,
  0xac, 0x0f, 0x69, 0xbe, 0x1c, 0x9d, 0x5f, 0x3d, 0x84, 0xef, 0xa9, 0x3d,
  0xa3, 0xf0, 0xff, 0xbd, 0x9a, 0xa7, 0x1a, 0xbe, 0x1c, 0xc6, 0x6e, 0x38,
  0x8b, 0x0f, 0x0f, 0x3e, 0x30, 0xc9, 0x12, 0xbd, 0x18, 0x3b, 0x84, 0xbe,
  0x12, 0xef, 0x13, 0xbe, 0xe3, 0x6c, 0x41, 0xbe, 0xd9, 0xc1, 0x0d, 0xbb,
  0x7e, 0x46, 0xd0, 0x3d, 0xee, 0x6f, 0x7c, 0x3e, 0x62, 0x8c, 0x4f, 0xbe,
  0xb5, 0x3d, 0xc7, 0xbe, 0x4d, 0x21, 0x19, 0xbf, 0x0d, 0xe4, 0xd9, 0xbd,
  0x11, 0x89, 0x2d, 0xbe, 0xc8, 0xfe, 0xce, 0x3d, 0x72, 0x11, 0x10, 0x3e,
  0xa4, 0xc2, 0xf2, 0xbd, 0x78, 0xec, 0x3d, 0xbe, 0x8b, 0xe6, 0x11, 0xbe,
  0x5d, 0xb8, 0x33, 0xbf, 0xb9, 0x4c, 0x8c, 0xbd, 0x23, 0x3a, 0x67, 0xbd,
  0xe2, 0x04, 0xb9, 0x3c, 0xce, 0x75, 0x24, 0x3e, 0x7b, 0xff, 0xba, 0x3d,
  0xc6, 0xde, 0xff, 0xff, 0x10, 0x00, 0x00, 0x00, 0x08, 0x00, 0x00, 0x00,
  0x1c, 0x00, 0x00, 0x00, 0x38, 0x00, 0x00, 0x00, 0x04, 0x00, 0x00, 0x00,
  0x10, 0x00, 0x00, 0x00, 0x04, 0x00, 0x00, 0x00, 0x01, 0x00, 0x00, 0x00,
  0x08, 0x00, 0x00, 0x00, 0x1a, 0x00, 0x00, 0x00, 0x73, 0x65, 0x71, 0x75,
  0x65, 0x6e, 0x74, 0x69, 0x61, 0x6c, 0x2f, 0x63, 0x6f, 0x6e, 0x76, 0x32,
  0x64, 0x5f, 0x31, 0x2f, 0x43, 0x6f, 0x6e, 0x76, 0x32, 0x44, 0x00, 0x00,
  0xc0, 0xde, 0xff, 0xff, 0xb6, 0xdf, 0xff, 0xff, 0x04, 0x00, 0x00, 0x00,
  0x80, 0x01, 0x00, 0x00, 0xba, 0x63, 0x46, 0xbe, 0x4d, 0x9d, 0xce, 0xbc,
  0x3f, 0x21, 0x2d, 0x3a, 0x32, 0x6e, 0x31, 0xbe, 0xca, 0x40, 0xc8, 0xbe,
  0x50, 0xee, 0x35, 0xbe, 0xe6, 0xc9, 0x75, 0x3e, 0x43, 0xcf, 0x44, 0x3e,
  0x98, 0xa8, 0x2f, 0x3d, 0x41, 0xc7, 0x56, 0x3e, 0x1d, 0x65, 0x60, 0x3e,
  0x70, 0x9d, 0xa2, 0x3d, 0xa5, 0xb1, 0x37, 0x3d, 0xf3, 0x2f, 0x08, 0x3d,
  0x60, 0xea, 0x01, 0x3e, 0xde, 0xa2, 0x90, 0x3d, 0xef, 0xa0, 0x6f, 0x3e,
  0x45, 0x0d, 0xdb, 0x3e, 0xd8, 0xf6, 0x61, 0xbe, 0x7f, 0xbe, 0x7b, 0xbe,
  0xf6, 0xe2, 0x0f, 0xbf, 0xf3, 0x9a, 0x1b, 0x3e, 0x1b, 0x44, 0xb7, 0xbd,
  0x27, 0x57, 0x25, 0xbe, 0xe1, 0xa4, 0x0c, 0x3e, 0x2c, 0xec, 0xd1, 0x3d,
  0x12, 0x7e, 0x29, 0x3e, 0xe7, 0xef, 0xac, 0x3d, 0x24, 0xf6, 0xa0, 0x3b,
  0x98, 0x6d, 0x7c, 0xbe, 0x62, 0x15, 0xe4, 0xbb, 0x9d, 0x9c, 0xa4, 0xbd,
  0x92, 0xbf, 0x33, 0xbe, 0xb7, 0x07, 0x1a, 0x3e, 0xf8, 0x9e, 0xb0, 0xbd,
  0x74, 0x46, 0x31, 0x3d, 0x06, 0x52, 0x01, 0x3f, 0x08, 0xdc, 0x86, 0x3d,
  0x3b, 0x8b, 0x12, 0xbc, 0x30, 0x44, 0x85, 0xbe, 0x02, 0x92, 0xc8, 0x3c,
  0x7b, 0x42, 0x07, 0xbd, 0x7b, 0xf9, 0x03, 0x3e, 0x4b, 0x3c, 0x20, 0xbb,
  0x7b, 0x13, 0x04, 0xbd, 0xad, 0xc3, 0x0b, 0x3e, 0x62, 0x81, 0xb3, 0x3d,
  0x8e, 0x61, 0xc7, 0xbc, 0x99, 0x31, 0x96, 0xbd, 0xd1, 0x15, 0xb6, 0xbc,
  0xf4, 0xf8, 0x64, 0xbe, 0x22, 0xc8, 0xf2, 0x3b, 0x53, 0x5d, 0x56, 0x3d,
  0x5c, 0x4a, 0x0a, 0xbe, 0xc1, 0xb1, 0x1a, 0xbe, 0xe8, 0x6e, 0xe9, 0xbc,
  0xc2, 0x1d, 0x11, 0xbe, 0x08, 0x94, 0x0a, 0x3d, 0x0c, 0x7e, 0x41, 0xbd,
  0xd0, 0xdf, 0xa1, 0xbd, 0x6a, 0x0b, 0x91, 0x3d, 0xc7, 0x83, 0x35, 0xbe,
  0x06, 0x53, 0xa0, 0x3d, 0x9e, 0x45, 0xcd, 0xbd, 0xec, 0x6e, 0xf9, 0xbd,
  0xfa, 0x73, 0xa9, 0xbc, 0x82, 0xad, 0xd7, 0xbd, 0x1b, 0xd2, 0x50, 0x3e,
  0xa6, 0x3e, 0x00, 0xbe, 0xee, 0x62, 0x3a, 0xbd, 0xf0, 0x48, 0xcb, 0x3d,
  0xfb, 0x04, 0x83, 0xbe, 0x3d, 0x8e, 0xbf, 0x3c, 0xb3, 0xe6, 0x86, 0xbe,
  0x2a, 0x5f, 0x40, 0x3d, 0xc9, 0x99, 0x20, 0xbc, 0xe1, 0x37, 0x47, 0xbe,
  0x43, 0xe1, 0x16, 0x3d, 0x87, 0xc0, 0x0a, 0xbe, 0xb6, 0xa4, 0xc9, 0x3d,
  0x7b, 0x5d, 0x80, 0x3d, 0x37, 0x91, 0xf9, 0xbd, 0xd7, 0xe7, 0xa0, 0x3d,
  0xa4, 0x19, 0x2c, 0x3c, 0x9f, 0xf2, 0x81, 0x3d, 0xba, 0x01, 0x27, 0x3b,
  0x26, 0x00, 0xe1, 0xbd, 0x43, 0x45, 0xcd, 0x3e, 0xf4, 0xd7, 0x1f, 0x3e,
  0x5a, 0x45, 0xa0, 0xbe, 0xa6, 0x3a, 0x8b, 0xbd, 0xd7, 0x86, 0x1d, 0xbd,
  0xb0, 0x33, 0xab, 0x3e, 0x72, 0xfa, 0xcd, 0xbe, 0x76, 0x41, 0x13, 0xbe,
  0xa6, 0x2f, 0xcf, 0x3d, 0x9e, 0xe0, 0xff, 0xff, 0x10, 0x00, 0x00, 0x00,
  0x07, 0x00, 0x00, 0x00, 0x1c, 0x00, 0x00, 0x00, 0x38, 0x00, 0x00, 0x00,
  0x04, 0x00, 0x00, 0x00, 0x08, 0x00, 0x00, 0x00, 0x04, 0x00, 0x00, 0x00,
  0x03, 0x00, 0x00, 0x00, 0x01, 0x00, 0x00, 0x00, 0x18, 0x00, 0x00, 0x00,
  0x73, 0x65, 0x71, 0x75, 0x65, 0x6e, 0x74, 0x69, 0x61, 0x6c, 0x2f, 0x63,
  0x6f, 0x6e, 0x76, 0x32, 0x64, 0x2f, 0x43, 0x6f, 0x6e, 0x76, 0x32, 0x44,
  0x00, 0x00, 0x00, 0x00, 0x98, 0xe0, 0xff, 0xff, 0x8e, 0xe1, 0xff, 0xff,
  0x04, 0x00, 0x00, 0x00, 0x00, 0x01, 0x00, 0x00, 0x26, 0xca, 0x2c, 0xbc,
  0x08, 0xd5, 0xab, 0x3e, 0xc1, 0x46, 0xd1, 0x3e, 0x74, 0xc3, 0x44, 0xbe,
  0x60, 0x3d, 0x97, 0x3e, 0xbb, 0xc0, 0x6b, 0x3c, 0x90, 0xd6, 0x57, 0x3e,
  0x7a, 0x62, 0x68, 0x3e, 0x6e, 0xbf, 0x45, 0xbe, 0x86, 0x98, 0xe3, 0xbd,
  0xc8, 0x26, 0xdd, 0x3e, 0x2e, 0xce, 0x55, 0x3e, 0x18, 0x7d, 0xf0, 0xbe,
  0x86, 0x0d, 0x68, 0xbe, 0x18, 0x95, 0x11, 0x3e, 0xe3, 0x54, 0xfa, 0x3d,
  0x4f, 0xab, 0x1d, 0x3c, 0x0e, 0x26, 0x8e, 0x3e, 0x2b, 0xda, 0xd6, 0x3e,
  0xc9, 0xc7, 0x80, 0xbe, 0xc3, 0x41, 0xb3, 0x3e, 0x98, 0xe2, 0xb1, 0xbd,
  0xc7, 0xbd, 0xb7, 0x3e, 0xdd, 0x52, 0x5f, 0x3e, 0x5a, 0x56, 0x40, 0xbe,
  0x6a, 0x43, 0xcb, 0xbd, 0xe0, 0x34, 0xe9, 0x3e, 0x48, 0x5d, 0xbf, 0x3d,
  0x1b, 0xee, 0x04, 0xbd, 0x99, 0x91, 0x40, 0xbf, 0x8d, 0x2c, 0x69, 0x3e,
  0x91, 0xae, 0xd7, 0x3d, 0xe5, 0x95, 0x91, 0x3d, 0xad, 0x4e, 0x1d, 0x3e,
  0xb2, 0x38, 0x44, 0x3e, 0x06, 0xf1, 0x32, 0xbe, 0xf2, 0xdc, 0x3b, 0x3e,
  0x0c, 0x1c, 0xba, 0xbe, 0x6a, 0x41, 0xb2, 0x3e, 0xa0, 0x0b, 0x9d, 0x3e,
  0xcb, 0x2a, 0x74, 0xbe, 0xed, 0x89, 0x22, 0xbe, 0x1a, 0x88, 0xda, 0x3e,
  0xe2, 0xae, 0xdc, 0x3d, 0x67, 0x28, 0x01, 0xbf, 0x79, 0x6d, 0x14, 0xbe,
  0xba, 0x7a, 0x8c, 0x3e, 0x2f, 0x55, 0x1c, 0x3e, 0xc7, 0xb7, 0x79, 0x3c,
  0xb7, 0xf5, 0x84, 0x3e, 0x5e, 0x6f, 0x7b, 0x3e, 0xb2, 0x7b, 0x81, 0xbe,
  0x4f, 0x3d, 0x7e, 0x3e, 0x6b, 0xf1, 0x00, 0xbe, 0x92, 0x22, 0xdd, 0x3e,
  0xba, 0x9a, 0x67, 0x3e, 0x32, 0x48, 0x89, 0xbe, 0x47, 0xf9, 0x6a, 0xbd,
  0x74, 0x69, 0xb3, 0x3e, 0xaa, 0x52, 0x37, 0x3e, 0xba, 0x27, 0xec, 0x3c,
  0x38, 0x44, 0xca, 0xbe, 0x49, 0xc7, 0x41, 0x3e, 0x92, 0x10, 0x96, 0x3d,
  0xf6, 0xe1, 0xff, 0xff, 0x10, 0x00, 0x00, 0x00, 0x06, 0x00, 0x00, 0x00,
  0x14, 0x00, 0x00, 0x00, 0x30, 0x00, 0x00, 0x00, 0x02, 0x00, 0x00, 0x00,
  0x04, 0x00, 0x00, 0x00, 0x10, 0x00, 0x00, 0x00, 0x19, 0x00, 0x00, 0x00,
  0x73, 0x65, 0x71, 0x75, 0x65, 0x6e, 0x74, 0x69, 0x61, 0x6c, 0x2f, 0x64,
  0x65, 0x6e, 0x73, 0x65, 0x5f, 0x31, 0x2f, 0x4d, 0x61, 0x74, 0x4d, 0x75,
  0x6c, 0x00, 0x00, 0x00, 0xe8, 0xe1, 0xff, 0xff, 0xde, 0xe2, 0xff, 0xff,
  0x04, 0x00, 0x00, 0x00, 0x00, 0x1c, 0x00, 0x00, 0x5f, 0x48, 0xe8, 0xbe,
  0xb3, 0x60, 0x92, 0x3e, 0x6f, 0x1f, 0x89, 0x3d, 0xb9, 0xfc, 0x41, 0xbe,
  0xf0, 0xaf, 0xd0, 0xbe, 0x19, 0x4e, 0x07, 0x3f, 0x65, 0x50, 0x45, 0xbe,
  0xe0, 0x07, 0x0e, 0xbe, 0x1f, 0xce, 0xdd, 0xbd, 0x20, 0x16, 0xbc, 0xbd,
  0x0b, 0xbd, 0xc6, 0xbe, 0x2e, 0xd6, 0xc9, 0xbd, 0xcd, 0x8e, 0x9b, 0x3c,
  0xb0, 0x1e, 0x80, 0xbe, 0x5f, 0xb0, 0xbc, 0xbc, 0x7f, 0xf7, 0xc3, 0xbe,
  0x77, 0xb0, 0x85, 0xbc, 0xd6, 0x4a, 0x55, 0x3e, 0x2b, 0xac, 0x48, 0x3d,
  0x79, 0x29, 0xb3, 0xbd, 0x34, 0x4d, 0x07, 0x3e, 0x71, 0xea, 0x4f, 0x3e,
  0x7b, 0x4d, 0xae, 0x3e, 0xe8, 0x34, 0x5f, 0xbe, 0x8d, 0x18, 0xeb, 0x3e,
  0x9b, 0xe1, 0xca, 0x3d, 0x66, 0xe7, 0xac, 0x3d, 0x8e, 0xf9, 0x78, 0x3e,
  0x08, 0xaa, 0x80, 0x3d, 0x33, 0x15, 0xd9, 0x3c, 0x72, 0x7e, 0x1f, 0xbe,
  0x68, 0x0e, 0x1e, 0x3c, 0x15, 0xb9, 0x69, 0x3e, 0xb9, 0x40, 0x27, 0x3e,
  0x03, 0xa3, 0x14, 0x3e, 0x92, 0x38, 0x84, 0x3b, 0x39, 0x02, 0x42, 0x3e,
  0x33, 0xc0, 0xae, 0xbe, 0xcf, 0x3a, 0xfe, 0x3d, 0x60, 0xd5, 0x53, 0xbd,
  0xa5, 0x15, 0x97, 0x3e, 0xc3, 0xaf, 0x2e, 0x3d, 0xd9, 0x27, 0xc9, 0xbd,
  0xc8, 0x39, 0xc9, 0x3d, 0x6a, 0x31, 0x2f, 0xbd, 0x7f, 0xe0, 0xc6, 0x3d,
  0x10, 0x5e, 0xca, 0xbd, 0xd6, 0x4e, 0xcd, 0x3c, 0x72, 0x4f, 0x40, 0x3e,
  0xc0, 0xfa, 0x14, 0xbd, 0x39, 0xcd, 0x17, 0x3e, 0x11, 0x3a, 0xa5, 0x3d,
  0xb8, 0x85, 0x29, 0x3e, 0xd4, 0x03, 0xbc, 0xbd, 0x4d, 0x49, 0x35, 0x3d,
  0x7a, 0xe5, 0x6a, 0xbe, 0x7f, 0x72, 0x28, 0x3d, 0xca, 0x7a, 0x30, 0xbe,
  0x59, 0xc7, 0xd5, 0xbd, 0xa1, 0xd0, 0xab, 0x3d, 0xe3, 0x6c, 0xa8, 0x3d,
  0xa4, 0xf6, 0x2c, 0x3d, 0x99, 0xff, 0x14, 0x3e, 0xd0, 0x3b, 0x67, 0x3c,
  0xe3, 0x5d, 0x5c, 0x3e, 0x26, 0x8b, 0x57, 0xbe, 0xa9, 0x3f, 0x67, 0xbd,
  0x4e, 0x39, 0xd0, 0xbc, 0x5c, 0xf3, 0x1e, 0x3b, 0xc6, 0x94, 0xf4, 0xbe,
  0x8a, 0x68, 0x8b, 0x3b, 0x6f, 0x6b, 0xb2, 0xbe, 0x84, 0xde, 0x51, 0xbd,
  0x0e, 0x7e, 0x7e, 0x3d, 0xb7, 0x7d, 0x6a, 0xbd, 0xc0, 0xef, 0xe1, 0xbd,
  0x64, 0x5e, 0x25, 0xbe, 0x02, 0x4f, 0x22, 0x3d, 0x84, 0x89, 0xad, 0xbe,
  0x49, 0x66, 0x4f, 0xbc, 0x95, 0x66, 0xfd, 0xbd, 0x5f, 0x99, 0x83, 0xbe,
  0xe7, 0x62, 0x6d, 0x3d, 0xa0, 0x60, 0xc7, 0xbc, 0x85, 0xc4, 0xfb, 0xbd,
  0x5e, 0x62, 0xf7, 0xbe, 0xd7, 0x7b, 0x7a, 0xbd, 0xaa, 0x58, 0xbb, 0xbe,
  0xf0, 0x98, 0xfb, 0xbe, 0xd4, 0xdb, 0x97, 0xbe, 0xff, 0x75, 0x12, 0x3e,
  0xf1, 0xe5, 0x94, 0xbe, 0xbd, 0xad, 0xc7, 0x3c, 0x02, 0x41, 0xb2, 0xbd,
  0xfc, 0x0a, 0xe1, 0xbe, 0xe6, 0x80, 0xab, 0xbc, 0x15, 0x3f, 0x35, 0xbe,
  0x5a, 0x93, 0x16, 0xbd, 0x65, 0x8f, 0x0b, 0xbe, 0x3a, 0x85, 0xb6, 0x3c,
  0x35, 0x54, 0xdd, 0xbc, 0xa1, 0x58, 0xbf, 0x3d, 0x5d, 0x2d, 0x40, 0xbd,
  0xe8, 0x76, 0xcd, 0xba, 0xc5, 0xc1, 0x48, 0xbe, 0xae, 0xc7, 0x7f, 0xbb,
  0xfc, 0x58, 0xa8, 0x3c, 0x76, 0xd9, 0x5e, 0xbe, 0x71, 0x23, 0x3b, 0xbd,
  0x02, 0xe7, 0x9e, 0xbd, 0x15, 0xc4, 0x59, 0x3d, 0xe0, 0x36, 0x49, 0x3b,
  0x98, 0x68, 0xa0, 0xbd, 0x8a, 0xfe, 0xcb, 0xbd, 0x36, 0x9a, 0x3d, 0x3e,
  0x7d, 0xe1, 0x81, 0xbe, 0x9d, 0xa9, 0x59, 0xbe, 0x38, 0xe4, 0x11, 0xbe,
  0x17, 0x87, 0x16, 0x3e, 0x67, 0x9e, 0xbb, 0x3d, 0x62, 0x9a, 0xd2, 0x3d,
  0x90, 0xaf, 0xee, 0x3d, 0x82, 0xbf, 0x0e, 0xbf, 0x2d, 0x46, 0x84, 0xbe,
  0x25, 0x0c, 0x1c, 0x40, 0x4d, 0x4a, 0x4c, 0xbe, 0x11, 0x0d, 0xaa, 0xbd,
  0xf8, 0xc4, 0x22, 0x3d, 0xe2, 0xe9, 0xe9, 0xbd, 0x2a, 0xd2, 0x8d, 0x3d,
  0xcc, 0xee, 0x42, 0x3e, 0xbc, 0xcd, 0x55, 0xbe, 0x65, 0x92, 0x02, 0xbe,
  0x7f, 0xbb, 0x69, 0xbc, 0xbf, 0x9e, 0xb1, 0xbd, 0x66, 0xe9, 0xc2, 0xbc,
  0x1a, 0x44, 0x3a, 0x3e, 0x28, 0xfc, 0x92, 0x3d, 0x1d, 0xcf, 0x51, 0xbe,
  0x34, 0x52, 0x7a, 0xbe, 0xbc, 0xaa, 0x00, 0x40, 0xbc, 0x45, 0x3d, 0xbd,
  0xe4, 0x84, 0xc1, 0x3e, 0x60, 0x01, 0x19, 0xbd, 0xa8, 0xa7, 0x48, 0xbe,
  0xcf, 0xc6, 0x87, 0x3d, 0x1e, 0x36, 0xb1, 0x3d, 0x77, 0x1c, 0xb7, 0x3e,
  0x79, 0x7f, 0x22, 0xbe, 0xef, 0xe8, 0xa3, 0x3d, 0x8f, 0xa2, 0x1a, 0xbe,
  0x20, 0x5f, 0xfd, 0xbd, 0x2d, 0x3a, 0xaa, 0x3c, 0x27, 0xb4, 0xb8, 0x3d,
  0x24, 0xd6, 0xf4, 0xbd, 0x19, 0x2d, 0x94, 0xbe, 0x22, 0x69, 0x15, 0x40,
  0xa5, 0x8a, 0x26, 0xbe, 0x7c, 0x65, 0x10, 0x3f, 0x71, 0xf6, 0x27, 0xbe,
  0x19, 0x8d, 0x3c, 0xbe, 0xe9, 0xad, 0xd8, 0x3d, 0x23, 0xa1, 0xbb, 0xbd,
  0x93, 0x18, 0x1f, 0xbd, 0x58, 0xc8, 0x98, 0xbe, 0xfd, 0x5a, 0x7f, 0xbe,
  0x5a, 0x7a, 0xb2, 0x3c, 0xff, 0xed, 0x29, 0x3e, 0xf7, 0x5f, 0x2c, 0x3b,
  0x6a, 0x17, 0x0b, 0x3f, 0x90, 0x38, 0x60, 0xbd, 0xbc, 0x9e, 0x89, 0xbe,
  0xc3, 0x19, 0x61, 0x40, 0x17, 0xec, 0xcc, 0xbe, 0x3d, 0x49, 0x34, 0x3f,
  0xee, 0xdc, 0xcd, 0x3d, 0x9a, 0x28, 0x29, 0x3d, 0xfb, 0x00, 0x32, 0xbe,
  0x15, 0xa1, 0xd5, 0x3d, 0xe8, 0x7e, 0x0b, 0xbd, 0x6e, 0xcd, 0x9f, 0xbe,
  0xa7, 0x17, 0xb8, 0x3d, 0x08, 0xa1, 0xca, 0x3c, 0x25, 0xde, 0x82, 0x3d,
  0x77, 0x93, 0xe9, 0xbd, 0x78, 0x3f, 0x86, 0x3e, 0xbf, 0xe4, 0xd7, 0x3d,
  0x40, 0x79, 0x62, 0xbe, 0x5e, 0xb9, 0xc3, 0x3f, 0x4f, 0xaf, 0xb1, 0xbe,
  0x38, 0x82, 0xdb, 0x3e, 0x2b, 0x8f, 0x25, 0xbc, 0xd5, 0x35, 0x54, 0xbe,
  0xc0, 0x50, 0x83, 0xbd, 0x00, 0x02, 0xcb, 0x3e, 0xed, 0x96, 0xad, 0xbe,
  0x84, 0x1f, 0xb3, 0xbe, 0x0f, 0xa9, 0xa1, 0xbc, 0x0f, 0xd3, 0x15, 0x3e,
  0x06, 0x70, 0xfa, 0xbc, 0x4a, 0xc1, 0xc9, 0x3d, 0x36, 0xe1, 0x9f, 0xbc,
  0xf8, 0x74, 0x80, 0xbd, 0xc3, 0x09, 0xd4, 0xbe, 0x16, 0x3b, 0x64, 0x40,
  0x06, 0x40, 0xb0, 0xbe, 0x83, 0xaa, 0x67, 0x3e, 0xfa, 0xac, 0x90, 0x3e,
  0xcc, 0x42, 0x43, 0xbe, 0xc1, 0x1d, 0x09, 0xbf, 0x62, 0x08, 0x58, 0xbe,
  0x3d, 0x04, 0x8e, 0xbe, 0xa0, 0x64, 0xc7, 0xbe, 0xc9, 0xa1, 0x88, 0xbd,
  0x13, 0x18, 0x97, 0xbe, 0xb4, 0x09, 0x9c, 0xbd, 0xe6, 0x77, 0x9f, 0xbe,
  0xb8, 0x1e, 0x95, 0x3d, 0xf3, 0x30, 0xd7, 0x3c, 0xe7, 0x2d, 0xe0, 0xbe,
  0x30, 0x41, 0x0b, 0x40, 0xc7, 0x5d, 0x9e, 0xbe, 0x0d, 0xd6, 0x92, 0x3e,
  0x16, 0x72, 0x28, 0xbe, 0xac, 0x57, 0x1e, 0x3d, 0x9a, 0x11, 0x95, 0x3d,
  0xda, 0x99, 0x10, 0x3d, 0xbb, 0x83, 0x8c, 0x38, 0xce, 0xf1, 0xa8, 0x3d,
  0x02, 0x5e, 0x38, 0xbe, 0x2b, 0xa5, 0x47, 0x3e, 0x92, 0x5c, 0xdb, 0x3d,
  0x07, 0xd6, 0xac, 0x3e, 0x97, 0x8c, 0xa0, 0x3d, 0x29, 0xba, 0x2e, 0xbd,
  0x40, 0xa2, 0xd1, 0x3d, 0x90, 0xca, 0xb1, 0x3e, 0x39, 0x41, 0x34, 0x3d,
  0xf7, 0xc4, 0x1d, 0x3d, 0xaf, 0x06, 0xf7, 0x3d, 0x85, 0x5f, 0x9e, 0xbd,
  0x26, 0x5f, 0x0c, 0xbe, 0x2f, 0x13, 0xb6, 0x3d, 0xbc, 0x1f, 0x5a, 0x3c,
  0x5a, 0x39, 0x4e, 0xbe, 0x9b, 0x12, 0x21, 0xbe, 0x35, 0x16, 0xac, 0xbd,
  0x28, 0xd7, 0x81, 0x3d, 0x00, 0x11, 0x87, 0xbd, 0x0e, 0xcf, 0x0c, 0xbe,
  0x9c, 0xd6, 0xb6, 0xbd, 0x49, 0x8d, 0x3a, 0xbe, 0x23, 0x82, 0xa6, 0x3e,
  0x04, 0xa8, 0x39, 0xbe, 0xed, 0xff, 0x83, 0xbd, 0x0c, 0x7c, 0x11, 0x3c,
  0xbf, 0xe3, 0x14, 0x3c, 0x3d, 0x4e, 0xde, 0x3d, 0x0f, 0xb7, 0x1e, 0x3e,
  0xe1, 0x80, 0x80, 0xbe, 0x51, 0xec, 0x06, 0xbe, 0x13, 0xea, 0x1b, 0x3b,
  0xe4, 0x76, 0x0d, 0xbe, 0xcc, 0xa1, 0x10, 0xbe, 0x22, 0xc2, 0x05, 0x3d,
  0x58, 0x38, 0x43, 0xbe, 0x07, 0xa0, 0xe2, 0x3d, 0xb3, 0x09, 0x11, 0xbe,
  0xfa, 0x8c, 0x08, 0x3f, 0xdd, 0x81, 0x2b, 0xbe, 0x2c, 0x5d, 0x75, 0x3c,
  0x6c, 0xab, 0x66, 0xbe, 0x1a, 0xbf, 0x81, 0xbd, 0x2d, 0x7f, 0x35, 0xbe,
  0x82, 0x7f, 0xa0, 0xbe, 0x83, 0x5e, 0x36, 0x3d, 0xb3, 0x08, 0xa2, 0xbd,
  0x88, 0xba, 0xbc, 0xbc, 0x7d, 0x87, 0xc9, 0xbd, 0xa9, 0x00, 0xee, 0xbd,
  0xf7, 0x90, 0x13, 0x3d, 0xa3, 0x65, 0xae, 0xbe, 0xe9, 0x67, 0x22, 0x3d,
  0x21, 0x8c, 0xa5, 0xbc, 0x44, 0x2f, 0x19, 0x3f, 0x8d, 0x7f, 0x69, 0xbd,
  0xb9, 0xb5, 0xd6, 0x3d, 0x97, 0x0d, 0xb8, 0xbe, 0x25, 0xf4, 0xdf, 0xbc,
  0xa0, 0x9d, 0xbd, 0x3d, 0xc2, 0x7b, 0x8f, 0xbe, 0xfa, 0x37, 0x8b, 0x3e,
  0xa8, 0x10, 0x24, 0x3d, 0x46, 0x73, 0xe2, 0xbd, 0xe6, 0x5e, 0x23, 0xbd,
  0x13, 0x2b, 0x2e, 0xbd, 0x27, 0x7e, 0xc5, 0x3d, 0x40, 0xaa, 0xad, 0x3d,
  0xe2, 0xf4, 0x8e, 0xbc, 0xb8, 0x86, 0x22, 0xbd, 0xff, 0xef, 0x30, 0x3f,
  0xf9, 0xa4, 0x24, 0xbd, 0x1d, 0xcb, 0x16, 0xbc, 0xd8, 0x68, 0x8e, 0xbe,
  0x3d, 0x4d, 0xef, 0x3d, 0x59, 0x10, 0x09, 0xbe, 0x23, 0xf6, 0x63, 0xbe,
  0x84, 0x35, 0x33, 0xbe, 0xef, 0x87, 0xa2, 0xbc, 0x10, 0xe9, 0x44, 0xbd,
  0xb2, 0x6c, 0x94, 0xbc, 0x34, 0x20, 0xb5, 0xbd, 0xa3, 0x6c, 0xe8, 0x3c,
  0x14, 0x9e, 0x0b, 0x3d, 0xf5, 0xc2, 0x5e, 0xbc, 0x3e, 0xc6, 0x09, 0xbe,
  0xb5, 0xfe, 0xe4, 0x3e, 0x2c, 0xad, 0xba, 0xbd, 0x7f, 0x13, 0xac, 0xbe,
  0x7d, 0xc0, 0x91, 0xbe, 0xb1, 0xb3, 0xb8, 0x3c, 0x8f, 0x08, 0x05, 0xbe,
  0x11, 0xbc, 0x35, 0xbe, 0x3a, 0x06, 0xb1, 0x3e, 0x60, 0x1e, 0x37, 0xbc,
  0x98, 0x9d, 0xd3, 0xbc, 0x72, 0x1c, 0x8e, 0xbd, 0x2d, 0x9d, 0x9e, 0xbb,
  0x49, 0x95, 0xdd, 0x3d, 0x4c, 0xd2, 0xb6, 0xbd, 0xff, 0xd4, 0xbf, 0xbd,
  0xff, 0x4e, 0xd8, 0xbc, 0x2d, 0x73, 0x38, 0x3f, 0x77, 0x21, 0x76, 0xbd,
  0xc9, 0x1e, 0x1b, 0x3d, 0x89, 0x0a, 0x60, 0xbe, 0x5f, 0xae, 0x0b, 0xbf,
  0x33, 0x65, 0x85, 0x3e, 0x2c, 0x48, 0x8a, 0x3e, 0x3d, 0xbc, 0x0f, 0xbe,
  0x01, 0xa3, 0x99, 0xbe, 0xb7, 0x1b, 0xd3, 0x3e, 0x9e, 0xd7, 0xdd, 0xbc,
  0xce, 0x04, 0x41, 0x3d, 0xec, 0xbb, 0x97, 0xbe, 0xbc, 0x95, 0xaf, 0x3d,
  0x0e, 0x7e, 0x27, 0xbf, 0x13, 0x54, 0xc6, 0xbe, 0x3f, 0x31, 0xc1, 0x3f,
  0x3b, 0xa5, 0x9c, 0xbe, 0x2b, 0x73, 0x67, 0xbd, 0x3a, 0xf3, 0xab, 0xbd,
  0x3f, 0xf8, 0xd0, 0x3c, 0x81, 0x11, 0xd9, 0x3e, 0xad, 0xc1, 0x4f, 0x3e,
  0x1d, 0x1a, 0x2c, 0xbe, 0x6c, 0x06, 0x77, 0x3d, 0x9c, 0xca, 0x83, 0x3e,
  0xa8, 0x84, 0x80, 0x3e, 0x11, 0x68, 0x14, 0xbd, 0xce, 0x6a, 0xa9, 0x3e,
  0x55, 0x48, 0x86, 0xbd, 0x1a, 0xbc, 0xf0, 0xbb, 0x54, 0x3c, 0xf9, 0x3d,
  0x7e, 0x75, 0xce, 0x3f, 0x37, 0x14, 0x86, 0x3c, 0xd9, 0x5f, 0x9f, 0x3d,
  0x0e, 0x75, 0x8e, 0xbe, 0xf0, 0xee, 0xed, 0x3d, 0x1f, 0x6e, 0x0c, 0x3c,
  0x63, 0x0b, 0x04, 0x3d, 0x04, 0x45, 0x72, 0xbe, 0xe4, 0xcb, 0x1e, 0x3e,
  0xad, 0x63, 0x58, 0xbe, 0xa3, 0xb8, 0x74, 0x3e, 0x5f, 0x8b, 0x9c, 0xbd,
  0xdf, 0x6b, 0x3e, 0x3e, 0xdd, 0x6b, 0xf5, 0x3d, 0x8c, 0x19, 0x23, 0x3e,
  0x12, 0x7b, 0x0f, 0x3e, 0x83, 0xe4, 0xd3, 0x3f, 0x34, 0xa9, 0xe2, 0xbc,
  0xfc, 0xbd, 0x33, 0x3e, 0x6c, 0x46, 0x16, 0xbe, 0xd2, 0x13, 0x83, 0x3e,
  0x73, 0x51, 0x3b, 0xbd, 0x9d, 0x98, 0x95, 0xbd, 0x8a, 0x99, 0x87, 0xbd,
  0x3d, 0xb8, 0xcb, 0x3d, 0x08, 0xf7, 0xd4, 0xbe, 0x45, 0xea, 0x31, 0x3e,
  0xf1, 0x09, 0x4a, 0xba, 0xeb, 0x69, 0xd0, 0x3d, 0x04, 0x8f, 0xef, 0x3d,
  0xcc, 0x8d, 0xed, 0x3c, 0x88, 0xf9, 0x3e, 0x3d, 0xee, 0x13, 0x01, 0x40,
  0x93, 0x5c, 0x06, 0x3a, 0xd3, 0x43, 0xb3, 0x3d, 0x67, 0x02, 0x6d, 0xbc,
  0x27, 0xda, 0xe8, 0x3d, 0x59, 0x08, 0x50, 0xbe, 0x54, 0x68, 0x38, 0x3e,
  0xc2, 0xaa, 0x86, 0xbe, 0x37, 0x5c, 0xe1, 0xbb, 0xff, 0x52, 0xa5, 0xbe,
  0x84, 0xe8, 0x1e, 0x3d, 0x60, 0x79, 0x7c, 0x3d, 0x97, 0x00, 0xf9, 0xbb,
  0x2c, 0x03, 0xd0, 0x3d, 0x01, 0x74, 0x17, 0x3e, 0x4d, 0xca, 0x54, 0xbe,
  0x93, 0x76, 0xee, 0x3f, 0xaf, 0x26, 0x0f, 0xbd, 0x90, 0xcd, 0xb5, 0x3d,
  0x77, 0xe3, 0x3f, 0xbe, 0xaa, 0x34, 0x02, 0xbc, 0x8f, 0xd1, 0x6e, 0x3d,
  0x0e, 0xd9, 0x57, 0x3e, 0xa0, 0x06, 0xa6, 0xbe, 0xc6, 0x2e, 0x49, 0xbe,
  0x22, 0x06, 0xc5, 0x3e, 0xdf, 0xfb, 0x3a, 0x3b, 0x83, 0x76, 0xc7, 0x3c,
  0x5b, 0x34, 0x22, 0xbe, 0x57, 0x1d, 0xc7, 0x3d, 0xb3, 0xff, 0x46, 0xbc,
  0xda, 0x85, 0x59, 0xbe, 0x49, 0xcf, 0xcf, 0x3f, 0x53, 0x3b, 0x6b, 0xbe,
  0x7c, 0x7a, 0x00, 0x3d, 0x24, 0x48, 0x51, 0x3d, 0x3e, 0x31, 0x30, 0x3b,
  0x71, 0x6d, 0x8e, 0xbd, 0xf9, 0xc5, 0x15, 0x3e, 0x64, 0x9c, 0x57, 0xbe,
  0x18, 0xc1, 0x47, 0xbd, 0x26, 0x45, 0x4f, 0x3e, 0x24, 0x12, 0x97, 0x3c,
  0x99, 0x12, 0xe1, 0xbc, 0x5a, 0x31, 0xf5, 0xbd, 0x20, 0x7b, 0xb3, 0x3d,
  0x90, 0xbd, 0x9c, 0x3d, 0xec, 0xe2, 0x96, 0xbd, 0xa4, 0x3b, 0xab, 0x3f,
  0xd4, 0x67, 0xb5, 0xbd, 0xae, 0xd4, 0x4d, 0xbb, 0xcc, 0x69, 0xca, 0xbd,
  0x00, 0xc6, 0x1c, 0xbc, 0xb9, 0x51, 0x9c, 0x3c, 0xfe, 0x02, 0x3a, 0xbe,
  0x0a, 0x7b, 0x02, 0x3d, 0x94, 0x34, 0x93, 0x3b, 0x8a, 0x12, 0x19, 0x3c,
  0x8c, 0x72, 0x51, 0xbd, 0xfb, 0xb8, 0x99, 0xbe, 0x27, 0x4e, 0x79, 0x3e,
  0x4e, 0x4a, 0x2e, 0xbf, 0x9b, 0x62, 0xa7, 0x39, 0x12, 0x8c, 0xe3, 0xbc,
  0x1e, 0x90, 0x3b, 0x3e, 0x1c, 0x07, 0x9d, 0x3c, 0x38, 0x5c, 0x43, 0xbe,
  0x6a, 0xb2, 0xa4, 0xbe, 0x71, 0x9b, 0x8d, 0xbc, 0x5b, 0xac, 0x0a, 0x3e,
  0xaa, 0x40, 0x4d, 0xbe, 0x08, 0x93, 0x27, 0x3d, 0x0d, 0x1f, 0x4b, 0xbc,
  0x1f, 0xe1, 0x98, 0xbd, 0x25, 0x5f, 0x56, 0x3d, 0x81, 0xaf, 0x2a, 0xbe,
  0x9f, 0xa6, 0x88, 0x3b, 0x8b, 0x89, 0x83, 0xbe, 0xb7, 0x45, 0x05, 0xbd,
  0x51, 0x65, 0x08, 0xbe, 0xe1, 0x4c, 0x62, 0xbe, 0x16, 0x02, 0xa2, 0xbd,
  0x87, 0x2d, 0x84, 0xbe, 0x97, 0x25, 0x5a, 0xbe, 0xd1, 0x50, 0xf8, 0xbd,
  0x9a, 0xdf, 0x1b, 0x3e, 0x52, 0x9f, 0x95, 0xbe, 0x26, 0x04, 0x9e, 0x3d,
  0x5e, 0x79, 0xde, 0xbc, 0xc7, 0x67, 0x8d, 0xbe, 0xfe, 0xfb, 0xde, 0x3c,
  0xa4, 0xfb, 0xc1, 0xbe, 0x37, 0x3f, 0xa5, 0x3c, 0xfb, 0xce, 0x24, 0xbe,
  0x19, 0x07, 0xc0, 0xbc, 0x78, 0x28, 0xdb, 0x3d, 0xfe, 0xc4, 0x31, 0xbe,
  0x8a, 0xcc, 0x32, 0x3a, 0x05, 0x6c, 0x92, 0xbe, 0x73, 0x50, 0x8a, 0xbe,
  0x6c, 0x48, 0x86, 0xbb, 0x98, 0x98, 0xdd, 0xbb, 0x5a, 0x9b, 0x5e, 0xbe,
  0x4f, 0xdd, 0xde, 0x3b, 0x92, 0xe6, 0x19, 0xbe, 0x88, 0xf6, 0x4b, 0xbe,
  0x31, 0x18, 0xa5, 0xbd, 0xf8, 0x8f, 0x90, 0xbe, 0xec, 0xb2, 0x0a, 0x3e,
  0x21, 0x52, 0xcf, 0xbe, 0x9b, 0x50, 0xd5, 0x3d, 0x7d, 0x59, 0xa8, 0x3d,
  0xbd, 0xef, 0xd6, 0xbd, 0xf4, 0xb1, 0xd6, 0xbd, 0xd1, 0xaa, 0x07, 0xbf,
  0x81, 0x83, 0xa3, 0xbd, 0x72, 0xcb, 0xa1, 0x3d, 0x7f, 0x68, 0x74, 0x3c,
  0x92, 0x67, 0xf9, 0xbe, 0x17, 0xd8, 0x41, 0x3e, 0xc6, 0xce, 0x92, 0x3d,
  0xf0, 0x8e, 0x58, 0x3d, 0xc5, 0xe9, 0x2d, 0xbe, 0x8e, 0x7d, 0x26, 0xbe,
  0x2c, 0xe1, 0xf1, 0xbd, 0x40, 0xbc, 0x1f, 0x3d, 0xec, 0xab, 0xa5, 0x3b,
  0xf1, 0xc4, 0xee, 0x3d, 0x20, 0x23, 0x0e, 0x3c, 0xfa, 0xce, 0x9e, 0xbb,
  0x69, 0xf4, 0x0c, 0x3e, 0xad, 0x6d, 0x55, 0xbb, 0xf0, 0x27, 0xb2, 0x3b,
  0xed, 0x67, 0x70, 0xbd, 0x44, 0xfb, 0x2c, 0xbf, 0x69, 0xc8, 0x76, 0x3e,
  0x06, 0x5c, 0x1f, 0x3e, 0xba, 0x21, 0xe2, 0x3d, 0x28, 0xa0, 0xb3, 0xbe,
  0x84, 0x5b, 0x0e, 0x3d, 0xbf, 0x2b, 0x86, 0xbe, 0xe5, 0xd3, 0x6f, 0x3d,
  0x04, 0x24, 0x14, 0x3d, 0x8a, 0x0c, 0x81, 0x3e, 0x97, 0x9e, 0xac, 0xbd,
  0x4d, 0x4d, 0x51, 0x3d, 0x18, 0xbd, 0xae, 0x3d, 0xca, 0x24, 0xe9, 0xbd,
  0xa6, 0x3d, 0x23, 0xbe, 0x46, 0xd8, 0xb1, 0xbe, 0x4f, 0x04, 0xab, 0xbd,
  0x6c, 0xf7, 0xa5, 0x3e, 0x06, 0x1b, 0x9b, 0x3d, 0x99, 0xab, 0x97, 0xbe,
  0x5c, 0x18, 0xa4, 0xbe, 0x9c, 0x81, 0xa8, 0xbd, 0xe8, 0xc7, 0x05, 0xbf,
  0xa4, 0xed, 0x2a, 0x3d, 0x9b, 0x06, 0x5e, 0xbe, 0x99, 0x62, 0xf1, 0xbc,
  0xaf, 0x13, 0x10, 0x3e, 0x88, 0x8e, 0x8f, 0x3a, 0xc6, 0x79, 0x35, 0x3e,
  0x2f, 0x45, 0x8a, 0xbd, 0xb0, 0xda, 0x21, 0xbe, 0x06, 0x00, 0x83, 0xbe,
  0x55, 0x7a, 0x47, 0xbe, 0xf1, 0x73, 0xac, 0x3b, 0x77, 0xc1, 0x0c, 0xbd,
  0x1b, 0xec, 0x3c, 0xbd, 0x4a, 0x05, 0x53, 0xbe, 0x32, 0x8f, 0x83, 0xbd,
  0xf8, 0x73, 0xab, 0x3d, 0xc5, 0x45, 0x71, 0xbe, 0x10, 0x77, 0x07, 0xbe,
  0x34, 0x71, 0x0c, 0xbe, 0x21, 0x08, 0x6a, 0x3e, 0xe0, 0xc7, 0x24, 0xbe,
  0x20, 0x3c, 0x37, 0xbe, 0x11, 0x0c, 0x7f, 0xbe, 0x86, 0xf8, 0x03, 0xbc,
  0x64, 0x57, 0xf3, 0x3c, 0xdf, 0xc9, 0xe1, 0xbd, 0xf4, 0x38, 0xfa, 0x3d,
  0x45, 0x55, 0x29, 0xbc, 0x51, 0x32, 0xb0, 0x3d, 0x88, 0xcc, 0x6c, 0x3d,
  0x25, 0x47, 0xca, 0xbd, 0xa6, 0x5d, 0x83, 0xbe, 0xba, 0x10, 0x23, 0xb8,
  0x1f, 0x6d, 0x28, 0xbe, 0xac, 0x8f, 0x12, 0xbe, 0xa4, 0xc6, 0x11, 0x3f,
  0x53, 0x4e, 0xed, 0xbd, 0x15, 0x79, 0x6b, 0x3e, 0x51, 0xbd, 0x20, 0x3c,
  0x81, 0xfa, 0x16, 0xbe, 0x68, 0xdf, 0x4c, 0xbe, 0x59, 0xc7, 0xb7, 0xbd,
  0x92, 0xde, 0x52, 0x3e, 0x51, 0xa6, 0xbf, 0xbd, 0xe9, 0xee, 0x26, 0xbc,
  0x9a, 0x1d, 0x9e, 0x3d, 0xf3, 0x29, 0xb2, 0xbd, 0xfa, 0xa7, 0xc6, 0xbd,
  0xec, 0x06, 0x4d, 0x3e, 0x87, 0x6a, 0x88, 0xbe, 0xcc, 0x6d, 0x89, 0xbd,
  0xf8, 0x13, 0xd8, 0x3e, 0xcb, 0x24, 0x1a, 0xbd, 0x94, 0xe8, 0x02, 0x3e,
  0xc3, 0xbf, 0xea, 0x3c, 0x46, 0x12, 0xe6, 0xbd, 0xa3, 0x2b, 0x1b, 0x3e,
  0xfc, 0xb3, 0x8a, 0xbe, 0x59, 0x18, 0x7e, 0x3d, 0x64, 0x27, 0xd7, 0xbd,
  0x12, 0xe7, 0x4b, 0x3d, 0x66, 0x5a, 0xf1, 0x3d, 0x27, 0xe2, 0xa1, 0x3b,
  0xce, 0x85, 0xce, 0xbc, 0x9b, 0xca, 0x24, 0x3e, 0xe7, 0x4c, 0x8a, 0xbe,
  0x33, 0xf3, 0x6a, 0x3b, 0x4b, 0x45, 0xf9, 0x3e, 0x4b, 0x3c, 0x21, 0x3d,
  0xf4, 0x76, 0x05, 0x3e, 0xf6, 0xec, 0x13, 0x3d, 0x45, 0x00, 0x99, 0xbc,
  0xa3, 0x0a, 0x85, 0xba, 0xc6, 0xf5, 0x22, 0x3e, 0xf8, 0xfb, 0x5f, 0xbe,
  0x38, 0xde, 0x15, 0x3d, 0x8e, 0x5b, 0xe6, 0x3c, 0xa8, 0xf0, 0x66, 0xbd,
  0xef, 0x21, 0xa3, 0x3d, 0x16, 0xe1, 0x34, 0x3e, 0x60, 0xc9, 0xf5, 0x3c,
  0xf3, 0x2d, 0xfc, 0x3a, 0xb8, 0xe0, 0x56, 0xbc, 0x37, 0xdb, 0xdd, 0x3e,
  0x26, 0x40, 0xcd, 0xbd, 0x58, 0x8d, 0xce, 0x3c, 0x05, 0x58, 0x8c, 0x3d,
  0x8f, 0xd1, 0xc2, 0xbd, 0x3a, 0x20, 0xa0, 0x3d, 0xf6, 0xfa, 0x05, 0x3e,
  0x42, 0xfd, 0x27, 0xbe, 0xa6, 0x06, 0x40, 0xbe, 0x87, 0x4d, 0xff, 0xbd,
  0x7f, 0x98, 0x0b, 0xbe, 0xe2, 0x6c, 0x21, 0xbb, 0xe6, 0x5f, 0x5c, 0x3c,
  0x74, 0x65, 0x10, 0x3e, 0xe6, 0x7d, 0x6d, 0xbe, 0xaa, 0x3d, 0x33, 0xbe,
  0x2f, 0x19, 0xb9, 0x3e, 0x00, 0x53, 0x5b, 0xbe, 0x76, 0x2e, 0x3c, 0x3d,
  0x42, 0xeb, 0xf3, 0xbd, 0x61, 0xad, 0x8e, 0xbd, 0x6a, 0xdf, 0x6b, 0xbd,
  0x1b, 0xf3, 0x9a, 0x3d, 0x08, 0x07, 0xbc, 0xbb, 0x1f, 0xa6, 0x80, 0xbe,
  0xf5, 0x69, 0x75, 0xbd, 0x82, 0xa5, 0x6a, 0xbe, 0xf3, 0x04, 0x10, 0xbd,
  0x6a, 0x42, 0xc7, 0x3c, 0xf0, 0xfe, 0x04, 0x3e, 0x69, 0x55, 0x4d, 0xbe,
  0xc7, 0x64, 0xea, 0xbd, 0xeb, 0x75, 0x94, 0x3e, 0x53, 0x0e, 0xe5, 0xbd,
  0x20, 0x15, 0xe3, 0x3d, 0xb0, 0x3f, 0xa3, 0xbd, 0xd1, 0xdf, 0x52, 0x3e,
  0x5d, 0x00, 0x90, 0xbe, 0x90, 0x49, 0x3c, 0xbc, 0xc8, 0xe8, 0x8d, 0xbe,
  0x8a, 0x1c, 0xc5, 0x3c, 0x01, 0x83, 0xa1, 0xbc, 0xba, 0x17, 0x18, 0xbd,
  0x7c, 0x49, 0x5d, 0xbf, 0x71, 0x3e, 0x94, 0xbd, 0xc9, 0xda, 0x74, 0xbe,
  0xe3, 0xe1, 0xe8, 0x3e, 0x9e, 0xbe, 0x63, 0x3d, 0x86, 0x06, 0x40, 0x3e,
  0x42, 0x76, 0x3e, 0xbe, 0x6e, 0xf7, 0xd0, 0x3d, 0xd7, 0x55, 0x4c, 0x3e,
  0x91, 0x99, 0x4e, 0x3e, 0xad, 0xfc, 0xc5, 0xbd, 0x99, 0x74, 0x89, 0x3c,
  0xe5, 0x3f, 0x55, 0xbe, 0xb6, 0xca, 0x95, 0x3c, 0x00, 0xf2, 0xd7, 0x3c,
  0xa2, 0x38, 0x08, 0xbd, 0x76, 0x4d, 0xf5, 0xbe, 0xbd, 0x17, 0x86, 0xbe,
  0x40, 0x43, 0xb5, 0x3c, 0xcc, 0x11, 0xa9, 0xbd, 0x6c, 0x9c, 0xe2, 0x3c,
  0x67, 0xac, 0x04, 0x3e, 0x30, 0xb1, 0x15, 0xbe, 0x5a, 0xd1, 0xfd, 0xbe,
  0x5f, 0xd6, 0x8f, 0x3e, 0x5f, 0xe2, 0x01, 0xbe, 0x46, 0xaf, 0xc4, 0xbd,
  0xd5, 0xd7, 0x3f, 0x3e, 0xee, 0x99, 0xb0, 0xbd, 0x97, 0x07, 0xa9, 0x3c,
  0x29, 0x30, 0x7a, 0x3d, 0x8a, 0xe2, 0x1a, 0x3d, 0xbc, 0x94, 0x43, 0xbe,
  0x5c, 0x3d, 0x07, 0xbe, 0xd7, 0x73, 0xff, 0xbd, 0xd3, 0xc7, 0x1f, 0x3d,
  0x03, 0xfe, 0x30, 0xbd, 0xec, 0xb0, 0x19, 0x3e, 0x94, 0x25, 0x3b, 0xbe,
  0x30, 0xb3, 0x01, 0xbf, 0x21, 0x7a, 0x97, 0x3d, 0x0c, 0x4a, 0xa2, 0x3c,
  0xd0, 0x3a, 0xc9, 0xbe, 0x8a, 0x92, 0x4d, 0x3d, 0xa5, 0xfb, 0x8e, 0xbe,
  0xb8, 0x17, 0x19, 0x3d, 0x43, 0x2f, 0x09, 0x3e, 0x69, 0x8b, 0x52, 0x3e,
  0x51, 0xf4, 0x76, 0xbe, 0x6f, 0x4c, 0x6c, 0xbc, 0xb6, 0x99, 0xf2, 0xbd,
  0x1a, 0x96, 0xb6, 0x3d, 0x82, 0x60, 0x66, 0x3d, 0x5a, 0x40, 0x30, 0xbc,
  0x2b, 0x63, 0xf3, 0xbd, 0x91, 0x6b, 0x05, 0xbf, 0xae, 0x94, 0xf5, 0x3d,
  0x8b, 0x27, 0x05, 0x3e, 0xee, 0x9a, 0x59, 0xbe, 0xec, 0xda, 0xba, 0x3d,
  0x7f, 0xf2, 0x9a, 0xbc, 0xc3, 0x3d, 0x60, 0xbd, 0xd1, 0x26, 0x4f, 0xbd,
  0x4c, 0x78, 0x0e, 0x3d, 0x81, 0x92, 0x31, 0xbe, 0x8f, 0xaf, 0x71, 0x3c,
  0x8f, 0x96, 0x6a, 0xbd, 0xe0, 0x44, 0x30, 0x3d, 0xde, 0xe9, 0x8e, 0x3c,
  0xd6, 0x12, 0xfd, 0xbd, 0x16, 0x24, 0xc7, 0xbd, 0xce, 0x87, 0x0e, 0xbf,
  0x73, 0x4d, 0xce, 0x3c, 0x2f, 0x1a, 0x5c, 0x3d, 0x6e, 0x49, 0x43, 0xbe,
  0x84, 0x3e, 0xa9, 0x3d, 0x3a, 0x0c, 0x52, 0x3d, 0xf9, 0x4a, 0x31, 0xbd,
  0x71, 0x09, 0x7e, 0x3d, 0xb7, 0x67, 0x59, 0x3e, 0xbe, 0x2e, 0x1f, 0xbe,
  0x2f, 0x05, 0x23, 0xbe, 0x2f, 0x6e, 0x45, 0xbe, 0x63, 0xe9, 0xe8, 0x3c,
  0x06, 0xd9, 0x59, 0xbe, 0x10, 0x26, 0x45, 0xbe, 0x3c, 0x18, 0xd5, 0xbd,
  0x56, 0xf6, 0xc6, 0xbe, 0x13, 0x10, 0x1e, 0x3e, 0xb6, 0x6e, 0xe5, 0x3d,
  0xe5, 0xe3, 0xf5, 0x3c, 0x7f, 0x0d, 0x11, 0xbd, 0xf8, 0xef, 0xbb, 0xbe,
  0xf5, 0x36, 0x25, 0x3d, 0x4c, 0x1c, 0x88, 0xbe, 0x1c, 0xac, 0x0f, 0xbd,
  0x2b, 0x8b, 0x1e, 0x3d, 0xd3, 0x67, 0x15, 0xbf, 0xc6, 0x01, 0x37, 0xbe,
  0xd6, 0x5b, 0x6c, 0xbd, 0x90, 0xeb, 0xd9, 0xbe, 0x15, 0x49, 0xc0, 0x3d,
  0x2c, 0x8a, 0x03, 0xbe, 0xc4, 0x09, 0xed, 0xbd, 0xaf, 0x6b, 0x14, 0x3d,
  0x44, 0x99, 0x45, 0xbf, 0x43, 0xc1, 0x07, 0x3e, 0x76, 0x69, 0x17, 0x3d,
  0xf2, 0x24, 0x54, 0xbe, 0xd3, 0x72, 0x2a, 0xbf, 0xcb, 0x2f, 0xd4, 0x3e,
  0x0a, 0x65, 0xa1, 0xbe, 0xae, 0xef, 0xb6, 0xbd, 0xeb, 0x77, 0x3c, 0xbf,
  0x94, 0x4d, 0x73, 0xbd, 0x16, 0x2b, 0x4b, 0xbf, 0x89, 0x3c, 0x3b, 0xbe,
  0xeb, 0x1b, 0x7a, 0x3c, 0x00, 0x99, 0x15, 0xbf, 0xa2, 0xfb, 0xb6, 0xbe,
  0x5b, 0xbb, 0x0e, 0xbf, 0x5c, 0x7b, 0xfa, 0xbd, 0x18, 0xda, 0xc6, 0x3d,
  0x96, 0x6e, 0xe1, 0xbc, 0x25, 0x00, 0x3b, 0xbc, 0x13, 0x14, 0x0b, 0x3e,
  0xaa, 0x78, 0x90, 0x3e, 0xfb, 0xdf, 0x8d, 0x3e, 0x34, 0x7f, 0xf8, 0xbd,
  0xd1, 0x6e, 0x14, 0x3f, 0xcc, 0x1f, 0xff, 0x3d, 0x0a, 0xfd, 0x8c, 0xbd,
  0x81, 0x6f, 0x14, 0x3e, 0xb4, 0x55, 0x3b, 0x3d, 0xf2, 0x84, 0xa4, 0xbb,
  0x88, 0xfb, 0x2c, 0x3d, 0xf4, 0xc2, 0x29, 0xbe, 0x65, 0xd3, 0xbd, 0x3e,
  0x2c, 0x53, 0xf9, 0x3d, 0xd9, 0xa5, 0x0c, 0xbd, 0x7a, 0x9c, 0x5d, 0xbe,
  0xd8, 0x88, 0x6a, 0x3e, 0x15, 0x6f, 0x69, 0x3e, 0xf9, 0x9c, 0xf5, 0x3d,
  0x5c, 0xf2, 0x98, 0xbd, 0x91, 0xd5, 0x98, 0x3e, 0xa8, 0x01, 0xf7, 0x3d,
  0xdd, 0xb5, 0x17, 0xbd, 0x2e, 0xf9, 0x4e, 0xbc, 0x6d, 0x7e, 0xfc, 0xbd,
  0x60, 0x31, 0xee, 0x3d, 0xa3, 0xd8, 0xad, 0xbb, 0x21, 0xea, 0x50, 0x3c,
  0x10, 0x48, 0x69, 0xbd, 0x45, 0x39, 0x00, 0xbe, 0x82, 0x7e, 0x52, 0x3e,
  0x4a, 0x4a, 0x0a, 0xbc, 0x4f, 0xe2, 0x63, 0xbb, 0x75, 0x8c, 0xab, 0x3e,
  0x7f, 0x3f, 0xab, 0x3d, 0x71, 0x84, 0x93, 0xbd, 0xcd, 0xc8, 0xaf, 0x3d,
  0xd8, 0xd5, 0x81, 0xbd, 0x40, 0x4b, 0xfc, 0x3d, 0x7a, 0xbf, 0xd2, 0xbd,
  0x95, 0x22, 0x16, 0x3c, 0xf5, 0x5a, 0x99, 0xba, 0xe2, 0xac, 0xb9, 0xbd,
  0x88, 0x6e, 0x9e, 0xbd, 0x96, 0xc8, 0x8f, 0x3d, 0x1e, 0x3c, 0x0c, 0x3d,
  0x66, 0x8f, 0xec, 0x3d, 0xad, 0x36, 0x0a, 0xbe, 0x8b, 0x27, 0xc7, 0xbd,
  0x32, 0x69, 0xf2, 0x3e, 0x40, 0xd2, 0x48, 0x3e, 0x88, 0x3e, 0xfb, 0xbd,
  0x3f, 0x60, 0xeb, 0xbd, 0x45, 0xb9, 0x7a, 0x3b, 0x21, 0xcf, 0x25, 0x3d,
  0xda, 0xc1, 0x72, 0xbc, 0x08, 0x87, 0xa6, 0xbe, 0x45, 0xca, 0xdd, 0xbd,
  0xa1, 0x51, 0x8b, 0x3c, 0x5c, 0xb0, 0x58, 0xbe, 0x3a, 0x82, 0xcd, 0x3d,
  0xc3, 0x87, 0x21, 0x3e, 0x97, 0xda, 0x62, 0x3e, 0x9b, 0x99, 0x84, 0xbe,
  0xef, 0xf8, 0x9b, 0x3c, 0xcd, 0x3a, 0x39, 0x3d, 0x96, 0xbb, 0x4b, 0x3e,
  0x9e, 0xa7, 0x70, 0xbe, 0x1d, 0x1e, 0x79, 0x3e, 0x5a, 0xdc, 0x89, 0xbd,
  0xc4, 0x95, 0x83, 0x3d, 0xbf, 0xa0, 0xba, 0xbd, 0xe6, 0x85, 0xfa, 0x3c,
  0x54, 0x30, 0x5b, 0x3d, 0x6d, 0xfa, 0x23, 0xbe, 0xc7, 0x09, 0x3a, 0xbe,
  0x6d, 0x36, 0x02, 0x3e, 0x6d, 0xbb, 0x37, 0x3d, 0x95, 0x33, 0x1f, 0x3c,
  0x88, 0x17, 0xcd, 0xbd, 0xa8, 0x6b, 0x0a, 0x3e, 0xf3, 0x7a, 0xbd, 0xbe,
  0x2d, 0x58, 0xd9, 0x3c, 0x8b, 0x73, 0x2c, 0xbe, 0x10, 0x70, 0xbd, 0x3d,
  0x27, 0x32, 0xe6, 0xbd, 0x44, 0x63, 0x12, 0x3e, 0x5e, 0xbe, 0xb2, 0xbd,
  0xe5, 0x19, 0x35, 0xbd, 0xcd, 0x6e, 0x3e, 0x3d, 0xe5, 0xc6, 0x0e, 0xbd,
  0x82, 0xbd, 0xa8, 0x3c, 0xdd, 0xf2, 0xac, 0xbd, 0x84, 0x9b, 0xcb, 0x3e,
  0x39, 0xa4, 0x2e, 0x3e, 0x7c, 0xd4, 0xaf, 0x3d, 0xac, 0x02, 0x78, 0x3d,
  0xf2, 0xda, 0x32, 0xbe, 0xf7, 0x56, 0xbd, 0x3e, 0xcf, 0xb4, 0xa4, 0x3c,
  0x1a, 0xb6, 0xab, 0x3e, 0x20, 0xcc, 0xa9, 0x3d, 0xe8, 0x57, 0x9e, 0xbd,
  0x43, 0x44, 0xc8, 0x3d, 0xe9, 0x46, 0x70, 0x3f, 0x33, 0xeb, 0x91, 0xbc,
  0x1c, 0xe5, 0x62, 0x3d, 0xb5, 0x17, 0x1d, 0xbe, 0x55, 0x9e, 0x86, 0xbd,
  0x65, 0x93, 0x8a, 0xbd, 0xcb, 0x1f, 0x48, 0x3e, 0xcc, 0xe9, 0x95, 0x3e,
  0xa8, 0xa9, 0xf9, 0xbc, 0x64, 0xbd, 0xbe, 0xbc, 0xd0, 0x00, 0x21, 0xbe,
  0xf7, 0xa2, 0x2a, 0x3d, 0x8f, 0xc1, 0x12, 0xbe, 0x28, 0xb2, 0xa5, 0x3d,
  0x85, 0xc1, 0x09, 0xbe, 0x67, 0xcb, 0xe1, 0xbd, 0x32, 0xef, 0x77, 0x3f,
  0x09, 0xce, 0x3b, 0xbd, 0x11, 0x9a, 0xbe, 0x3d, 0xc2, 0x75, 0xc4, 0xbe,
  0xa0, 0xfe, 0x11, 0xbc, 0xbe, 0x1f, 0x2c, 0x3c, 0x68, 0xee, 0x1a, 0xbe,
  0x55, 0x85, 0xd4, 0x3d, 0xd0, 0x64, 0x5a, 0xbd, 0xa6, 0x85, 0x80, 0xbe,
  0xdb, 0x5e, 0xfe, 0xbd, 0x4a, 0xa7, 0xc6, 0xbc, 0x84, 0x12, 0x45, 0x3c,
  0x9c, 0x9e, 0xfd, 0x3d, 0x7a, 0xdd, 0xb4, 0x3d, 0xc5, 0xde, 0xf4, 0xbc,
  0x44, 0x3d, 0x92, 0x3f, 0x9f, 0x4c, 0xc7, 0xbd, 0xce, 0x3e, 0x9b, 0x3d,
  0x28, 0x97, 0x47, 0xbf, 0xd3, 0x21, 0xa0, 0x3d, 0xf5, 0x8a, 0xad, 0x3d,
  0x63, 0xfc, 0xf5, 0xbc, 0x01, 0xd0, 0xd7, 0x3c, 0x6c, 0x90, 0x03, 0xbd,
  0x1b, 0x9d, 0xc0, 0xbd, 0x62, 0x2e, 0x42, 0x3c, 0x20, 0x21, 0xba, 0xbc,
  0xf0, 0xca, 0x40, 0x3d, 0x08, 0xf9, 0xe9, 0x3d, 0xf4, 0x77, 0x4c, 0xbc,
  0x79, 0x48, 0x2e, 0xbe, 0x17, 0xf0, 0x90, 0x3f, 0x5e, 0xc3, 0x9f, 0xbd,
  0x8c, 0xe3, 0xe2, 0xbc, 0x5a, 0x69, 0x20, 0xbe, 0x18, 0xa2, 0x89, 0x3d,
  0xe3, 0xc7, 0x91, 0xbd, 0x6f, 0x97, 0x7d, 0x3d, 0xc9, 0x80, 0x3c, 0x3e,
  0x69, 0x07, 0xb3, 0x3a, 0xe9, 0xe7, 0xc3, 0xbe, 0x57, 0x78, 0x78, 0xbc,
  0x42, 0x55, 0xe7, 0x3b, 0xeb, 0x5f, 0xea, 0x3d, 0xe0, 0x58, 0xaa, 0x3d,
  0x6f, 0xcf, 0x29, 0x3c, 0x4f, 0xea, 0xad, 0xbd, 0x9e, 0xf4, 0x96, 0x3f,
  0x42, 0xda, 0xdf, 0xbd, 0x1e, 0xe7, 0x45, 0x3e, 0x78, 0xa8, 0x67, 0xbe,
  0x84, 0xc1, 0x09, 0x3d, 0xa8, 0x36, 0xb5, 0xbe, 0x17, 0x39, 0xfb, 0xbc,
  0x3c, 0x37, 0x59, 0x3e, 0x71, 0xb6, 0x41, 0xbd, 0x5c, 0x8e, 0x0a, 0xbe,
  0x59, 0x3e, 0x3e, 0xbe, 0xf9, 0x2b, 0x31, 0x3c, 0x1e, 0xf3, 0x09, 0xbe,
  0x9d, 0x30, 0x41, 0x3e, 0xfc, 0x92, 0x1b, 0xbd, 0x36, 0x1a, 0x0f, 0x3e,
  0xd1, 0xca, 0x50, 0x3f, 0xd7, 0x4c, 0x32, 0xbd, 0x07, 0x09, 0x38, 0x3e,
  0xfe, 0xde, 0x6b, 0xbc, 0x3f, 0x0e, 0x6b, 0xbd, 0x24, 0x0f, 0xef, 0xbd,
  0xee, 0xe6, 0xc6, 0x3d, 0xc3, 0x45, 0xc0, 0x3d, 0x35, 0xa7, 0x6c, 0xbd,
  0xa7, 0xbc, 0x3e, 0xbe, 0xfc, 0xc8, 0xe4, 0x3b, 0x2b, 0x9b, 0x7e, 0x3c,
  0x9a, 0xa2, 0x6d, 0xbd, 0xb3, 0xab, 0xc6, 0x3d, 0x90, 0xb0, 0x93, 0xbd,
  0xbb, 0x8b, 0xa9, 0x3e, 0x77, 0xcd, 0x35, 0x3f, 0xf2, 0x21, 0xad, 0xbc,
  0xec, 0x62, 0x40, 0x3e, 0x43, 0x04, 0x9a, 0x3c, 0xea, 0xe6, 0x2d, 0x3d,
  0x6f, 0xb1, 0xf4, 0xbd, 0xc3, 0xd7, 0xdc, 0xbd, 0x76, 0x4a, 0xae, 0x3d,
  0x77, 0xc8, 0x0d, 0xbd, 0x5c, 0x82, 0xd4, 0xbd, 0xbe, 0x35, 0x4b, 0xbe,
  0x8a, 0xf7, 0xc2, 0x3b, 0x5a, 0x30, 0x9a, 0xbd, 0xca, 0x31, 0x06, 0xbe,
  0xb0, 0xbd, 0xda, 0x3d, 0xb0, 0x01, 0xf2, 0xbb, 0xa0, 0xb1, 0xc4, 0xbd,
  0x4f, 0x6b, 0x71, 0xbd, 0x2c, 0xed, 0x20, 0xbb, 0x71, 0x6b, 0x95, 0xbe,
  0x1a, 0xc0, 0x52, 0xbe, 0x0a, 0x43, 0xb9, 0xbd, 0x09, 0x5e, 0x66, 0xbe,
  0x7a, 0xe1, 0xf7, 0x3c, 0xd1, 0x3b, 0x4f, 0xbe, 0x73, 0xb1, 0xad, 0xbc,
  0x0e, 0xe9, 0x9e, 0xbe, 0xc4, 0xdb, 0x21, 0x3d, 0x97, 0x6a, 0x6d, 0xbd,
  0xa9, 0x09, 0x93, 0xbd, 0xc0, 0x8b, 0x9b, 0xbd, 0xe6, 0x83, 0x0b, 0xbe,
  0x71, 0xef, 0x02, 0xbd, 0x5f, 0xea, 0x59, 0x3e, 0x23, 0xc7, 0x0a, 0x3e,
  0xe3, 0x24, 0x65, 0x3d, 0x7c, 0x75, 0x5f, 0xbe, 0x19, 0xd0, 0x88, 0xbe,
  0x45, 0x0a, 0x51, 0xbe, 0x9d, 0x6e, 0xa7, 0x3d, 0xc8, 0x26, 0x0a, 0xbb,
  0x30, 0xe4, 0x12, 0xbe, 0x83, 0x19, 0x53, 0xbe, 0x93, 0x10, 0xe6, 0x3d,
  0x10, 0xae, 0x86, 0xbe, 0x3e, 0x48, 0x36, 0xbd, 0x04, 0x16, 0xa5, 0x3d,
  0x9f, 0x41, 0x95, 0xbd, 0x91, 0x2f, 0xa0, 0xbc, 0x29, 0xfc, 0xb9, 0x3d,
  0x4b, 0x1d, 0x1f, 0xbd, 0x12, 0x9d, 0x95, 0xbd, 0x3b, 0x51, 0x3f, 0xbd,
  0x0f, 0x80, 0x03, 0xbe, 0x11, 0x0c, 0x83, 0xbd, 0x41, 0xaa, 0x2f, 0x3e,
  0x32, 0xe8, 0x4b, 0xbe, 0xa5, 0x41, 0xb1, 0xbe, 0x59, 0x23, 0x13, 0x3d,
  0x30, 0x4d, 0xf4, 0x3d, 0x89, 0x37, 0x52, 0x3e, 0xb1, 0x26, 0xf3, 0x3c,
  0x98, 0x2f, 0x43, 0xbd, 0x31, 0x39, 0x4c, 0xbe, 0x17, 0x2e, 0x71, 0xbd,
  0x26, 0x41, 0x30, 0x3e, 0xa8, 0x98, 0x20, 0x3e, 0xe7, 0x65, 0xa0, 0xbe,
  0x08, 0xa8, 0x2d, 0xbe, 0xf5, 0xe2, 0x3b, 0x3e, 0x6d, 0xb4, 0x68, 0xbd,
  0xdb, 0xc2, 0x7c, 0x3e, 0x6a, 0xdb, 0x03, 0xbe, 0x09, 0xb3, 0x2e, 0xbe,
  0x0a, 0xd7, 0x31, 0xbe, 0x7a, 0x54, 0x5b, 0x3d, 0x6d, 0xf1, 0x94, 0x3e,
  0x90, 0xd6, 0xd0, 0xbd, 0xf9, 0x73, 0xfe, 0xbd, 0x36, 0xb0, 0x44, 0xbd,
  0xea, 0x78, 0x3f, 0xbe, 0xf3, 0x84, 0x93, 0x3d, 0x9d, 0x24, 0x59, 0x3d,
  0x4f, 0x23, 0x03, 0xbe, 0x95, 0x65, 0x87, 0xbe, 0x0a, 0xa6, 0x18, 0x3e,
  0xfc, 0xea, 0xa8, 0xbd, 0x5e, 0x88, 0xa7, 0xbd, 0xe4, 0xc9, 0xc4, 0xbd,
  0xa2, 0xb9, 0x02, 0x3e, 0x22, 0xa7, 0x13, 0xbe, 0x74, 0x06, 0x07, 0xbb,
  0xef, 0x6a, 0x5b, 0x3e, 0x1b, 0xb9, 0x0e, 0x3d, 0x05, 0x58, 0x70, 0xbe,
  0x68, 0x8a, 0x12, 0xbe, 0xc8, 0xc2, 0x83, 0xbe, 0xd5, 0x1d, 0xdf, 0x3c,
  0x21, 0xab, 0xca, 0xbd, 0x6d, 0x4c, 0x36, 0xbe, 0x3c, 0x46, 0x5d, 0x3c,
  0xe9, 0xc2, 0x60, 0xbd, 0x56, 0xf4, 0x3a, 0xbe, 0xe4, 0xc4, 0x00, 0x3e,
  0xe7, 0x61, 0x75, 0xbe, 0x16, 0xc5, 0x76, 0xbe, 0x55, 0xe3, 0xba, 0xbd,
  0xcf, 0x65, 0x46, 0xbe, 0x30, 0x08, 0x29, 0xbe, 0x62, 0x2e, 0xbd, 0xbd,
  0x2a, 0x9a, 0x51, 0xbe, 0x77, 0x68, 0xb5, 0xbe, 0x67, 0xdf, 0x99, 0x3d,
  0xc6, 0x1a, 0x46, 0x3e, 0x37, 0x96, 0x0d, 0xbe, 0x27, 0xd3, 0xf1, 0xbd,
  0x90, 0x16, 0xa6, 0xbd, 0x68, 0x44, 0xf3, 0x3d, 0xf4, 0xde, 0x7d, 0xbe,
  0x23, 0x83, 0x15, 0x3e, 0x6b, 0x85, 0x08, 0x3e, 0x45, 0x89, 0xeb, 0xbd,
  0x8b, 0x6a, 0xc3, 0xbd, 0x4c, 0x77, 0x2e, 0x3c, 0xcb, 0x2b, 0xbc, 0x3c,
  0x23, 0x32, 0x84, 0xba, 0x2b, 0xd5, 0x54, 0x3c, 0xc0, 0x1d, 0xd0, 0x3d,
  0x9a, 0xc7, 0x74, 0x3f, 0xdc, 0x68, 0x81, 0x3d, 0xe6, 0xae, 0x22, 0x3b,
  0x4f, 0x5b, 0xcc, 0xbd, 0xef, 0xbf, 0xc4, 0x3c, 0x82, 0x84, 0x5a, 0x3c,
  0x2b, 0x82, 0x22, 0xbd, 0x38, 0x96, 0x55, 0x3e, 0xb6, 0xbb, 0xa8, 0xbc,
  0xe7, 0xb0, 0x4a, 0xbe, 0x1e, 0x1a, 0xc6, 0x3d, 0x37, 0xe6, 0x63, 0x3d,
  0x05, 0x63, 0xfc, 0x3b, 0x8f, 0xc5, 0x64, 0x3e, 0x64, 0x14, 0x85, 0x3d,
  0xfb, 0xd1, 0x1b, 0xbe, 0xef, 0xa2, 0x48, 0x3f, 0xa3, 0x02, 0xa8, 0xbd,
  0xbb, 0x9a, 0x4c, 0xbb, 0x08, 0x43, 0xb8, 0x3c, 0x57, 0x4e, 0x8a, 0xb9,
  0x6b, 0xa2, 0x18, 0xbd, 0x13, 0xfe, 0xae, 0xbd, 0x5c, 0x9a, 0x4f, 0xbe,
  0xda, 0x67, 0x81, 0xbe, 0x2b, 0x76, 0x1b, 0xbe, 0xb7, 0x48, 0xc5, 0xbd,
  0xef, 0xa5, 0xe5, 0xbd, 0xd7, 0x61, 0x98, 0x3d, 0x80, 0xfb, 0x93, 0xbe,
  0x90, 0xfb, 0x8d, 0xbd, 0xb7, 0x3a, 0x1e, 0xbe, 0x5a, 0x6c, 0x8e, 0x3f,
  0x32, 0xd0, 0xf0, 0xbd, 0x44, 0xdd, 0xea, 0xbe, 0x36, 0x66, 0xa2, 0x3d,
  0x16, 0xa3, 0x56, 0xbd, 0xcd, 0x86, 0x3d, 0xbd, 0x1f, 0x31, 0xae, 0xbc,
  0xa8, 0x26, 0x72, 0xbd, 0xa1, 0x58, 0xe1, 0xbd, 0x47, 0x52, 0x40, 0x3e,
  0x80, 0x5e, 0x6a, 0xbd, 0xcc, 0x98, 0x77, 0xbe, 0x4c, 0xb3, 0x80, 0xbe,
  0x39, 0x4c, 0xae, 0xbe, 0xe0, 0x6d, 0x65, 0x3c, 0xaf, 0x37, 0x83, 0xbe,
  0x8f, 0xcf, 0x8d, 0x3f, 0x05, 0x68, 0xb5, 0xbd, 0x76, 0xe2, 0x92, 0xbe,
  0xbf, 0x2c, 0xad, 0xbc, 0xdb, 0x6f, 0x5a, 0xbd, 0xf4, 0x64, 0xb4, 0xbd,
  0x0a, 0x8c, 0x23, 0xbe, 0x10, 0x68, 0x3b, 0xbd, 0x7e, 0x6a, 0x21, 0xbe,
  0x19, 0x6e, 0xcf, 0x3d, 0x7b, 0x67, 0xee, 0x3d, 0x3a, 0xa3, 0x41, 0xbe,
  0x7b, 0x02, 0x13, 0x3d, 0x04, 0xf8, 0xb9, 0xbe, 0x57, 0x1c, 0x53, 0x3c,
  0x3f, 0x29, 0xda, 0xbd, 0xae, 0x5b, 0x8a, 0x3f, 0x14, 0x78, 0x0e, 0xbe,
  0xbd, 0x53, 0x5e, 0x3d, 0x7e, 0xc3, 0x86, 0xbd, 0xec, 0x81, 0x3d, 0x3e,
  0x31, 0x88, 0xd7, 0x3c, 0xd6, 0xfe, 0x5a, 0xbe, 0x21, 0x5a, 0x36, 0x3e,
  0x49, 0x1f, 0x01, 0x3e, 0x8a, 0x1a, 0xb8, 0x3d, 0xc7, 0x5f, 0xf4, 0xbd,
  0xab, 0x3b, 0x13, 0x3e, 0x08, 0x5f, 0xd9, 0xbc, 0xca, 0x62, 0x3e, 0x3d,
  0xf4, 0x25, 0xd5, 0xbd, 0x7d, 0x7d, 0x83, 0x3e, 0x35, 0x2e, 0x8e, 0x3f,
  0x6a, 0xb4, 0x89, 0xbd, 0x12, 0x0e, 0x99, 0x3c, 0x51, 0xea, 0xc8, 0xbe,
  0xbe, 0x5f, 0x25, 0x3e, 0x59, 0x02, 0x6f, 0x3d, 0x51, 0xee, 0xc1, 0x3d,
  0xfd, 0xf9, 0xab, 0x3d, 0xc7, 0x59, 0xde, 0xbc, 0xc7, 0xc3, 0x08, 0x3e,
  0x88, 0xe9, 0x4f, 0x3d, 0x49, 0x9e, 0x8d, 0x3b, 0xaa, 0xe1, 0x74, 0x3d,
  0x10, 0x18, 0x4d, 0x3d, 0x61, 0x26, 0x08, 0xbe, 0xdc, 0xc4, 0x7b, 0x3e,
  0xbc, 0xdf, 0x35, 0x3f, 0x7a, 0xa5, 0x3d, 0x3d, 0x0b, 0x2c, 0x76, 0x3e,
  0x19, 0x00, 0x1a, 0x3e, 0x25, 0xef, 0x99, 0xbd, 0xc3, 0x1b, 0x14, 0xbe,
  0x3a, 0x9b, 0x49, 0x3e, 0xa3, 0x4a, 0x48, 0xbd, 0xb7, 0x75, 0x7f, 0xbd,
  0x08, 0x74, 0xa6, 0x3d, 0x4e, 0x88, 0x90, 0x3e, 0x5e, 0x80, 0x92, 0x3c,
  0xe5, 0xee, 0x10, 0x3e, 0x64, 0xca, 0x2a, 0xbc, 0x27, 0x2f, 0x8c, 0xbe,
  0x25, 0xd5, 0x12, 0xbe, 0x9a, 0x14, 0xe0, 0x3f, 0xfe, 0x7f, 0x89, 0xbd,
  0x24, 0xce, 0xa0, 0xbc, 0x95, 0xff, 0x35, 0x3d, 0x06, 0x70, 0x07, 0xbf,
  0x1b, 0x4f, 0x4e, 0xbe, 0x0a, 0x38, 0xdd, 0x3d, 0xfd, 0x02, 0x62, 0xbe,
  0x8e, 0x7f, 0x50, 0xbe, 0x98, 0x68, 0xd9, 0x3c, 0x2f, 0xf6, 0xa2, 0xbe,
  0xff, 0xa7, 0x7a, 0x3b, 0xbb, 0x27, 0x51, 0x3b, 0xb9, 0x15, 0x70, 0x3d,
  0xa4, 0x7d, 0x68, 0xbe, 0x02, 0xe1, 0x20, 0x3b, 0x8a, 0xac, 0xdb, 0x3f,
  0x8d, 0xd9, 0x06, 0xbe, 0xba, 0x13, 0xed, 0x3e, 0x8f, 0x3a, 0xec, 0xbd,
  0xf9, 0x59, 0x16, 0xbf, 0x62, 0xc7, 0xd2, 0xbc, 0x6a, 0x96, 0x00, 0x3d,
  0x31, 0x36, 0xa3, 0x3e, 0xb1, 0x18, 0xd5, 0xbe, 0x14, 0xec, 0x65, 0x3e,
  0x89, 0x19, 0x78, 0x3d, 0x4f, 0x81, 0xdd, 0xbb, 0xb9, 0xf8, 0x4c, 0xbe,
  0xe3, 0x93, 0xb5, 0x3e, 0xf7, 0xe9, 0x60, 0xbe, 0x7c, 0x9d, 0x28, 0x3e,
  0xdb, 0x9d, 0xe0, 0x3f, 0x09, 0x6a, 0x71, 0xbe, 0x73, 0x5c, 0xfc, 0x3e,
  0x8c, 0x9c, 0x52, 0xbe, 0xc0, 0xba, 0x9c, 0xbe, 0xeb, 0xd7, 0xaa, 0xbd,
  0xd6, 0xa2, 0x10, 0x3e, 0x45, 0xcf, 0x8e, 0x3e, 0x84, 0xe6, 0x6c, 0xbe,
  0x2e, 0x0b, 0x4d, 0x3e, 0x0e, 0xfb, 0x4e, 0x3e, 0xb2, 0x88, 0xee, 0x3d,
  0x32, 0x37, 0x08, 0x3d, 0xe3, 0xe8, 0x0c, 0x3f, 0x9e, 0x33, 0xdb, 0x3c,
  0xa9, 0xff, 0xbd, 0x3b, 0xcb, 0x64, 0x09, 0x40, 0x43, 0x48, 0x96, 0xbe,
  0x3f, 0x92, 0xaf, 0x3e, 0x5c, 0xfb, 0xb8, 0x3c, 0xdb, 0xa6, 0xef, 0x3d,
  0x99, 0x00, 0x5d, 0xbe, 0xbc, 0x91, 0x86, 0x3e, 0xbe, 0x60, 0x8a, 0xbd,
  0xca, 0x49, 0x99, 0xbe, 0xd9, 0x94, 0x99, 0xbc, 0xf1, 0x98, 0x37, 0xbd,
  0x05, 0x32, 0x94, 0x3a, 0x75, 0xbe, 0x95, 0x3e, 0x9e, 0x0f, 0x79, 0x3e,
  0xa1, 0x28, 0x9c, 0xbd, 0xef, 0x29, 0x98, 0xbd, 0x6d, 0x1a, 0xfc, 0x3f,
  0x64, 0xc3, 0xac, 0xbe, 0x61, 0xdb, 0x0a, 0x3e, 0x60, 0xdc, 0xbb, 0x3c,
  0x2b, 0x86, 0x5c, 0xbe, 0x58, 0x51, 0xaf, 0x3c, 0x4c, 0xc2, 0x6a, 0x3e,
  0xb5, 0x67, 0x81, 0xbe, 0x61, 0x91, 0x06, 0xbf, 0xd9, 0x43, 0xa0, 0x3d,
  0xa8, 0xfb, 0x1c, 0xbe, 0x97, 0x8d, 0xad, 0x3d, 0x02, 0xcf, 0x97, 0x3e,
  0x91, 0x0b, 0x3b, 0x3d, 0xd7, 0x89, 0x1d, 0xbc, 0xae, 0xa5, 0xb3, 0xbe,
  0x34, 0xaa, 0xf4, 0x3f, 0x53, 0x06, 0x97, 0xbe, 0x98, 0x00, 0x02, 0x3d,
  0x7e, 0xae, 0x9d, 0xbd, 0x92, 0x33, 0x35, 0xbe, 0x31, 0xbb, 0x53, 0x3d,
  0xc5, 0x4d, 0xab, 0x3d, 0x3f, 0xc5, 0x19, 0xbe, 0x2e, 0x8d, 0xbb, 0xbe,
  0x0c, 0xf0, 0xa3, 0xbd, 0x69, 0x4d, 0x7a, 0xbe, 0x07, 0x37, 0x6e, 0x3d,
  0x0d, 0xdb, 0x25, 0xbd, 0xf5, 0x53, 0x6c, 0x3d, 0x8b, 0xd7, 0x77, 0xbe,
  0xc8, 0x8a, 0x06, 0xbe, 0xd2, 0x13, 0xac, 0x3f, 0xf8, 0x0f, 0xd1, 0xbd,
  0x3a, 0xeb, 0x5c, 0x3d, 0xd6, 0x75, 0x3d, 0xbe, 0x65, 0x4a, 0x57, 0x3e,
  0x9a, 0xef, 0x2e, 0x3d, 0xce, 0xa7, 0x40, 0xbc, 0xd6, 0x32, 0x95, 0x3d,
  0xcd, 0xb1, 0x3f, 0xbe, 0x66, 0xde, 0x10, 0x3e, 0x59, 0xaf, 0x93, 0xbd,
  0xbe, 0xde, 0xc2, 0xbd, 0xf7, 0x56, 0xa3, 0x3d, 0x99, 0x6b, 0xfd, 0xbd,
  0x8e, 0xb9, 0x9d, 0x3d, 0x19, 0x55, 0xb0, 0xbe, 0xbe, 0x43, 0xe9, 0x3d,
  0x33, 0x89, 0x95, 0xbd, 0x41, 0xa5, 0x33, 0xbe, 0x51, 0x2d, 0x37, 0x3e,
  0x29, 0xcb, 0x9b, 0x3d, 0xbd, 0x1e, 0x1e, 0xbd, 0x7b, 0xd2, 0x17, 0x3d,
  0x88, 0x90, 0xa2, 0xbd, 0xc1, 0x39, 0xef, 0xbb, 0x57, 0x82, 0x0b, 0x3e,
  0xf8, 0x64, 0x8e, 0x3a, 0xb6, 0x50, 0x10, 0xbe, 0x87, 0xc6, 0x7d, 0x3d,
  0x3b, 0x23, 0x30, 0x39, 0xcb, 0x78, 0xc6, 0x3d, 0x87, 0x57, 0xc6, 0xbc,
  0xc2, 0x9a, 0x21, 0xbe, 0x15, 0x89, 0x89, 0x3d, 0x81, 0x09, 0xa9, 0xbd,
  0xc1, 0x69, 0x8f, 0x3e, 0xaa, 0x54, 0xec, 0x3c, 0x5f, 0x9c, 0x59, 0x3e,
  0x1a, 0xbb, 0x93, 0xbd, 0x97, 0x6f, 0x80, 0xbe, 0x58, 0x2f, 0xf1, 0xbd,
  0x1f, 0x9f, 0xd3, 0x3c, 0x4e, 0x85, 0xb7, 0xbe, 0xfe, 0xc4, 0x81, 0xbc,
  0xf4, 0xab, 0xd3, 0x3d, 0x04, 0xa5, 0x36, 0xbe, 0x63, 0x35, 0x03, 0x3e,
  0x50, 0x16, 0x4d, 0xba, 0xb7, 0x81, 0x95, 0x3d, 0x08, 0xce, 0x9e, 0xbe,
  0x5b, 0x13, 0x30, 0xbd, 0x1a, 0xc7, 0xd2, 0x3e, 0xc9, 0x4a, 0xf2, 0xbd,
  0x15, 0x19, 0x4a, 0x3d, 0x58, 0x55, 0x8a, 0x3d, 0xb2, 0xac, 0x22, 0xbe,
  0x5d, 0xa1, 0x18, 0xbe, 0x50, 0xcb, 0xac, 0x3d, 0xfd, 0x24, 0x94, 0x3d,
  0x2a, 0x99, 0x2b, 0xbe, 0xee, 0x93, 0x54, 0x3d, 0x59, 0xd5, 0x40, 0xbe,
  0xf4, 0x1e, 0x06, 0x3e, 0x83, 0x6e, 0x58, 0xbe, 0xba, 0x93, 0x89, 0x3d,
  0x9f, 0x2e, 0x60, 0xbe, 0xe3, 0x14, 0x38, 0xbe, 0x24, 0x60, 0x20, 0x3e,
  0x35, 0xb0, 0x05, 0xbc, 0xaa, 0x8c, 0x59, 0xbc, 0x35, 0x2a, 0x6d, 0xbd,
  0x9f, 0xd1, 0xd1, 0x3d, 0x80, 0x65, 0x6f, 0x3d, 0x8b, 0x35, 0x68, 0x3d,
  0x6f, 0x82, 0x48, 0xbe, 0x60, 0x61, 0x1a, 0xbc, 0xca, 0xb3, 0x1f, 0x3e,
  0xcd, 0x18, 0x20, 0xbe, 0x5c, 0xe5, 0xf8, 0xbd, 0xff, 0x30, 0x33, 0x3c,
  0x63, 0xcf, 0x88, 0xbd, 0xe4, 0x0a, 0xed, 0xbd, 0x2a, 0x60, 0xbb, 0x3d,
  0x0e, 0x1b, 0x73, 0x3e, 0x9d, 0x0f, 0x4f, 0xbe, 0xc9, 0xb8, 0x94, 0x3d,
  0x4b, 0x38, 0x07, 0x3e, 0xed, 0xa7, 0x2d, 0xbe, 0x54, 0x22, 0x90, 0x3d,
  0x1f, 0x52, 0x9a, 0xbd, 0x1d, 0x64, 0xa3, 0x3c, 0x43, 0xa4, 0x88, 0xbe,
  0xc7, 0xa0, 0xaf, 0x3d, 0x04, 0xb4, 0x4f, 0xbd, 0x52, 0x59, 0x8c, 0xbb,
  0xd2, 0x2d, 0xcc, 0xbd, 0x26, 0x32, 0x73, 0xbd, 0xce, 0x5a, 0x08, 0xbe,
  0x64, 0x78, 0x97, 0xbd, 0xf8, 0xe8, 0x6e, 0x3e, 0x38, 0x9d, 0xaa, 0x3d,
  0x9c, 0xed, 0xd5, 0xbc, 0xcc, 0x86, 0x17, 0xbe, 0x1a, 0x46, 0x25, 0xbd,
  0xc9, 0xaa, 0xdf, 0xbd, 0x26, 0xf8, 0x8d, 0x3b, 0xb8, 0xf2, 0x95, 0xbe,
  0xad, 0xd0, 0x52, 0xbe, 0x1d, 0xef, 0x30, 0xbd, 0x9e, 0x4e, 0x53, 0xbd,
  0x95, 0x58, 0x28, 0x3e, 0xff, 0x6d, 0xc6, 0x3c, 0x6d, 0xd4, 0x11, 0xbd,
  0xd6, 0xa1, 0x4e, 0xbe, 0x47, 0xe2, 0xbd, 0x3d, 0xb3, 0x84, 0xea, 0xbd,
  0x29, 0x02, 0xd7, 0xbd, 0x60, 0xe7, 0x7b, 0xbb, 0x22, 0x7e, 0x16, 0x3e,
  0x33, 0xaf, 0x1a, 0xbe, 0xbe, 0xb5, 0x22, 0xbe, 0x1a, 0x7c, 0x3e, 0xbd,
  0xf9, 0x87, 0x64, 0xbd, 0x46, 0x26, 0xd4, 0xbc, 0x53, 0xda, 0x28, 0x3e,
  0x16, 0xbc, 0x4a, 0x3c, 0x45, 0xf7, 0xc3, 0xbe, 0xd5, 0xdd, 0x9e, 0xbd,
  0x19, 0x6a, 0xa4, 0x3e, 0x7c, 0xdf, 0x0a, 0xbe, 0x67, 0x07, 0x6c, 0xbe,
  0x79, 0xf1, 0xf2, 0xbd, 0x11, 0xd7, 0xb2, 0x3d, 0x93, 0xb8, 0xc3, 0x3c,
  0xb2, 0x0d, 0x02, 0xbd, 0x9c, 0x1e, 0x8a, 0xbe, 0xd9, 0xb2, 0xf6, 0x3d,
  0xa5, 0x5b, 0x85, 0xbb, 0x7f, 0x83, 0xe9, 0x3d, 0xcb, 0x00, 0x88, 0x3c,
  0xd7, 0x09, 0x01, 0xbe, 0xab, 0xba, 0x9d, 0xbc, 0xd2, 0xc2, 0x12, 0xbd,
  0xb2, 0xf3, 0x3b, 0xbe, 0x63, 0x93, 0x43, 0xbc, 0x14, 0xc4, 0x80, 0x3d,
  0xfe, 0x68, 0x74, 0x3d, 0x09, 0xc9, 0x0e, 0x3d, 0xbb, 0x7e, 0x97, 0xbe,
  0x90, 0x80, 0x79, 0xbe, 0x25, 0x39, 0x77, 0xbe, 0x79, 0xe0, 0x8f, 0x3d,
  0x01, 0xa3, 0xf2, 0xbd, 0x71, 0xb7, 0x34, 0xbd, 0x3c, 0xa5, 0x07, 0xbd,
  0xc1, 0x20, 0x87, 0xbe, 0x72, 0x48, 0x04, 0x3e, 0x52, 0x7a, 0x50, 0xbe,
  0x6d, 0x08, 0xae, 0xbd, 0xda, 0x9e, 0x6f, 0xbe, 0xa5, 0x6a, 0xbf, 0x3e,
  0x27, 0xb8, 0x15, 0xbe, 0x7a, 0x4e, 0xbb, 0x3b, 0xd3, 0x4b, 0x40, 0xbe,
  0x55, 0xa4, 0xd8, 0xbb, 0x9b, 0x9d, 0xc2, 0x3d, 0x0e, 0x95, 0x40, 0xbe,
  0x6d, 0xd2, 0x91, 0x3d, 0xef, 0x1e, 0x5d, 0xbe, 0x98, 0x2a, 0xa1, 0x3c,
  0x89, 0x94, 0xae, 0x3d, 0x11, 0x0f, 0xfc, 0xbc, 0x2b, 0xa3, 0xaa, 0x3d,
  0x40, 0x50, 0xfd, 0x3b, 0x11, 0x90, 0x23, 0xbe, 0xb0, 0xaa, 0xee, 0xbc,
  0x91, 0x7d, 0xfd, 0x3c, 0x10, 0xbe, 0x3a, 0xbe, 0x5e, 0x11, 0x0f, 0x3c,
  0x66, 0x53, 0xfc, 0xbb, 0xd3, 0x13, 0x18, 0xbe, 0xc2, 0x6b, 0xd3, 0xbd,
  0x5b, 0xd0, 0x88, 0xbe, 0x2a, 0x09, 0x2c, 0xbd, 0x1d, 0xae, 0xbe, 0xbd,
  0xa1, 0xcc, 0x1a, 0x3e, 0xbf, 0xed, 0x92, 0xbd, 0x11, 0x79, 0x63, 0xbd,
  0xd9, 0x0e, 0xd5, 0xbd, 0xaf, 0xd4, 0x84, 0x3b, 0xb0, 0xea, 0xb5, 0x3b,
  0x35, 0xda, 0xfd, 0xbb, 0x7f, 0xb7, 0x86, 0x3e, 0xe9, 0x26, 0x7e, 0x3c,
  0x01, 0xef, 0x6a, 0x3b, 0x26, 0x48, 0xe2, 0xbd, 0x84, 0xe3, 0xf0, 0xbd,
  0x10, 0xb8, 0x57, 0xbe, 0xae, 0x5c, 0xb2, 0xba, 0x6b, 0xdb, 0x61, 0xbe,
  0x33, 0xe8, 0x18, 0xbe, 0xfc, 0xce, 0xa8, 0xbd, 0x35, 0x94, 0x9e, 0x3b,
  0x0c, 0x85, 0x21, 0xbe, 0x9c, 0xa5, 0x9d, 0x3d, 0x2b, 0xb8, 0xb5, 0x3c,
  0x83, 0x66, 0x3f, 0xbc, 0x8e, 0xd9, 0xc3, 0xbc, 0xe9, 0x20, 0x0f, 0x3e,
  0xf7, 0xd9, 0x68, 0xbd, 0x30, 0x42, 0xfb, 0x3c, 0x25, 0xc6, 0xa9, 0xbd,
  0x9a, 0xe8, 0x57, 0xbc, 0x1a, 0x6d, 0xed, 0xbd, 0x37, 0x2f, 0x41, 0xbe,
  0xdc, 0x14, 0x5f, 0xbe, 0x6c, 0x3c, 0xc3, 0xbd, 0x5f, 0xe2, 0xea, 0xbc,
  0xe8, 0x0f, 0x2a, 0xbe, 0x3f, 0x4e, 0xfd, 0xbc, 0x56, 0xb2, 0x94, 0xbd,
  0xeb, 0x22, 0xeb, 0xbd, 0x1e, 0x5e, 0xf3, 0x3c, 0x66, 0x5a, 0xa5, 0xbd,
  0x81, 0xc8, 0xd9, 0x3d, 0xd2, 0x72, 0xa0, 0xbd, 0x62, 0x26, 0xac, 0x3d,
  0xae, 0x0f, 0x41, 0x3d, 0xd3, 0xcf, 0x16, 0xbd, 0xd9, 0xa3, 0x11, 0x3c,
  0x62, 0x86, 0xb9, 0x3c, 0x9e, 0xfc, 0x1c, 0x3e, 0xd0, 0x4d, 0xa7, 0xbc,
  0x0a, 0x4b, 0xc5, 0xbe, 0xcf, 0x8d, 0x9f, 0x3c, 0x72, 0x7c, 0xbb, 0xbe,
  0xf3, 0x61, 0x74, 0xbe, 0x1d, 0x47, 0x7d, 0x3b, 0x1a, 0x0b, 0xec, 0xbd,
  0xc2, 0x8c, 0xb0, 0xbe, 0xfc, 0xee, 0x2f, 0x3e, 0x40, 0xdc, 0x1f, 0xbe,
  0x2a, 0x90, 0x71, 0xbf, 0xa6, 0x1d, 0xa7, 0x3d, 0x56, 0xea, 0xb9, 0x3c,
  0xae, 0x40, 0xd7, 0xbe, 0x47, 0x46, 0x19, 0xbe, 0xe8, 0x49, 0x13, 0xbe,
  0x98, 0xc8, 0x83, 0xbe, 0xa7, 0xd9, 0xaa, 0xbe, 0x18, 0x6d, 0xa0, 0xbd,
  0xa0, 0x22, 0x97, 0xbe, 0x4f, 0xfb, 0x58, 0xbd, 0xf2, 0x93, 0x61, 0x3e,
  0x0a, 0x1e, 0x28, 0xbd, 0xcb, 0xa9, 0x05, 0xbf, 0x89, 0x0b, 0x01, 0xbe,
  0x09, 0xbf, 0x9a, 0xbe, 0x7f, 0xe7, 0xe1, 0xbd, 0xa6, 0x99, 0xc0, 0xbd,
  0x53, 0x5a, 0xc3, 0xbd, 0xa1, 0x80, 0xf9, 0x3a, 0x0d, 0xa3, 0x7e, 0x3e,
  0x3e, 0xdc, 0x1f, 0xbe, 0xaa, 0x5d, 0xee, 0xbd, 0x78, 0x8a, 0xc1, 0x3d,
  0x9f, 0xb5, 0x18, 0xbd, 0x4a, 0x1b, 0xfb, 0xbd, 0x19, 0xc7, 0xb0, 0xbd,
  0x77, 0xb7, 0x3d, 0x3e, 0x24, 0x5f, 0xb4, 0x3c, 0x22, 0xd0, 0xc3, 0xbd,
  0xd6, 0x63, 0x5c, 0xbe, 0xa0, 0x7a, 0xa3, 0xbe, 0x95, 0x87, 0x4a, 0x3d,
  0x0b, 0x91, 0x2b, 0x3d, 0x1e, 0x26, 0x59, 0xbe, 0x6d, 0x58, 0x6c, 0x3e,
  0x40, 0x35, 0x23, 0x3e, 0x96, 0xa8, 0x4f, 0xbc, 0x9d, 0xc8, 0xc5, 0xbc,
  0x11, 0xf7, 0x44, 0x3e, 0x24, 0x04, 0x14, 0xbe, 0xfb, 0xf9, 0x62, 0xbe,
  0x86, 0x4a, 0x5a, 0x3d, 0xc3, 0x9f, 0x1a, 0x3e, 0xc8, 0x07, 0x26, 0x3d,
  0xa1, 0xae, 0xc8, 0xbd, 0x74, 0x05, 0x11, 0xbd, 0x84, 0x16, 0xc6, 0xbd,
  0xdc, 0x79, 0xc0, 0xbc, 0xd2, 0x1b, 0x04, 0xbe, 0xc2, 0x1f, 0x86, 0x3d,
  0x96, 0x6e, 0x81, 0x3e, 0xfa, 0x59, 0x0e, 0x3e, 0xd4, 0xc3, 0x3e, 0xbe,
  0xae, 0xde, 0x33, 0xbe, 0x76, 0x2b, 0x99, 0x3e, 0x4d, 0xf9, 0xd5, 0x3d,
  0xed, 0xcc, 0xb9, 0xbe, 0xfa, 0x1b, 0x34, 0x3e, 0x58, 0x3c, 0x14, 0x3e,
  0x62, 0x0d, 0xa2, 0xbd, 0x40, 0x76, 0xe4, 0x3d, 0xf0, 0x14, 0x51, 0x3e,
  0xe3, 0x25, 0x00, 0x3d, 0x9d, 0x62, 0xf8, 0xbd, 0x17, 0x93, 0x7e, 0xbd,
  0xa0, 0xcf, 0x6d, 0x3e, 0xa4, 0x59, 0x3d, 0x3e, 0x53, 0x93, 0xf0, 0x3c,
  0x03, 0xae, 0xaa, 0xbd, 0x8a, 0x7e, 0xbe, 0x3d, 0x1a, 0x77, 0xdb, 0x3e,
  0x78, 0x14, 0x2d, 0x3e, 0xff, 0x37, 0xaf, 0xbe, 0x8c, 0xc8, 0x02, 0x3f,
  0xb7, 0x74, 0x89, 0xbd, 0xc4, 0x44, 0x1b, 0xbc, 0x11, 0x88, 0xed, 0xbd,
  0xb2, 0xe5, 0x0f, 0xbe, 0x94, 0x72, 0x37, 0x3d, 0xc0, 0xca, 0x19, 0xbe,
  0xe2, 0x04, 0x45, 0xbe, 0x9c, 0x0a, 0xbc, 0x3e, 0x84, 0xa4, 0x98, 0x3d,
  0xe9, 0x45, 0x04, 0x3d, 0x3f, 0x5d, 0x6a, 0x3b, 0xda, 0x53, 0x83, 0x3c,
  0x52, 0xd2, 0x8d, 0x3e, 0x19, 0x85, 0x2c, 0xbd, 0xbf, 0x50, 0x2a, 0xbe,
  0x43, 0x1a, 0x06, 0x3e, 0x69, 0x11, 0x16, 0xbe, 0xcb, 0x3b, 0x69, 0x3e,
  0x87, 0x7a, 0x25, 0x3d, 0xa3, 0x12, 0x2e, 0xbe, 0x72, 0x8b, 0x8f, 0x3d,
  0xcc, 0x5b, 0xee, 0xbd, 0x58, 0x3d, 0x54, 0x3c, 0xa7, 0xc0, 0xf1, 0xbd,
  0x9a, 0x14, 0x9b, 0xbe, 0x8e, 0xf0, 0x31, 0xbe, 0x6a, 0x4b, 0x07, 0xbe,
  0x10, 0x47, 0x3c, 0xbd, 0xe2, 0x34, 0x3e, 0xbf, 0x33, 0x34, 0xbe, 0x3c,
  0xe4, 0xe4, 0x26, 0xbe, 0xa6, 0x5d, 0xd4, 0xbd, 0xa5, 0xd4, 0x06, 0x3e,
  0xe3, 0xa6, 0x3f, 0xbe, 0x19, 0xc7, 0xa8, 0xbe, 0xae, 0xde, 0x97, 0x3d,
  0x4a, 0xa4, 0x8c, 0xbd, 0x5c, 0x2b, 0xaa, 0xbf, 0xc8, 0xc1, 0x7e, 0xbd,
  0x04, 0xa7, 0xcb, 0xbd, 0x1e, 0x13, 0xb8, 0xbd, 0x19, 0x6a, 0xc9, 0xbe,
  0x50, 0x12, 0xa3, 0xbb, 0xdd, 0x10, 0x05, 0xbe, 0xba, 0x7d, 0xdd, 0xbe,
  0x40, 0xe8, 0x23, 0xbe, 0x86, 0xb6, 0x9f, 0xbd, 0x52, 0xa0, 0x8f, 0xbe,
  0xaa, 0x87, 0x9e, 0x3e, 0x91, 0x47, 0xcd, 0xbd, 0x0b, 0x59, 0xb9, 0xbe,
  0x36, 0x82, 0x02, 0xbe, 0xe3, 0xea, 0x94, 0xbe, 0xba, 0x0e, 0xbb, 0xbd,
  0x23, 0x39, 0xc8, 0x3d, 0x92, 0x1f, 0x63, 0xbd, 0x49, 0x5e, 0xb0, 0xbe,
  0xc7, 0x2c, 0xe0, 0xbd, 0xf5, 0x3a, 0xb5, 0x3a, 0x7b, 0x64, 0x44, 0xbe,
  0xf1, 0x46, 0xa1, 0x3e, 0x80, 0x20, 0x27, 0xbe, 0x4c, 0x03, 0x00, 0x3d,
  0xb6, 0xfb, 0x8b, 0xbe, 0x87, 0x05, 0xb4, 0x3d, 0x72, 0x30, 0x99, 0xbd,
  0x49, 0x2b, 0xe2, 0xbe, 0xb6, 0x28, 0xc4, 0xbd, 0x53, 0x0c, 0x67, 0xbe,
  0x9a, 0xcd, 0x70, 0xbd, 0x8c, 0x91, 0x02, 0xbe, 0x94, 0xc4, 0x71, 0xbb,
  0x12, 0xc9, 0xc5, 0x3d, 0xd4, 0xf0, 0xdb, 0xbd, 0xab, 0xc3, 0x88, 0xbd,
  0xd4, 0x2d, 0xe0, 0xbd, 0xa0, 0x7f, 0xb0, 0x3e, 0x7c, 0xd4, 0x98, 0xbd,
  0x18, 0xcc, 0xd9, 0x3c, 0xb3, 0x26, 0xd3, 0xbd, 0xd8, 0x03, 0x45, 0xbd,
  0x9a, 0xf8, 0x86, 0xbd, 0xe9, 0x86, 0xbc, 0x3c, 0x23, 0x4f, 0xb3, 0x3d,
  0xc1, 0xed, 0x32, 0xbe, 0xc5, 0xdb, 0xba, 0xbe, 0xc9, 0x46, 0x1d, 0xbe,
  0x69, 0x22, 0xfc, 0x3d, 0x00, 0xf7, 0x8f, 0x3e, 0x65, 0xd5, 0x2a, 0x3e,
  0xcc, 0xc2, 0xf8, 0xbc, 0x7b, 0x8e, 0xad, 0xbd, 0xe8, 0x49, 0xbe, 0x3e,
  0x6d, 0x61, 0x2d, 0x3e, 0x96, 0x65, 0x9e, 0xbd, 0xe8, 0x29, 0x47, 0x3e,
  0x48, 0xdb, 0xdb, 0x3d, 0xfc, 0xf6, 0x22, 0xbd, 0x79, 0x06, 0x6e, 0x3d,
  0xaa, 0x4c, 0x7a, 0x3d, 0x9e, 0xf5, 0xf4, 0xbd, 0x90, 0x1e, 0x7a, 0xbd,
  0x74, 0xb4, 0xe6, 0xbd, 0xc6, 0x7a, 0x18, 0x3e, 0xe5, 0x6d, 0x0c, 0x3f,
  0x3f, 0xc1, 0xdb, 0x3d, 0x95, 0x57, 0x99, 0xbe, 0xa1, 0x2e, 0xbe, 0x3d,
  0x68, 0xa6, 0xa3, 0x3e, 0xa4, 0x03, 0x6c, 0x3e, 0x73, 0xb8, 0x64, 0xbe,
  0xd0, 0xb7, 0x27, 0x3f, 0x2d, 0xca, 0x0d, 0x3d, 0xed, 0xc3, 0xdf, 0x3c,
  0xc1, 0xd3, 0xe9, 0xbc, 0x2d, 0xa8, 0x39, 0x3e, 0xb0, 0x18, 0xa0, 0x3c,
  0x89, 0x4f, 0xc6, 0xbd, 0xcf, 0x5f, 0xaa, 0xbe, 0xe8, 0x70, 0xd3, 0x3d,
  0x47, 0x3f, 0xab, 0x3d, 0x92, 0x59, 0xd2, 0x3d, 0x4a, 0x22, 0xbe, 0xbd,
  0x25, 0x88, 0xd7, 0x3d, 0xaf, 0xd0, 0x45, 0x3e, 0xfe, 0xb7, 0x0f, 0x3e,
  0xfa, 0x97, 0xd5, 0xbd, 0xd2, 0x9e, 0xc3, 0x3d, 0x7c, 0xeb, 0x9c, 0xbd,
  0x28, 0xab, 0x1d, 0x3e, 0xec, 0x24, 0xba, 0x3c, 0xc4, 0xba, 0x27, 0xbe,
  0xa9, 0xae, 0x29, 0x3c, 0x77, 0x6c, 0x0f, 0xbe, 0x3f, 0x31, 0x3e, 0xbd,
  0x46, 0xfe, 0xff, 0xff, 0x10, 0x00, 0x00, 0x00, 0x05, 0x00, 0x00, 0x00,
  0x14, 0x00, 0x00, 0x00, 0x2c, 0x00, 0x00, 0x00, 0x02, 0x00, 0x00, 0x00,
  0x10, 0x00, 0x00, 0x00, 0x70, 0x00, 0x00, 0x00, 0x17, 0x00, 0x00, 0x00,
  0x73, 0x65, 0x71, 0x75, 0x65, 0x6e, 0x74, 0x69, 0x61, 0x6c, 0x2f, 0x64,
  0x65, 0x6e, 0x73, 0x65, 0x2f, 0x4d, 0x61, 0x74, 0x4d, 0x75, 0x6c, 0x00,
  0x34, 0xfe, 0xff, 0xff, 0x2a, 0xff, 0xff, 0xff, 0x04, 0x00, 0x00, 0x00,
  0x08, 0x00, 0x00, 0x00, 0xff, 0xff, 0xff, 0xff, 0x70, 0x00, 0x00, 0x00,
  0x00, 0x00, 0x0e, 0x00, 0x18, 0x00, 0x08, 0x00, 0x07, 0x00, 0x0c, 0x00,
  0x10, 0x00, 0x14, 0x00, 0x0e, 0x00, 0x00, 0x00, 0x00, 0x00, 0x00, 0x02,
  0x10, 0x00, 0x00, 0x00, 0x04, 0x00, 0x00, 0x00, 0x10, 0x00, 0x00, 0x00,
  0x2c, 0x00, 0x00, 0x00, 0x01, 0x00, 0x00, 0x00, 0x02, 0x00, 0x00, 0x00,
  0x18, 0x00, 0x00, 0x00, 0x73, 0x65, 0x71, 0x75, 0x65, 0x6e, 0x74, 0x69,
  0x61, 0x6c, 0x2f, 0x66, 0x6c, 0x61, 0x74, 0x74, 0x65, 0x6e, 0x2f, 0x43,
  0x6f, 0x6e, 0x73, 0x74, 0x00, 0x00, 0x00, 0x00, 0x9c, 0xfe, 0xff, 0xff,
  0x92, 0xff, 0xff, 0xff, 0x04, 0x00, 0x00, 0x00, 0x10, 0x00, 0x00, 0x00,
  0xc2, 0x08, 0x29, 0xc0, 0x11, 0x04, 0xfa, 0xbf, 0x0e, 0x74, 0xf1, 0xbf,
  0xee, 0x53, 0x77, 0x40, 0x0a, 0xff, 0xff, 0xff, 0x10, 0x00, 0x00, 0x00,
  0x03, 0x00, 0x00, 0x00, 0x10, 0x00, 0x00, 0x00, 0x3c, 0x00, 0x00, 0x00,
  0x01, 0x00, 0x00, 0x00, 0x04, 0x00, 0x00, 0x00, 0x29, 0x00, 0x00, 0x00,
  0x73, 0x65, 0x71, 0x75, 0x65, 0x6e, 0x74, 0x69, 0x61, 0x6c, 0x2f, 0x64,
  0x65, 0x6e, 0x73, 0x65, 0x5f, 0x31, 0x2f, 0x42, 0x69, 0x61, 0x73, 0x41,
  0x64, 0x64, 0x2f, 0x52, 0x65, 0x61, 0x64, 0x56, 0x61, 0x72, 0x69, 0x61,
  0x62, 0x6c, 0x65, 0x4f, 0x70, 0x00, 0x00, 0x00, 0x60, 0xff, 0xff, 0xff,
  0x00, 0x00, 0x06, 0x00, 0x08, 0x00, 0x04, 0x00, 0x06, 0x00, 0x00, 0x00,
  0x04, 0x00, 0x00, 0x00, 0x40, 0x00, 0x00, 0x00, 0x9a, 0x99, 0xb7, 0xbe,
  0xd6, 0x5c, 0x4c, 0x3f, 0xf4, 0x82, 0xa5, 0xbf, 0xaa, 0xca, 0x09, 0x3f,
  0x66, 0xef, 0x87, 0xbf, 0x05, 0xd2, 0x96, 0xbe, 0xf7, 0x09, 0xa4, 0x3e,
  0xb9, 0x91, 0x87, 0xbe, 0x86, 0x2c, 0x04, 0xc0, 0x68, 0x14, 0xe2, 0xbe,
  0x89, 0x8d, 0x0d, 0xbe, 0x2f, 0x5b, 0xde, 0x3f, 0xd5, 0x32, 0x00, 0xbf,
  0x9a, 0x23, 0x23, 0xbf, 0x22, 0x2b, 0xac, 0xbe, 0xe4, 0x7d, 0x48, 0xbe,
  0xae, 0xff, 0xff, 0xff, 0x10, 0x00, 0x00, 0x00, 0x02, 0x00, 0x00, 0x00,
  0x10, 0x00, 0x00, 0x00, 0x3c, 0x00, 0x00, 0x00, 0x01, 0x00, 0x00, 0x00,
  0x10, 0x00, 0x00, 0x00, 0x27, 0x00, 0x00, 0x00, 0x73, 0x65, 0x71, 0x75,
  0x65, 0x6e, 0x74, 0x69, 0x61, 0x6c, 0x2f, 0x64, 0x65, 0x6e, 0x73, 0x65,
  0x2f, 0x42, 0x69, 0x61, 0x73, 0x41, 0x64, 0x64, 0x2f, 0x52, 0x65, 0x61,
  0x64, 0x56, 0x61, 0x72, 0x69, 0x61, 0x62, 0x6c, 0x65, 0x4f, 0x70, 0x00,
  0x04, 0x00, 0x06, 0x00, 0x04, 0x00, 0x00, 0x00, 0x00, 0x00, 0x0e, 0x00,
  0x14, 0x00, 0x04, 0x00, 0x00, 0x00, 0x08, 0x00, 0x0c, 0x00, 0x10, 0x00,
  0x0e, 0x00, 0x00, 0x00, 0x10, 0x00, 0x00, 0x00, 0x01, 0x00, 0x00, 0x00,
  0x1c, 0x00, 0x00, 0x00, 0x2c, 0x00, 0x00, 0x00, 0x04, 0x00, 0x00, 0x00,
  0x01, 0x00, 0x00, 0x00, 0x40, 0x00, 0x00, 0x00, 0x03, 0x00, 0x00, 0x00,
  0x01, 0x00, 0x00, 0x00, 0x0c, 0x00, 0x00, 0x00, 0x63, 0x6f, 0x6e, 0x76,
  0x32, 0x64, 0x5f, 0x69, 0x6e, 0x70, 0x75, 0x74, 0x00, 0x00, 0x00, 0x00,
  0xfc, 0xff, 0xff, 0xff, 0x04, 0x00, 0x04, 0x00, 0x04, 0x00, 0x00, 0x00
};

unsigned int model_tflite_len = 12384;// Fill the int in `src/model.cc` here