#include "magic_wand_model_data.h"

// We need to keep the data array aligned on some architectures.
#ifdef __has_attribute
#define HAVE_ATTRIBUTE(x) __has_attribute(x)
#else
#define HAVE_ATTRIBUTE(x) 0
#endif
#if HAVE_ATTRIBUTE(aligned) || (defined(__GNUC__) && !defined(__clang__))
#define DATA_ALIGN_ATTRIBUTE __attribute__((aligned(4)))
#else
#define DATA_ALIGN_ATTRIBUTE
#endif

const unsigned char g_magic_wand_model_data[] DATA_ALIGN_ATTRIBUTE = {
  // Paste the data of the char array in `src/model.cc` here
  0x08, 0x00, 0x00, 0x00, 0x54, 0x46, 0x4c, 0x33, 0x62, 0xff, 0xff, 0xff,
  0x03, 0x00, 0x00, 0x00, 0x10, 0x00, 0x00, 0x00, 0x24, 0x00, 0x00, 0x00,
  0x78, 0x00, 0x00, 0x00, 0x24, 0x00, 0x00, 0x00, 0x05, 0x00, 0x00, 0x00,
  0x78, 0x05, 0x00, 0x00, 0xb0, 0x04, 0x00, 0x00, 0xe0, 0x02, 0x00, 0x00,
  0x60, 0x02, 0x00, 0x00, 0x54, 0x01, 0x00, 0x00, 0x01, 0x00, 0x00, 0x00,
  0x78, 0x00, 0x00, 0x00, 0x13, 0x00, 0x00, 0x00, 0x18, 0x30, 0x00, 0x00,
  0x14, 0x30, 0x00, 0x00, 0x20, 0x2f, 0x00, 0x00, 0xa8, 0x2e, 0x00, 0x00,
  0x3c, 0x2e, 0x00, 0x00, 0xec, 0x11, 0x00, 0x00, 0x98, 0x10, 0x00, 0x00,
  0xbc, 0x0e, 0x00, 0x00, 0x60, 0x06, 0x00, 0x00, 0xfc, 0x05, 0x00, 0x00,
  0x78, 0x05, 0x00, 0x00, 0xec, 0x2f, 0x00, 0x00, 0xe8, 0x2f, 0x00, 0x00,
  0xe4, 0x2f, 0x00, 0x00, 0xe0, 0x2f, 0x00, 0x00, 0xdc, 0x2f, 0x00, 0x00,
  0xd8, 0x2f, 0x00, 0x00, 0xd4, 0x2f, 0x00, 0x00, 0xd0, 0x2f, 0x00, 0x00,
  0x0f, 0x00, 0x00, 0x00, 0x4d, 0x4c, 0x49, 0x52, 0x20, 0x43, 0x6f, 0x6e,
  0x76, 0x65, 0x72, 0x74, 0x65, 0x64, 0x2e, 0x00, 0x00, 0x00, 0x0e, 0x00,
  0x18, 0x00, 0x04, 0x00, 0x08, 0x00, 0x0c, 0x00, 0x10, 0x00, 0x14, 0x00,
  0x0e, 0x00, 0x00, 0x00, 0x14, 0x00, 0x00, 0x00, 0x5c, 0x00, 0x00, 0x00,
  0x60, 0x00, 0x00, 0x00, 0x64, 0x00, 0x00, 0x00, 0x84, 0x00, 0x00, 0x00,
  0x12, 0x00, 0x00, 0x00, 0x48, 0x2f, 0x00, 0x00, 0xe4, 0x2e, 0x00, 0x00,
  0x3c, 0x2e, 0x00, 0x00, 0xd8, 0x2d, 0x00, 0x00, 0x70, 0x2d, 0x00, 0x00,
  0x1c, 0x11, 0x00, 0x00, 0xc0, 0x0f, 0x00, 0x00, 0xe4, 0x0d, 0x00, 0x00,
  0xa0, 0x05, 0x00, 0x00, 0x3c, 0x05, 0x00, 0x00, 0xb0, 0x04, 0x00, 0x00,
  0xe8, 0x03, 0x00, 0x00, 0x38, 0x03, 0x00, 0x00, 0xa4, 0x02, 0x00, 0x00,
  0x10, 0x02, 0x00, 0x00, 0x90, 0x01, 0x00, 0x00, 0xfc, 0x00, 0x00, 0x00,
  0x80, 0x00, 0x00, 0x00, 0x01, 0x00, 0x00, 0x00, 0x00, 0x00, 0x00, 0x00,
  0x01, 0x00, 0x00, 0x00, 0x11, 0x00, 0x00, 0x00, 0x08, 0x00, 0x00, 0x00,
  0x1c, 0x04, 0x00, 0x00, 0x58, 0x03, 0x00, 0x00, 0xc8, 0x02, 0x00, 0x00,
  0x24, 0x02, 0x00, 0x00, 0xac, 0x01, 0x00, 0x00, 0x10, 0x01, 0x00, 0x00,
  0x94, 0x00, 0x00, 0x00, 0x10, 0x00, 0x00, 0x00, 0x04, 0x00, 0x00, 0x00,
  0x6d, 0x61, 0x69, 0x6e, 0x00, 0x00, 0x00, 0x00, 0x8e, 0xff, 0xff, 0xff,
  0x00, 0x00, 0x00, 0x09, 0x04, 0x00, 0x00, 0x00, 0x1c, 0x00, 0x00, 0x00,
  0x10, 0x00, 0x00, 0x00, 0x04, 0x00, 0x00, 0x00, 0x0a, 0xd2, 0xff, 0xff,
  0x00, 0x00, 0x80, 0x3f, 0x01, 0x00, 0x00, 0x00, 0x11, 0x00, 0x00, 0x00,
  0x01, 0x00, 0x00, 0x00, 0x10, 0x00, 0x00, 0x00, 0xf6, 0xfb, 0xff, 0xff,
  0x00, 0x00, 0x00, 0x19, 0x01, 0x00, 0x00, 0x00, 0x8a, 0xd1, 0xff, 0xff,
  0x10, 0x00, 0x00, 0x00, 0x12, 0x00, 0x00, 0x00, 0x14, 0x00, 0x00, 0x00,
  0x20, 0x00, 0x00, 0x00, 0x02, 0x00, 0x00, 0x00, 0x01, 0x00, 0x00, 0x00,
  0x04, 0x00, 0x00, 0x00, 0x08, 0x00, 0x00, 0x00, 0x49, 0x64, 0x65, 0x6e,
  0x74, 0x69, 0x74, 0x79, 0x00, 0x00, 0x00, 0x00, 0xc4, 0xd1, 0xff, 0xff,
  0x00, 0x00, 0x0e, 0x00, 0x18, 0x00, 0x08, 0x00, 0x0c, 0x00, 0x10, 0x00,
  0x07, 0x00, 0x14, 0x00, 0x0e, 0x00, 0x00, 0x00, 0x00, 0x00, 0x00, 0x08,
  0x03, 0x00, 0x00, 0x00, 0x18, 0x00, 0x00, 0x00, 0x0c, 0x00, 0x00, 0x00,
  0x04, 0x00, 0x00, 0x00, 0x98, 0xd1, 0xff, 0xff, 0x01, 0x00, 0x00, 0x00,
  0x10, 0x00, 0x00, 0x00, 0x03, 0x00, 0x00, 0x00, 0x0f, 0x00, 0x00, 0x00,
  0x05, 0x00, 0x00, 0x00, 0x02, 0x00, 0x00, 0x00, 0x02, 0xd2, 0xff, 0xff,
  0x10, 0x00, 0x00, 0x00, 0x11, 0x00, 0x00, 0x00, 0x14, 0x00, 0x00, 0x00,
  0x30, 0x00, 0x00, 0x00, 0x02, 0x00, 0x00, 0x00, 0x01, 0x00, 0x00, 0x00,
  0x04, 0x00, 0x00, 0x00, 0x1a, 0x00, 0x00, 0x00, 0x73, 0x65, 0x71, 0x75,
  0x65, 0x6e, 0x74, 0x69, 0x61, 0x6c, 0x2f, 0x64, 0x65, 0x6e, 0x73, 0x65,
  0x5f, 0x31, 0x2f, 0x42, 0x69, 0x61, 0x73, 0x41, 0x64, 0x64, 0x00, 0x00,
  0xf4, 0xd1, 0xff, 0xff, 0xd6, 0xfd, 0xff, 0xff, 0x00, 0x00, 0x00, 0x08,
  0x03, 0x00, 0x00, 0x00, 0x24, 0x00, 0x00, 0x00, 0x18, 0x00, 0x00, 0x00,
  0x0c, 0x00, 0x00, 0x00, 0x00, 0x00, 0x06, 0x00, 0x08, 0x00, 0x07, 0x00,
  0x06, 0x00, 0x00, 0x00, 0x00, 0x00, 0x00, 0x01, 0x01, 0x00, 0x00, 0x00,
  0x0f, 0x00, 0x00, 0x00, 0x03, 0x00, 0x00, 0x00, 0x0e, 0x00, 0x00, 0x00,
  0x04, 0x00, 0x00, 0x00, 0x01, 0x00, 0x00, 0x00, 0xfe, 0xfc, 0xff, 0xff,
  0x00, 0x00, 0x00, 0x09, 0x01, 0x00, 0x00, 0x00, 0x92, 0xd2, 0xff, 0xff,
  0x10, 0x00, 0x00, 0x00, 0x10, 0x00, 0x00, 0x00, 0x14, 0x00, 0x00, 0x00,
  0x2c, 0x00, 0x00, 0x00, 0x02, 0x00, 0x00, 0x00, 0x01, 0x00, 0x00, 0x00,
  0x10, 0x00, 0x00, 0x00, 0x15, 0x00, 0x00, 0x00, 0x73, 0x65, 0x71, 0x75,
  0x65, 0x6e, 0x74, 0x69, 0x61, 0x6c, 0x2f, 0x64, 0x65, 0x6e, 0x73, 0x65,
  0x2f, 0x52, 0x65, 0x6c, 0x75, 0x00, 0x00, 0x00, 0xd8, 0xd2, 0xff, 0xff,
  0x00, 0x00, 0x0a, 0x00, 0x10, 0x00, 0x04, 0x00, 0x08, 0x00, 0x0c, 0x00,
  0x0a, 0x00, 0x00, 0x00, 0x02, 0x00, 0x00, 0x00, 0x10, 0x00, 0x00, 0x00,
  0x04, 0x00, 0x00, 0x00, 0x01, 0x00, 0x00, 0x00, 0x0e, 0x00, 0x00, 0x00,
  0x02, 0x00, 0x00, 0x00, 0x0d, 0x00, 0x00, 0x00, 0x03, 0x00, 0x00, 0x00,
  0x7a, 0xfd, 0xff, 0xff, 0x00, 0x00, 0x00, 0x16, 0x01, 0x00, 0x00, 0x00,
  0x0e, 0xd3, 0xff, 0xff, 0x10, 0x00, 0x00, 0x00, 0x0f, 0x00, 0x00, 0x00,
  0x14, 0x00, 0x00, 0x00, 0x30, 0x00, 0x00, 0x00, 0x02, 0x00, 0x00, 0x00,
  0x01, 0x00, 0x00, 0x00, 0x70, 0x00, 0x00, 0x00, 0x1a, 0x00, 0x00, 0x00,
  0x73, 0x65, 0x71, 0x75, 0x65, 0x6e, 0x74, 0x69, 0x61, 0x6c, 0x2f, 0x66,
  0x6c, 0x61, 0x74, 0x74, 0x65, 0x6e, 0x2f, 0x52, 0x65, 0x73, 0x68, 0x61,
  0x70, 0x65, 0x00, 0x00, 0x00, 0xd3, 0xff, 0xff, 0xe2, 0xfe, 0xff, 0xff,
  0x00, 0x00, 0x00, 0x05, 0x01, 0x00, 0x00, 0x00, 0x38, 0x00, 0x00, 0x00,
  0x2c, 0x00, 0x00, 0x00, 0x14, 0x00, 0x00, 0x00, 0x00, 0x00, 0x0e, 0x00,
  0x14, 0x00, 0x00, 0x00, 0x10, 0x00, 0x0c, 0x00, 0x08, 0x00, 0x04, 0x00,
  0x0e, 0x00, 0x00, 0x00, 0x03, 0x00, 0x00, 0x00, 0x01, 0x00, 0x00, 0x00,
  0x03, 0x00, 0x00, 0x00, 0x01, 0x00, 0x00, 0x00, 0x01, 0x00, 0x00, 0x00,
  0x0d, 0x00, 0x00, 0x00, 0x01, 0x00, 0x00, 0x00, 0x0c, 0x00, 0x00, 0x00,
  0x9e, 0xd3, 0xff, 0xff, 0x10, 0x00, 0x00, 0x00, 0x0e, 0x00, 0x00, 0x00,
  0x1c, 0x00, 0x00, 0x00, 0x40, 0x00, 0x00, 0x00, 0x04, 0x00, 0x00, 0x00,
  0x01, 0x00, 0x00, 0x00, 0x07, 0x00, 0x00, 0x00, 0x01, 0x00, 0x00, 0x00,
  0x10, 0x00, 0x00, 0x00, 0x22, 0x00, 0x00, 0x00, 0x73, 0x65, 0x71, 0x75,
  0x65, 0x6e, 0x74, 0x69, 0x61, 0x6c, 0x2f, 0x6d, 0x61, 0x78, 0x5f, 0x70,
  0x6f, 0x6f, 0x6c, 0x69, 0x6e, 0x67, 0x32, 0x64, 0x5f, 0x31, 0x2f, 0x4d,
  0x61, 0x78, 0x50, 0x6f, 0x6f, 0x6c, 0x00, 0x00, 0xa0, 0xd3, 0xff, 0xff,
  0xc2, 0xfe, 0xff, 0xff, 0x00, 0x00, 0x00, 0x01, 0x24, 0x00, 0x00, 0x00,
  0x18, 0x00, 0x00, 0x00, 0x04, 0x00, 0x00, 0x00, 0xb4, 0xfe, 0xff, 0xff,
  0x01, 0x00, 0x00, 0x00, 0x01, 0x00, 0x00, 0x00, 0x00, 0x00, 0x00, 0x01,
  0x01, 0x00, 0x00, 0x00, 0x0c, 0x00, 0x00, 0x00, 0x03, 0x00, 0x00, 0x00,
  0x0b, 0x00, 0x00, 0x00, 0x07, 0x00, 0x00, 0x00, 0x09, 0x00, 0x00, 0x00,
  0x2e, 0xd4, 0xff, 0xff, 0x10, 0x00, 0x00, 0x00, 0x0d, 0x00, 0x00, 0x00,
  0x1c, 0x00, 0x00, 0x00, 0x2c, 0x00, 0x00, 0x00, 0x04, 0x00, 0x00, 0x00,
  0x01, 0x00, 0x00, 0x00, 0x15, 0x00, 0x00, 0x00, 0x01, 0x00, 0x00, 0x00,
  0x10, 0x00, 0x00, 0x00, 0x0c, 0x00, 0x00, 0x00, 0x74, 0x66, 0x6c, 0x2e,
  0x63, 0x6f, 0x6e, 0x76, 0x5f, 0x32, 0x64, 0x31, 0x00, 0x00, 0x00, 0x00,
  0x74, 0xd4, 0xff, 0xff, 0x00, 0x00, 0x0e, 0x00, 0x1a, 0x00, 0x08, 0x00,
  0x0c, 0x00, 0x10, 0x00, 0x07, 0x00, 0x14, 0x00, 0x0e, 0x00, 0x00, 0x00,
  0x00, 0x00, 0x00, 0x05, 0x01, 0x00, 0x00, 0x00, 0x3c, 0x00, 0x00, 0x00,
  0x30, 0x00, 0x00, 0x00, 0x14, 0x00, 0x00, 0x00, 0x00, 0x00, 0x0e, 0x00,
  0x18, 0x00, 0x17, 0x00, 0x10, 0x00, 0x0c, 0x00, 0x08, 0x00, 0x04, 0x00,
  0x0e, 0x00, 0x00, 0x00, 0x03, 0x00, 0x00, 0x00, 0x03, 0x00, 0x00, 0x00,
  0x03, 0x00, 0x00, 0x00, 0x03, 0x00, 0x00, 0x00, 0x00, 0x00, 0x00, 0x01,
  0x01, 0x00, 0x00, 0x00, 0x0b, 0x00, 0x00, 0x00, 0x01, 0x00, 0x00, 0x00,
  0x0a, 0x00, 0x00, 0x00, 0x46, 0xff, 0xff, 0xff, 0x00, 0x00, 0x00, 0x11,
  0x01, 0x00, 0x00, 0x00, 0xda, 0xd4, 0xff, 0xff, 0x10, 0x00, 0x00, 0x00,
  0x0c, 0x00, 0x00, 0x00, 0x1c, 0x00, 0x00, 0x00, 0x40, 0x00, 0x00, 0x00,
  0x04, 0x00, 0x00, 0x00, 0x01, 0x00, 0x00, 0x00, 0x15, 0x00, 0x00, 0x00,
  0x01, 0x00, 0x00, 0x00, 0x08, 0x00, 0x00, 0x00, 0x20, 0x00, 0x00, 0x00,
  0x73, 0x65, 0x71, 0x75, 0x65, 0x6e, 0x74, 0x69, 0x61, 0x6c, 0x2f, 0x6d,
  0x61, 0x78, 0x5f, 0x70, 0x6f, 0x6f, 0x6c, 0x69, 0x6e, 0x67, 0x32, 0x64,
  0x2f, 0x4d, 0x61, 0x78, 0x50, 0x6f, 0x6f, 0x6c, 0x00, 0x00, 0x00, 0x00,
  0x34, 0xd5, 0xff, 0xff, 0x00, 0x00, 0x0e, 0x00, 0x14, 0x00, 0x00, 0x00,
  0x08, 0x00, 0x0c, 0x00, 0x07, 0x00, 0x10, 0x00, 0x0e, 0x00, 0x00, 0x00,
  0x00, 0x00, 0x00, 0x01, 0x30, 0x00, 0x00, 0x00, 0x24, 0x00, 0x00, 0x00,
  0x10, 0x00, 0x00, 0x00, 0x0c, 0x00, 0x10, 0x00, 0x00, 0x00, 0x04, 0x00,
  0x08, 0x00, 0x0f, 0x00, 0x0c, 0x00, 0x00, 0x00, 0x01, 0x00, 0x00, 0x00,
  0x01, 0x00, 0x00, 0x00, 0x00, 0x00, 0x00, 0x01, 0x01, 0x00, 0x00, 0x00,
  0x0a, 0x00, 0x00, 0x00, 0x03, 0x00, 0x00, 0x00, 0x00, 0x00, 0x00, 0x00,
  0x06, 0x00, 0x00, 0x00, 0x08, 0x00, 0x00, 0x00, 0x00, 0x00, 0x0a, 0x00,
  0x0c, 0x00, 0x07, 0x00, 0x00, 0x00, 0x08, 0x00, 0x0a, 0x00, 0x00, 0x00,
  0x00, 0x00, 0x00, 0x03, 0x01, 0x00, 0x00, 0x00, 0x9e, 0xd5, 0xff, 0xff,
  0x10, 0x00, 0x00, 0x00, 0x0b, 0x00, 0x00, 0x00, 0x1c, 0x00, 0x00, 0x00,
  0x28, 0x00, 0x00, 0x00, 0x04, 0x00, 0x00, 0x00, 0x01, 0x00, 0x00, 0x00,
  0x40, 0x00, 0x00, 0x00, 0x03, 0x00, 0x00, 0x00, 0x08, 0x00, 0x00, 0x00,
  0x0b, 0x00, 0x00, 0x00, 0x74, 0x66, 0x6c, 0x2e, 0x63, 0x6f, 0x6e, 0x76,
  0x5f, 0x32, 0x64, 0x00, 0x88, 0xd5, 0xff, 0xff, 0x7e, 0xd6, 0xff, 0xff,
  0x04, 0x00, 0x00, 0x00, 0x40, 0x00, 0x00, 0x00, 0x9c, 0xf2, 0xa9, 0xbf,
  0xf4, 0xed, 0xe8, 0xbf, 0x77, 0xf1, 0x8b, 0xbf, 0x15, 0x1e, 0x18, 0xbe,
  0x1f, 0xcf, 0x0b, 0xbf, 0x38, 0x64, 0x8f, 0x40, 0x2c, 0x06, 0xa7, 0xbe,
  0x2e, 0x4f, 0x67, 0x3f, 0x1b, 0x04, 0x89, 0x3f, 0xb9, 0x9b, 0x2a, 0xbf,
  0x5e, 0xf6, 0x12, 0xc0, 0x37, 0xbf, 0x14, 0xbf, 0xed, 0x1c, 0x89, 0xbf,
  0x52, 0x7b, 0x5c, 0x3f, 0x2a, 0xca, 0x61, 0xbe, 0xe6, 0xb6, 0xc4, 0x3e,
  0x26, 0xd6, 0xff, 0xff, 0x10, 0x00, 0x00, 0x00, 0x0a, 0x00, 0x00, 0x00,
  0x10, 0x00, 0x00, 0x00, 0x20, 0x00, 0x00, 0x00, 0x01, 0x00, 0x00, 0x00,
  0x10, 0x00, 0x00, 0x00, 0x0d, 0x00, 0x00, 0x00, 0x73, 0x74, 0x64, 0x2e,
  0x63, 0x6f, 0x6e, 0x73, 0x74, 0x61, 0x6e, 0x74, 0x31, 0x00, 0x00, 0x00,
  0x08, 0xd6, 0xff, 0xff, 0xfe, 0xd6, 0xff, 0xff, 0x04, 0x00, 0x00, 0x00,
  0x20, 0x00, 0x00, 0x00, 0x9c, 0x09, 0xad, 0xbf, 0x98, 0x3b, 0xaf, 0xbf,
  0x99, 0x6d, 0x41, 0xbe, 0x7a, 0x1e, 0xe7, 0xbf, 0xe3, 0x12, 0xb6, 0xbf,
  0x8e, 0xb2, 0xc0, 0xbf, 0xcf, 0x9c, 0x0c, 0xc0, 0x36, 0x4c, 0x91, 0xbf,
  0x86, 0xd6, 0xff, 0xff, 0x10, 0x00, 0x00, 0x00, 0x09, 0x00, 0x00, 0x00,
  0x10, 0x00, 0x00, 0x00, 0x20, 0x00, 0x00, 0x00, 0x01, 0x00, 0x00, 0x00,
  0x08, 0x00, 0x00, 0x00, 0x0c, 0x00, 0x00, 0x00, 0x73, 0x74, 0x64, 0x2e,
  0x63, 0x6f, 0x6e, 0x73, 0x74, 0x61, 0x6e, 0x74, 0x00, 0x00, 0x00, 0x00,
  0x68, 0xd6, 0xff, 0xff, 0x5e, 0xd7, 0xff, 0xff, 0x04, 0x00, 0x00, 0x00,
  0x00, 0x08, 0x00, 0x00, 0x70, 0xf3, 0x18, 0xbd, 0x48, 0x64, 0x4f, 0xbb,
  0x0d, 0xb2, 0x5f, 0xbe, 0xaa, 0x57, 0x86, 0x3e, 0x9e, 0xfd, 0xd1, 0xbc,
  0x46, 0x69, 0xeb, 0x3e, 0x9f, 0x9e, 0x04, 0x3d, 0xca, 0x3c, 0xe5, 0x3e,
  0x59, 0x2a, 0x53, 0xbe, 0x5a, 0xf2, 0xab, 0xbd, 0x0f, 0x5d, 0x71, 0xbe,
  0xb2, 0xeb, 0x0b, 0xbe, 0xd7, 0x4c, 0x86, 0xbe, 0x8c, 0x23, 0xc3, 0xbb,
  0x0d, 0xc1, 0x7f, 0xbe, 0x70, 0x72, 0x05, 0xbe, 0xfe, 0x04, 0x87, 0x3d,
  0x85, 0xb9, 0x10, 0xbe, 0x52, 0x0b, 0x01, 0xbe, 0x64, 0xb6, 0x15, 0xbe,
  0x1c, 0xd4, 0x8d, 0xbe, 0x18, 0xb8, 0x3c, 0x3e, 0x90, 0x2e, 0x08, 0xbd,
  0x0f, 0x28, 0xeb, 0xbd, 0x7e, 0x94, 0x28, 0x3e, 0x5b, 0x0b, 0xee, 0xbd,
  0x86, 0xcc, 0xe0, 0x3d, 0x72, 0xbc, 0x35, 0xbe, 0xdc, 0xa8, 0x11, 0xbe,
  0x50, 0xe3, 0x9c, 0x3e, 0x31, 0x8b, 0x91, 0x3e, 0xb8, 0xc0, 0x2a, 0xbe,
  0x0b, 0x85, 0x88, 0xbb, 0xb3, 0xcd, 0x7b, 0xbd, 0x0a, 0x12, 0x8f, 0xbd,
  0x84, 0x82, 0xc8, 0xbd, 0xa8, 0x45, 0x65, 0xbe, 0xf6, 0x78, 0x34, 0x3e,
  0x93, 0xb5, 0x86, 0xbe, 0xd3, 0xa1, 0x08, 0xbe, 0x74, 0xc7, 0x8a, 0x3d,
  0xe2, 0x08, 0x2c, 0xbd, 0x3b, 0xb3, 0xd7, 0xbd, 0xe3, 0xc2, 0xe2, 0xbd,
  0x4f, 0xc4, 0x40, 0xbe, 0x23, 0xde, 0xe1, 0xbd, 0x3b, 0x5b, 0x90, 0x3c,
  0xea, 0xfb, 0x08, 0xbe, 0x92, 0x8d, 0xf9, 0xbd, 0xc3, 0x5e, 0xa1, 0xbc,
  0x96, 0x97, 0x1e, 0xbd, 0x84, 0x58, 0x91, 0xbd, 0x7e, 0xa5, 0x90, 0x3d,
  0x14, 0x82, 0xb7, 0xbe, 0x5a, 0x00, 0x80, 0x3e, 0x30, 0x1c, 0xe7, 0xbd,
  0x20, 0x9e, 0x16, 0x3d, 0x57, 0x6e, 0x9e, 0x3d, 0xdb, 0x03, 0xb5, 0xbb,
  0xb7, 0x5d, 0xc3, 0x3d, 0xc1, 0xf3, 0x03, 0x3f, 0xe5, 0xc7, 0x55, 0x3c,
  0xc1, 0x7e, 0xb8, 0x3d, 0xd9, 0x00, 0x0a, 0x3e, 0xeb, 0xe8, 0x54, 0xbe,
  0x3f, 0x0f, 0xc9, 0xbd, 0x69, 0x2d, 0xdc, 0xbe, 0x59, 0xed, 0x8c, 0xbd,
  0x1b, 0xd6, 0x0f, 0xbe, 0x90, 0xbc, 0xfb, 0xbe, 0x5b, 0xc0, 0x1a, 0xbe,
  0xfe, 0x62, 0xff, 0xbc, 0xf8, 0x3f, 0xfe, 0xbd, 0x94, 0xa1, 0xa7, 0xbb,
  0xe6, 0xe1, 0xbc, 0xbe, 0x40, 0xe2, 0xa1, 0xbd, 0xc6, 0x3b, 0x60, 0xbc,
  0x37, 0x72, 0x2c, 0xbe, 0x3a, 0x3c, 0xe0, 0x3c, 0x78, 0xde, 0x0e, 0xbc,
  0xaa, 0x89, 0x6b, 0x3e, 0x54, 0xdc, 0x3e, 0xba, 0xfd, 0xbf, 0x76, 0xbe,
  0xa4, 0xf7, 0xb5, 0x3d, 0xb7, 0x84, 0x3e, 0x3e, 0x74, 0x4b, 0x6a, 0x3e,
  0x4e, 0x1a, 0x2b, 0x3e, 0x89, 0x25, 0x03, 0x3d, 0xaf, 0x05, 0x97, 0x3d,
  0x51, 0xa8, 0x1c, 0xbd, 0x75, 0x51, 0x44, 0xbe, 0xb5, 0x24, 0x7d, 0x3d,
  0x5c, 0x2e, 0xae, 0x3c, 0xbc, 0xba, 0x00, 0x3f, 0xf7, 0xc2, 0xaf, 0xbd,
  0x0a, 0xaa, 0x89, 0x3d, 0xa0, 0x91, 0x99, 0xbe, 0xd3, 0x69, 0x2f, 0xbe,
  0xa5, 0xfa, 0x9c, 0x3e, 0x2a, 0x1a, 0x62, 0xbd, 0x62, 0x8e, 0x25, 0xbd,
  0x73, 0xf2, 0x0a, 0x3e, 0xc1, 0x63, 0x93, 0xbd, 0x33, 0xf9, 0x3f, 0xbd,
  0x52, 0xec, 0x2b, 0x3f, 0xf7, 0xf4, 0x2a, 0xbe, 0xb9, 0x3d, 0x7b, 0xbd,
  0x6e, 0xa8, 0xd9, 0xbd, 0x15, 0xaf, 0x03, 0x3d, 0x39, 0x38, 0x1f, 0x3d,
  0x88, 0xf0, 0x9c, 0x3e, 0x43, 0x41, 0x43, 0xbe, 0xac, 0xab, 0xed, 0xbc,
  0x84, 0xe0, 0xc5, 0xbd, 0xd3, 0x12, 0xa2, 0xbd, 0x7b, 0x08, 0x91, 0xbd,
  0x18, 0x79, 0xc4, 0xbd, 0x15, 0x22, 0x7d, 0xbc, 0x15, 0x28, 0x4e, 0x3e,
  0x37, 0x40, 0xf3, 0xbd, 0x25, 0xa8, 0x8b, 0xbd, 0x32, 0xd8, 0x8d, 0xbd,
  0x20, 0x3d, 0xe0, 0xbd, 0xe5, 0x22, 0xa0, 0xbd, 0x16, 0xcc, 0x3e, 0x3e,
  0xf9, 0x73, 0x40, 0xbe, 0xdb, 0xf5, 0x84, 0xbd, 0xb3, 0xcf, 0x9d, 0xbd,
  0xe8, 0x29, 0x4a, 0xbe, 0x78, 0x9f, 0x09, 0xbc, 0x0a, 0x54, 0xa8, 0xbe,
  0xab, 0x82, 0x27, 0xbe, 0xd7, 0xc4, 0x8b, 0x3d, 0x18, 0xa7, 0x2c, 0xbe,
  0xb0, 0x27, 0x53, 0xbe, 0xd0, 0xf4, 0x98, 0xbd, 0x88, 0xe4, 0xb1, 0xbe,
  0x34, 0x46, 0x91, 0x3c, 0xf9, 0x05, 0xb8, 0xbe, 0x58, 0xf8, 0xf4, 0x3b,
  0xb3, 0x78, 0x04, 0x3e, 0xe5, 0x89, 0x2b, 0x3d, 0x15, 0x64, 0x74, 0x3e,
  0xc1, 0x08, 0xb3, 0x3d, 0x0c, 0x67, 0x99, 0x3e, 0xb0, 0x0e, 0xb9, 0xbd,
  0xfe, 0x0e, 0x66, 0xbd, 0xa8, 0x77, 0x04, 0xbd, 0x7c, 0x58, 0x89, 0xbd,
  0xb8, 0xac, 0x30, 0x3e, 0x25, 0x8c, 0x53, 0xbe, 0x81, 0x43, 0x39, 0xbe,
  0x22, 0xbe, 0x4a, 0x3e, 0x6a, 0x3c, 0xb8, 0xbd, 0x82, 0x1e, 0xbd, 0xbd,
  0xf6, 0x84, 0x97, 0xbd, 0x0d, 0x4c, 0x57, 0xbe, 0x16, 0xf7, 0x8b, 0x3e,
  0x35, 0xdc, 0x4f, 0xbe, 0xf5, 0xb9, 0xeb, 0xbb, 0xcd, 0xba, 0x32, 0xbe,
  0x82, 0x3d, 0xdb, 0xbd, 0xc6, 0x44, 0x81, 0xbd, 0xeb, 0x26, 0x37, 0xbe,
  0x22, 0xe0, 0x32, 0xbe, 0x41, 0x3e, 0x09, 0xbc, 0xbb, 0xcc, 0x22, 0xbe,
  0xef, 0xad, 0x4e, 0xbd, 0xdd, 0x99, 0xae, 0xbd, 0x89, 0x34, 0x97, 0xbd,
  0xf1, 0xcc, 0xc6, 0xbd, 0xef, 0x88, 0xc9, 0x3e, 0xad, 0xd2, 0x2f, 0xbe,
  0xd4, 0xf8, 0xd3, 0x3c, 0x2b, 0x34, 0x93, 0xbd, 0xd4, 0x53, 0x90, 0xbd,
  0xf9, 0xef, 0x93, 0xbe, 0x41, 0xbd, 0x42, 0xbe, 0x47, 0x23, 0x2b, 0x3b,
  0x9d, 0x2a, 0x60, 0xbe, 0x14, 0xba, 0xd4, 0xbe, 0xa6, 0xd7, 0xa1, 0xbe,
  0x43, 0x2e, 0xac, 0xbe, 0x4f, 0x52, 0x9f, 0xbe, 0x4a, 0x41, 0x4c, 0xbe,
  0xca, 0xc7, 0xb6, 0xbe, 0x6f, 0x83, 0x9f, 0x3c, 0x66, 0xa6, 0xf6, 0xbd,
  0x29, 0x72, 0xb8, 0xbe, 0x9c, 0xdf, 0x91, 0xbe, 0x1e, 0x09, 0x1b, 0x3d,
  0xe0, 0xc6, 0xa1, 0xbe, 0x0f, 0xe3, 0x14, 0xbe, 0x16, 0xc7, 0x2b, 0xbd,
  0xb5, 0xed, 0x85, 0xbd, 0xf7, 0xbe, 0x98, 0xbc, 0x6b, 0x58, 0x83, 0xbe,
  0xd6, 0x0f, 0x8d, 0xbe, 0x30, 0x35, 0x75, 0x3d, 0x44, 0x8c, 0x45, 0xbe,
  0xc4, 0xf5, 0x2d, 0xbe, 0x9d, 0xa2, 0x1c, 0xbd, 0x1d, 0x7a, 0x68, 0xbd,
  0x72, 0xe9, 0x89, 0xbd, 0x92, 0x9a, 0xfd, 0xbd, 0x5e, 0x6e, 0x8a, 0xbe,
  0x63, 0x48, 0x1f, 0xbe, 0x04, 0x9c, 0x0d, 0xbe, 0x0c, 0xb6, 0x18, 0xbe,
  0xaf, 0xa0, 0x08, 0xbe, 0x78, 0xf6, 0x41, 0xbb, 0xf6, 0x28, 0xb3, 0xbd,
  0x53, 0x57, 0x80, 0xbe, 0x61, 0xd0, 0x88, 0x3d, 0x58, 0xc0, 0xd4, 0xbe,
  0xba, 0xa5, 0x66, 0xbe, 0xec, 0x21, 0x28, 0x3f, 0x3e, 0xe3, 0xad, 0xbd,
  0xbe, 0x25, 0xa6, 0x3d, 0x0d, 0x51, 0xec, 0xbd, 0x55, 0xb7, 0xc2, 0xbd,
  0xd2, 0x63, 0xc7, 0x3d, 0xa1, 0xa4, 0xa0, 0x3c, 0x1b, 0x64, 0x42, 0xbd,
  0xe8, 0x62, 0x4e, 0xbe, 0x4f, 0x75, 0x30, 0xbe, 0x79, 0x84, 0x24, 0xbe,
  0x4a, 0xc2, 0x5f, 0xbe, 0xa6, 0x70, 0xa7, 0xbe, 0x7a, 0x21, 0xb6, 0xbe,
  0x9a, 0x90, 0x21, 0xbe, 0xf5, 0x59, 0xdc, 0xbe, 0x89, 0xa8, 0xb1, 0x3d,
  0x14, 0xd1, 0xe9, 0xbd, 0x84, 0x2f, 0x87, 0x3e, 0x44, 0x9c, 0x9e, 0xbd,
  0x16, 0x52, 0xb7, 0x3e, 0x46, 0xae, 0xaa, 0x3e, 0x51, 0x4d, 0x27, 0xbe,
  0xe6, 0x01, 0xea, 0xbd, 0x4a, 0xab, 0x6a, 0xbe, 0x1c, 0xbf, 0x07, 0xbe,
  0xe0, 0xf2, 0x02, 0xbd, 0xe7, 0xa9, 0xcb, 0xbd, 0x9a, 0xdb, 0x36, 0xbd,
  0x5f, 0x6c, 0xcf, 0xbe, 0xc3, 0x40, 0x3d, 0x3d, 0xab, 0x18, 0x8c, 0xbd,
  0xa9, 0xf5, 0x40, 0x3e, 0xab, 0x3f, 0x3c, 0xbd, 0x11, 0x5c, 0x6d, 0x3e,
  0xbf, 0x39, 0x2c, 0xbd, 0x47, 0x61, 0x14, 0x3d, 0xe5, 0x06, 0x4e, 0x3e,
  0x29, 0x7b, 0x94, 0x3e, 0xdb, 0xb7, 0x8c, 0x3d, 0x98, 0xa2, 0xa9, 0xbd,
  0x35, 0x5e, 0xa0, 0x3d, 0xe4, 0x63, 0xa7, 0x3d, 0x74, 0x42, 0xd6, 0x3b,
  0xf5, 0x56, 0x7f, 0xbd, 0x9a, 0x47, 0xc7, 0xbd, 0x3c, 0x95, 0x86, 0x3d,
  0x48, 0x3a, 0xaa, 0xbd, 0x63, 0xe5, 0xd8, 0x3d, 0x0f, 0x7f, 0xba, 0xbd,
  0x6e, 0x0c, 0x8a, 0x3e, 0x12, 0x25, 0x0f, 0xbd, 0x02, 0x50, 0x53, 0xbd,
  0xd1, 0xd4, 0x80, 0x3d, 0x1d, 0x84, 0x4b, 0x3d, 0x07, 0x6f, 0xd1, 0x3d,
  0x61, 0x9c, 0xa9, 0x3b, 0x67, 0xb7, 0xac, 0x3d, 0x57, 0x79, 0xe3, 0xbc,
  0x29, 0x9f, 0x08, 0xbe, 0x57, 0x50, 0x3d, 0x3e, 0x27, 0x02, 0xda, 0xbd,
  0x50, 0xc9, 0x73, 0x3d, 0x52, 0x50, 0x99, 0x3d, 0x71, 0xcb, 0x25, 0x3c,
  0x60, 0x9b, 0xf8, 0xbc, 0xb8, 0xcd, 0x07, 0x3e, 0x06, 0x54, 0x3f, 0x3b,
  0x84, 0xd4, 0x93, 0xbd, 0xe2, 0x83, 0xcc, 0x3c, 0x91, 0x4d, 0x8f, 0xbd,
  0x42, 0xff, 0x47, 0x3d, 0x90, 0x58, 0x46, 0xbd, 0xc9, 0x33, 0xc4, 0xbd,
  0xc1, 0x32, 0x10, 0xbe, 0x95, 0x3d, 0x0c, 0x3e, 0xbb, 0x06, 0x8b, 0xbc,
  0xf1, 0x2c, 0xe2, 0x3d, 0x3c, 0x1a, 0x14, 0x3e, 0x53, 0xcf, 0xe8, 0x3e,
  0xac, 0xa8, 0xa4, 0x3e, 0x74, 0x65, 0x02, 0xbe, 0x52, 0xc1, 0xd0, 0x38,
  0xf2, 0x48, 0x97, 0xbd, 0x9d, 0xe0, 0xbf, 0xbd, 0xf9, 0x45, 0x56, 0x3e,
  0x4f, 0x9d, 0x16, 0xbe, 0x45, 0x80, 0xb9, 0xbd, 0x8d, 0x58, 0x9b, 0xbd,
  0xdb, 0xdd, 0x00, 0xbe, 0x8b, 0x8f, 0x15, 0xbd, 0x50, 0x54, 0x88, 0xbd,
  0x02, 0x76, 0xd3, 0xbd, 0x7a, 0xa9, 0x31, 0x3e, 0xfc, 0xf5, 0xa6, 0x3b,
  0xc4, 0x12, 0x24, 0xbd, 0xb4, 0xa0, 0x69, 0xbd, 0x6f, 0x79, 0xfd, 0xbd,
  0x54, 0x56, 0x39, 0xbd, 0xc0, 0x57, 0x0c, 0xbe, 0xff, 0xad, 0x01, 0xbe,
  0x22, 0xef, 0x5b, 0x3e, 0xeb, 0x2e, 0xa7, 0xbd, 0x28, 0x7c, 0x94, 0xbd,
  0x27, 0xfb, 0x49, 0xbe, 0x46, 0x10, 0x06, 0xbd, 0x8f, 0x00, 0x08, 0x3c,
  0x1b, 0xea, 0x0f, 0xbe, 0x24, 0xae, 0xee, 0x3c, 0x94, 0xd1, 0xe3, 0xbe,
  0x4e, 0xaf, 0x97, 0x3e, 0x5f, 0xef, 0xd4, 0xbd, 0x3e, 0x78, 0x68, 0xbe,
  0xf6, 0x54, 0x85, 0xbc, 0xd1, 0x7d, 0xc1, 0xbe, 0x39, 0x7f, 0x09, 0x3d,
  0x93, 0x7b, 0xe4, 0xbb, 0x8a, 0x1d, 0x1a, 0x3e, 0xfd, 0x38, 0xf9, 0x3e,
  0x47, 0x26, 0x1b, 0xbd, 0xc8, 0x14, 0x0c, 0xbe, 0x2c, 0x3b, 0x6c, 0xbc,
  0xae, 0xe4, 0xcc, 0xbe, 0xa6, 0x3c, 0x98, 0x3d, 0x27, 0xec, 0x8b, 0x3e,
  0x31, 0xbc, 0x35, 0x3e, 0x51, 0x3c, 0x38, 0xbe, 0xe4, 0xa5, 0xd8, 0x3d,
  0xf9, 0xcc, 0x33, 0x3d, 0x0d, 0xec, 0x1e, 0xbd, 0x73, 0xa6, 0x2c, 0xbe,
  0x01, 0xe3, 0x82, 0xbc, 0x34, 0x65, 0x75, 0xbe, 0xbb, 0x3a, 0x3a, 0x3e,
  0xd3, 0x55, 0xcc, 0xbe, 0x0e, 0x75, 0xbf, 0xbc, 0x81, 0x6a, 0x47, 0x3f,
  0xb1, 0x1e, 0x2e, 0xbe, 0xa9, 0x12, 0xa0, 0xbd, 0x4d, 0x18, 0xba, 0xbd,
  0xe7, 0x1a, 0xc1, 0xbd, 0x91, 0x33, 0xce, 0xbc, 0x67, 0xc9, 0x80, 0xbc,
  0x5a, 0xa7, 0x17, 0xbe, 0xec, 0x17, 0xa4, 0x3c, 0x4f, 0x7c, 0x21, 0xbe,
  0x42, 0x37, 0xdc, 0x3c, 0x26, 0x64, 0xc2, 0xbd, 0xe9, 0x97, 0x02, 0x3c,
  0x94, 0x2c, 0x52, 0x3d, 0xe1, 0x8a, 0xa8, 0x3d, 0x00, 0x74, 0x5e, 0xbe,
  0xe9, 0x5a, 0x23, 0xbd, 0x10, 0xcd, 0x06, 0xbe, 0x31, 0x5a, 0x51, 0x3b,
  0xbb, 0x28, 0xd0, 0xbd, 0x99, 0x93, 0x95, 0x3d, 0xe2, 0x0e, 0x2e, 0xbd,
  0xfd, 0xe9, 0x1e, 0xbd, 0x58, 0x68, 0xb0, 0xbd, 0xc5, 0x3e, 0x9f, 0x3c,
  0x54, 0x14, 0xa4, 0xbd, 0x6b, 0x8f, 0x8f, 0xbd, 0x08, 0x8e, 0x1a, 0xbd,
  0x0b, 0x8b, 0x1b, 0xbd, 0x65, 0x95, 0x72, 0x3d, 0xf8, 0xab, 0x02, 0x3e,
  0x4f, 0x44, 0x07, 0x3c, 0x82, 0x63, 0x85, 0x3e, 0x08, 0x72, 0xbb, 0xbd,
  0x4c, 0xaa, 0x0f, 0xbe, 0x46, 0x2f, 0xbd, 0xbd, 0x49, 0xd9, 0xdd, 0xbe,
  0x61, 0x5e, 0x1f, 0x3d, 0x67, 0xde, 0x47, 0xbe, 0x83, 0xf3, 0xc7, 0xbe,
  0x6a, 0x4a, 0x25, 0xbe, 0x85, 0xed, 0x88, 0xbe, 0x37, 0x5e, 0xb9, 0x3e,
  0xb1, 0x3f, 0x3f, 0xbd, 0xe6, 0x77, 0x11, 0xbe, 0x53, 0x2c, 0x40, 0x3e,
  0x38, 0x68, 0x8e, 0x3e, 0x33, 0xf5, 0xb7, 0xbe, 0x2f, 0xb9, 0x6e, 0xbe,
  0x3f, 0xd6, 0xcd, 0xbd, 0xa6, 0xe7, 0x5b, 0x3c, 0xde, 0x42, 0x98, 0xbd,
  0xc7, 0x23, 0x03, 0x3f, 0x42, 0x17, 0x6c, 0xbc, 0xfc, 0xd0, 0x12, 0xbd,
  0x6a, 0x57, 0xa4, 0xbd, 0x06, 0x95, 0x21, 0xbe, 0x58, 0x58, 0x6f, 0xbd,
  0x48, 0x07, 0xb0, 0xbd, 0xc2, 0x72, 0x66, 0xbe, 0xd5, 0xef, 0x81, 0xbc,
  0x5b, 0x5e, 0x3b, 0xbd, 0xcb, 0x32, 0x70, 0x3e, 0x73, 0xe6, 0x92, 0xbd,
  0x67, 0xd1, 0x08, 0xbe, 0x32, 0x36, 0x9f, 0xbd, 0x96, 0x66, 0x8d, 0x3c,
  0x61, 0xd3, 0xf4, 0xbd, 0x65, 0x6e, 0x41, 0xbe, 0xd6, 0x0e, 0xa3, 0xbe,
  0x60, 0x18, 0xb9, 0x3c, 0xf5, 0x0f, 0x11, 0xbe, 0x01, 0x28, 0xb8, 0xbd,
  0xf7, 0x3f, 0xc4, 0xbd, 0xc1, 0xee, 0x52, 0xbd, 0x95, 0x6a, 0xd3, 0xbd,
  0xff, 0x5e, 0x2e, 0xbe, 0xff, 0x34, 0x8e, 0xbe, 0xd5, 0x42, 0x8a, 0xbd,
  0x19, 0x48, 0x79, 0xbe, 0x55, 0x92, 0x0c, 0x3d, 0x41, 0x44, 0x92, 0xbd,
  0x8a, 0xb3, 0x95, 0xbb, 0xb6, 0x76, 0xbf, 0x3c, 0x87, 0x5e, 0xc4, 0xbe,
  0x64, 0xcd, 0x50, 0x3e, 0x91, 0x0c, 0x5b, 0xbe, 0xa3, 0x55, 0xd0, 0xbd,
  0x60, 0x11, 0x78, 0x3e, 0xf9, 0xa6, 0x08, 0xbe, 0xa8, 0x7a, 0x42, 0x3e,
  0x2d, 0x5b, 0xc3, 0xbd, 0x20, 0xe8, 0x8d, 0x3d, 0x87, 0xa4, 0xc4, 0x3e,
  0xbd, 0x2f, 0x14, 0x3e, 0x18, 0x1e, 0x1c, 0xbe, 0x7b, 0x07, 0x6d, 0x3c,
  0x32, 0xc1, 0x9f, 0xbe, 0x8c, 0x3f, 0xf5, 0x3d, 0x64, 0x5a, 0xb2, 0xbc,
  0x98, 0xe6, 0x7b, 0x3e, 0x69, 0x72, 0x06, 0x3f, 0x8b, 0xff, 0x2b, 0x3e,
  0xd4, 0xf9, 0xb4, 0xbe, 0xcc, 0x7f, 0x7a, 0xbe, 0x6a, 0xb4, 0x1e, 0xbe,
  0xd9, 0xa5, 0x91, 0xbd, 0x3c, 0xb2, 0xe7, 0xbe, 0x61, 0x40, 0x15, 0x3e,
  0x2e, 0x20, 0xf0, 0xbe, 0x77, 0x4a, 0xa8, 0x3e, 0x3c, 0x39, 0x49, 0xbe,
  0xa4, 0x8c, 0x42, 0xbe, 0x36, 0xf0, 0xc4, 0xbd, 0xf7, 0x0a, 0x46, 0xbe,
  0xe4, 0xf2, 0x80, 0xbd, 0xd4, 0x04, 0xb4, 0x3c, 0xc1, 0x8b, 0x57, 0xbe,
  0x26, 0x7f, 0xbe, 0x3b, 0x4d, 0x9b, 0xa5, 0xbd, 0xb3, 0x21, 0xfb, 0xbd,
  0xac, 0x90, 0xc2, 0x3b, 0x31, 0x84, 0x88, 0xbc, 0x78, 0xcf, 0x3d, 0x3b,
  0x1b, 0x0a, 0x15, 0xbf, 0x23, 0xa4, 0x84, 0xbc, 0x22, 0x39, 0xcf, 0xbe,
  0xe0, 0xef, 0x1b, 0xbc, 0xa8, 0x94, 0x6d, 0xbd, 0xf0, 0x8f, 0xce, 0xbe,
  0x8c, 0x09, 0x65, 0xbe, 0x97, 0xd7, 0xe0, 0xbe, 0x7b, 0x3b, 0x95, 0x3d,
  0x6e, 0x27, 0x49, 0x3e, 0x31, 0xc9, 0x3c, 0x3e, 0xf3, 0x26, 0x45, 0x3e,
  0xe2, 0x15, 0x54, 0x3e, 0x34, 0x02, 0xad, 0xbe, 0x9d, 0x6a, 0x75, 0x3e,
  0x9b, 0x4c, 0xd6, 0xbe, 0x29, 0x32, 0xa3, 0x3c, 0x9a, 0xb8, 0x31, 0xbd,
  0x49, 0x5d, 0x27, 0x3e, 0xc5, 0x15, 0xef, 0x3d, 0x7d, 0x29, 0x51, 0x3d,
  0xf9, 0x7d, 0x82, 0xbe, 0x75, 0x42, 0x9c, 0x3d, 0x43, 0xfe, 0xe4, 0xbe,
  0xf7, 0xb1, 0xdf, 0x3d, 0xce, 0x4e, 0x7b, 0x3d, 0x9a, 0x63, 0xc1, 0x3d,
  0x68, 0xe9, 0x2b, 0x3e, 0xda, 0xd5, 0x14, 0x3e, 0x38, 0xac, 0x2f, 0xbe,
  0xc1, 0xdc, 0x2c, 0x3c, 0x1f, 0x93, 0xb9, 0xbe, 0x07, 0xd6, 0x15, 0x3e,
  0x33, 0x6c, 0xaf, 0x3d, 0x4b, 0x2d, 0x1b, 0x3d, 0xc9, 0x1d, 0xde, 0x3c,
  0xc6, 0xde, 0xff, 0xff, 0x10, 0x00, 0x00, 0x00, 0x08, 0x00, 0x00, 0x00,
  0x1c, 0x00, 0x00, 0x00, 0x38, 0x00, 0x00, 0x00, 0x04, 0x00, 0x00, 0x00,
  0x10, 0x00, 0x00, 0x00, 0x04, 0x00, 0x00, 0x00, 0x01, 0x00, 0x00, 0x00,
  0x08, 0x00, 0x00, 0x00, 0x1a, 0x00, 0x00, 0x00, 0x73, 0x65, 0x71, 0x75,
  0x65, 0x6e, 0x74, 0x69, 0x61, 0x6c, 0x2f, 0x63, 0x6f, 0x6e, 0x76, 0x32,
  0x64, 0x5f, 0x31, 0x2f, 0x43, 0x6f, 0x6e, 0x76, 0x32, 0x44, 0x00, 0x00,
  0xc0, 0xde, 0xff, 0xff, 0xb6, 0xdf, 0xff, 0xff, 0x04, 0x00, 0x00, 0x00,
  0x80, 0x01, 0x00, 0x00, 0x28, 0xff, 0xf5, 0x3b, 0x76, 0x20, 0xd3, 0xbd,
  0x2b, 0x0a, 0xed, 0xbc, 0xf2, 0x88, 0x8a, 0xbe, 0x33, 0xdd, 0xd1, 0xbe,
  0x09, 0x34, 0xc6, 0xbe, 0x51, 0xd3, 0xa7, 0x3e, 0xc1, 0x84, 0xdc, 0x3e,
  0xc0, 0x80, 0xa0, 0x3e, 0x6d, 0x24, 0x53, 0x3d, 0x70, 0x0d, 0x2f, 0x3e,
  0x80, 0xa2, 0x52, 0x3e, 0xac, 0x1d, 0x0a, 0xbe, 0x41, 0x82, 0x51, 0x3d,
  0x7d, 0x22, 0xf6, 0x3d, 0xd6, 0x18, 0x23, 0xbc, 0xc4, 0x33, 0x44, 0x3c,
  0x4a, 0x68, 0x07, 0x3d, 0x4e, 0xd3, 0x92, 0xbd, 0xf4, 0x00, 0xdd, 0x3c,
  0xbe, 0xe7, 0x2f, 0xbd, 0x0f, 0x47, 0x4b, 0xbd, 0xc3, 0x5c, 0x14, 0x3e,
  0xb7, 0x3e, 0xc7, 0xbc, 0x2d, 0x8f, 0xcb, 0x3d, 0x34, 0x40, 0xf4, 0xbd,
  0xa1, 0x21, 0x28, 0xbe, 0x85, 0x0d, 0xfc, 0xbd, 0x25, 0x8e, 0x81, 0x3d,
  0x6d, 0x77, 0x23, 0xbe, 0x6d, 0xad, 0xc3, 0x3e, 0xb2, 0x5b, 0x24, 0x3e,
  0x3a, 0x9e, 0xa6, 0x3e, 0x20, 0xe3, 0x35, 0xbd, 0x5a, 0x65, 0xa3, 0x3d,
  0x71, 0x56, 0x2d, 0xbd, 0xa3, 0xa7, 0x00, 0xbe, 0x43, 0x59, 0x0f, 0x3d,
  0xc0, 0x75, 0x89, 0x3d, 0xce, 0x46, 0xcc, 0xbd, 0xc5, 0xc8, 0xbf, 0x3c,
  0xfd, 0xdc, 0x03, 0x3d, 0xeb, 0x1b, 0x57, 0x3c, 0xe3, 0xa0, 0xa9, 0x3d,
  0xa8, 0x42, 0x30, 0x3c, 0x0a, 0x50, 0xef, 0x3d, 0x54, 0x10, 0x0d, 0x3e,
  0x82, 0xc3, 0xd8, 0x3d, 0x74, 0x21, 0xac, 0x3e, 0xa8, 0x5b, 0x5e, 0x3d,
  0x95, 0x2d, 0x85, 0xbe, 0xc3, 0xc9, 0x83, 0x3d, 0xef, 0xf4, 0x1a, 0x3e,
  0x7a, 0xd4, 0xd3, 0x3e, 0x9b, 0x84, 0x3b, 0xbe, 0x20, 0xa7, 0x69, 0xbd,
  0x4f, 0x01, 0x81, 0xbd, 0xf3, 0x16, 0x5b, 0xbe, 0x4e, 0x07, 0x1c, 0xbe,
  0x83, 0xb6, 0x02, 0x3d, 0x0e, 0x84, 0xaa, 0xbe, 0xc1, 0x30, 0xf5, 0xbc,
  0x19, 0x0b, 0x2e, 0xbd, 0xd5, 0x34, 0x34, 0xbe, 0xbf, 0x32, 0x3f, 0xbd,
  0x10, 0x6e, 0x6d, 0xbb, 0xd5, 0x70, 0x8b, 0x3e, 0xb2, 0xd5, 0xe5, 0x3d,
  0x13, 0x18, 0x1a, 0x3e, 0x18, 0x1f, 0x74, 0x3e, 0xb9, 0xaf, 0x7c, 0x3d,
  0xe8, 0x83, 0x28, 0xbd, 0xc9, 0x8e, 0xd0, 0x3c, 0xe5, 0x96, 0x8f, 0x3c,
  0xdc, 0x1b, 0xdd, 0x3a, 0xa5, 0x28, 0xc4, 0x3e, 0xc2, 0x68, 0xad, 0x3e,
  0xa0, 0x62, 0xc0, 0x3c, 0xe5, 0xd7, 0x3a, 0xbe, 0xaf, 0x04, 0xc0, 0xbc,
  0x42, 0xea, 0x28, 0x3e, 0xaa, 0x4b, 0x5b, 0xbe, 0x4c, 0xb4, 0x99, 0xbe,
  0x1c, 0x34, 0x2a, 0xbe, 0xa8, 0xe0, 0xec, 0x3d, 0xea, 0xc6, 0x82, 0xbe,
  0x9f, 0x91, 0x31, 0x3e, 0x2a, 0xc2, 0x4a, 0xbd, 0x3c, 0xa0, 0x32, 0xbe,
  0xde, 0xb7, 0x90, 0x3e, 0x69, 0xbe, 0x3f, 0xbe, 0xcc, 0x54, 0x67, 0x3e,
  0xfd, 0x2c, 0xfe, 0xbd, 0x9d, 0x40, 0x03, 0xbd, 0xac, 0xe0, 0xb4, 0x3d,
  0x51, 0x66, 0x92, 0xbd, 0x9e, 0xe0, 0xff, 0xff, 0x10, 0x00, 0x00, 0x00,
  0x07, 0x00, 0x00, 0x00, 0x1c, 0x00, 0x00, 0x00, 0x38, 0x00, 0x00, 0x00,
  0x04, 0x00, 0x00, 0x00, 0x08, 0x00, 0x00, 0x00, 0x04, 0x00, 0x00, 0x00,
  0x03, 0x00, 0x00, 0x00, 0x01, 0x00, 0x00, 0x00, 0x18, 0x00, 0x00, 0x00,
  0x73, 0x65, 0x71, 0x75, 0x65, 0x6e, 0x74, 0x69, 0x61, 0x6c, 0x2f, 0x63,
  0x6f, 0x6e, 0x76, 0x32, 0x64, 0x2f, 0x43, 0x6f, 0x6e, 0x76, 0x32, 0x44,
  0x00, 0x00, 0x00, 0x00, 0x98, 0xe0, 0xff, 0xff, 0x8e, 0xe1, 0xff, 0xff,
  0x04, 0x00, 0x00, 0x00, 0x00, 0x01, 0x00, 0x00, 0x4c, 0x47, 0xc0, 0x3e,
  0x0e, 0x54, 0x1b, 0x3e, 0x9a, 0x0d, 0x91, 0x3e, 0x93, 0x1d, 0x9c, 0xbe,
  0xa2, 0xfb, 0xad, 0xbe, 0x72, 0x40, 0x89, 0x3d, 0x8a, 0x27, 0xad, 0xbd,
  0xbc, 0xa0, 0xd5, 0xbd, 0xdd, 0x03, 0xf8, 0xbd, 0x96, 0x39, 0xc6, 0xbd,
  0xe7, 0xd1, 0x24, 0xbe, 0x93, 0x78, 0x8f, 0xbe, 0xf9, 0x9a, 0x19, 0x3e,
  0xaf, 0xc1, 0xc4, 0xbe, 0xcd, 0x7a, 0x43, 0xbe, 0xe8, 0x60, 0x37, 0x3e,
  0x88, 0xc5, 0xc9, 0x3e, 0x07, 0x08, 0x3f, 0x3e, 0x96, 0x3b, 0x89, 0xbd,
  0xff, 0x75, 0x4c, 0xbe, 0xe7, 0x24, 0x98, 0x3d, 0x4f, 0x90, 0xeb, 0x3d,
  0x66, 0x33, 0xdc, 0xbd, 0x3c, 0x3f, 0xd5, 0xbe, 0x52, 0x21, 0x99, 0xbd,
  0x7c, 0x16, 0x30, 0x3e, 0x90, 0x07, 0x83, 0x3e, 0xf4, 0x3c, 0x55, 0xbe,
  0x5b, 0xd4, 0x26, 0xbd, 0x7a, 0xae, 0x6a, 0xbe, 0xb0, 0x15, 0xef, 0xbd,
  0xf0, 0xca, 0x0b, 0x3e, 0xfa, 0x4e, 0xad, 0xbe, 0x65, 0x1a, 0xa9, 0xbc,
  0x82, 0x4d, 0xec, 0xba, 0x79, 0xca, 0x85, 0xbe, 0x20, 0x5f, 0xef, 0xbe,
  0x0b, 0x1a, 0x94, 0xbf, 0x61, 0x20, 0x09, 0xbf, 0x18, 0xde, 0x33, 0xbe,
  0xaf, 0x20, 0xc4, 0xbd, 0x94, 0xf1, 0x03, 0x3b, 0xc9, 0x4d, 0x09, 0xbe,
  0x0d, 0x72, 0x8c, 0x3e, 0x3f, 0x41, 0xd1, 0xbe, 0x5b, 0x31, 0x60, 0xbf,
  0x8c, 0x89, 0xbb, 0x3e, 0xd4, 0x7a, 0x4c, 0xbe, 0xfb, 0x66, 0x67, 0x3e,
  0xa5, 0x3a, 0x4a, 0x3d, 0xeb, 0xc7, 0xb3, 0x3d, 0x19, 0xd8, 0x46, 0xbe,
  0xd9, 0x8a, 0xd0, 0x3e, 0x80, 0x4b, 0x42, 0x3d, 0xaf, 0x11, 0x26, 0xbe,
  0xef, 0x32, 0xc3, 0xbe, 0x4a, 0xb4, 0xdf, 0xbc, 0x43, 0x43, 0x07, 0x3d,
  0x86, 0x81, 0xbf, 0xbe, 0xcd, 0x2b, 0xb9, 0x3d, 0x28, 0x3b, 0xc4, 0xbd,
  0x86, 0x0d, 0x3c, 0xbe, 0x92, 0x81, 0x44, 0xbe, 0xdb, 0xd8, 0xb3, 0x3d,
  0xf6, 0xe1, 0xff, 0xff, 0x10, 0x00, 0x00, 0x00, 0x06, 0x00, 0x00, 0x00,
  0x14, 0x00, 0x00, 0x00, 0x30, 0x00, 0x00, 0x00, 0x02, 0x00, 0x00, 0x00,
  0x04, 0x00, 0x00, 0x00, 0x10, 0x00, 0x00, 0x00, 0x19, 0x00, 0x00, 0x00,
  0x73, 0x65, 0x71, 0x75, 0x65, 0x6e, 0x74, 0x69, 0x61, 0x6c, 0x2f, 0x64,
  0x65, 0x6e, 0x73, 0x65, 0x5f, 0x31, 0x2f, 0x4d, 0x61, 0x74, 0x4d, 0x75,
  0x6c, 0x00, 0x00, 0x00, 0xe8, 0xe1, 0xff, 0xff, 0xde, 0xe2, 0xff, 0xff,
  0x04, 0x00, 0x00, 0x00, 0x00, 0x1c, 0x00, 0x00, 0xea, 0xb5, 0x22, 0x3c,
  0x91, 0x67, 0x86, 0x3d, 0x1a, 0x09, 0x50, 0x3d, 0x1b, 0x0f, 0x07, 0x3e,
  0x2a, 0x4a, 0xda, 0x3d, 0xdc, 0x71, 0x99, 0x3f, 0xda, 0xae, 0x57, 0x3d,
  0x81, 0xd0, 0xd7, 0xbb, 0xea, 0x51, 0xee, 0x3c, 0x54, 0x99, 0xa0, 0x3d,
  0x44, 0xde, 0x10, 0x3e, 0x34, 0xc8, 0x41, 0x3e, 0x3e, 0x70, 0x38, 0x3e,
  0xf7, 0xeb, 0x18, 0xbc, 0x06, 0xd6, 0x3a, 0x3e, 0x8e, 0xa5, 0xc5, 0xbd,
  0x56, 0x2a, 0x82, 0x3d, 0x94, 0xf7, 0x81, 0x3d, 0xdb, 0xfb, 0x76, 0x3e,
  0xf6, 0xb3, 0xc8, 0xbd, 0x2d, 0xf1, 0x8e, 0x3e, 0xb3, 0x30, 0xd5, 0x3f,
  0x61, 0x52, 0xa8, 0xbc, 0x36, 0x4e, 0x98, 0xbe, 0x39, 0x93, 0x52, 0xbc,
  0x61, 0xd2, 0x52, 0x3d, 0x8f, 0x77, 0xac, 0x3d, 0x90, 0x6b, 0x69, 0xbe,
  0x32, 0x79, 0x86, 0x3e, 0xfb, 0x36, 0x3c, 0xbe, 0x95, 0x6a, 0x97, 0x3e,
  0xa4, 0xc3, 0x7f, 0xbe, 0x01, 0x9e, 0xbc, 0x3d, 0xa7, 0x57, 0xc3, 0x3c,
  0x2a, 0x52, 0xf0, 0x3d, 0x00, 0x20, 0x84, 0xbd, 0xcc, 0xf4, 0x06, 0x3e,
  0x5f, 0x2b, 0xe3, 0x3f, 0xc3, 0xe8, 0x35, 0xbe, 0xc1, 0xb2, 0x22, 0xbd,
  0x37, 0xf6, 0x27, 0xbd, 0xef, 0x14, 0x50, 0xbd, 0x7d, 0xc1, 0x81, 0x3c,
  0x54, 0xd2, 0x58, 0xbe, 0x18, 0x38, 0xfe, 0xbd, 0x65, 0xaa, 0x34, 0xbd,
  0xd7, 0xc6, 0x44, 0xbd, 0xbb, 0xa4, 0xae, 0xbe, 0x92, 0xcb, 0x3b, 0xbd,
  0xa4, 0x4e, 0x85, 0x3c, 0x83, 0x6f, 0x5d, 0xbd, 0xb4, 0x59, 0x82, 0xbd,
  0xfc, 0x16, 0x9f, 0xbc, 0xfa, 0x24, 0xfb, 0x3f, 0x31, 0x80, 0xce, 0xbc,
  0xbe, 0xfd, 0xcf, 0x3d, 0x72, 0x06, 0xf2, 0xbc, 0x74, 0xb1, 0x01, 0x3d,
  0x57, 0xf6, 0x50, 0x3d, 0x55, 0x55, 0x7e, 0xbd, 0xc0, 0xb8, 0x2b, 0xbe,
  0x20, 0x76, 0x24, 0x3e, 0xcd, 0x87, 0x87, 0xbe, 0x8f, 0xed, 0xbd, 0xbe,
  0x8a, 0xcd, 0xbc, 0x3d, 0xf8, 0x25, 0x02, 0x3e, 0x86, 0x6c, 0x6d, 0x3d,
  0x40, 0xbb, 0x02, 0xbe, 0xe7, 0x94, 0x3d, 0x3e, 0x5e, 0x0e, 0xb4, 0x3f,
  0xfa, 0xbc, 0x97, 0x3e, 0x2c, 0xe8, 0x44, 0x3e, 0xe9, 0x0c, 0x14, 0xbd,
  0x2c, 0x1f, 0x30, 0x3c, 0x5a, 0xb6, 0x35, 0xbd, 0xd1, 0x8e, 0xf9, 0xbd,
  0xc2, 0x43, 0x6c, 0x3e, 0x66, 0xbc, 0xda, 0x3e, 0x95, 0x9a, 0x3c, 0x3c,
  0x28, 0x36, 0x62, 0xbe, 0xf9, 0x15, 0xdd, 0x3d, 0x14, 0x56, 0x0e, 0x3e,
  0x00, 0xab, 0xf9, 0xba, 0x7d, 0xc7, 0x89, 0xbd, 0x83, 0x4e, 0x7e, 0xbc,
  0x20, 0x4f, 0xc1, 0x3f, 0xff, 0x31, 0xf8, 0x3e, 0x61, 0x12, 0x20, 0x3e,
  0x76, 0xf4, 0x41, 0xbc, 0x9f, 0x9d, 0x74, 0xbd, 0xe7, 0x37, 0xa8, 0x3d,
  0xbb, 0xda, 0xa2, 0xbd, 0xbd, 0x06, 0xe4, 0x3d, 0x82, 0x95, 0xd5, 0x3e,
  0x17, 0x4e, 0x07, 0x3f, 0xd9, 0x9c, 0x33, 0xbe, 0xac, 0x09, 0x5c, 0x3d,
  0xda, 0xde, 0xba, 0x3d, 0xac, 0xe1, 0x11, 0x3d, 0x74, 0xa0, 0x2d, 0x3b,
  0x8c, 0x5b, 0xc3, 0xbd, 0x37, 0x09, 0x51, 0xbd, 0x75, 0x9c, 0x2b, 0x3e,
  0x13, 0x04, 0x7a, 0xbd, 0x91, 0x52, 0x19, 0x3d, 0x64, 0xac, 0xf7, 0x3c,
  0x1a, 0x28, 0x7a, 0x3d, 0x7e, 0x08, 0x5e, 0x3d, 0xd2, 0xbc, 0x40, 0x3d,
  0xcc, 0xd9, 0x9b, 0x3e, 0xb7, 0x9d, 0x77, 0x3d, 0xeb, 0x22, 0xf1, 0xbc,
  0xf2, 0xc6, 0x8b, 0xbe, 0xc1, 0x22, 0xc8, 0x3d, 0x93, 0x28, 0x42, 0xbe,
  0xf2, 0xe9, 0x69, 0x3e, 0xd1, 0xfe, 0x89, 0x3c, 0x8f, 0x70, 0xdd, 0x3e,
  0xcd, 0x05, 0x4b, 0x3e, 0x5e, 0x12, 0x83, 0x3d, 0x74, 0xad, 0x3f, 0x3c,
  0x5a, 0x70, 0xac, 0xbd, 0x68, 0x91, 0x2b, 0x3e, 0xd3, 0x4a, 0xb0, 0x3e,
  0x36, 0x66, 0x0c, 0x3e, 0xd1, 0x87, 0x3e, 0x3e, 0x4a, 0x4f, 0x6c, 0x3e,
  0x6a, 0xb6, 0x8f, 0x3d, 0xd5, 0x70, 0x92, 0xbd, 0x43, 0x55, 0x96, 0xbe,
  0x0b, 0xce, 0x00, 0x3f, 0x16, 0xfb, 0x4a, 0xbe, 0x03, 0xb0, 0x4e, 0x3e,
  0x39, 0x6f, 0xd5, 0x3e, 0xa2, 0xf2, 0x97, 0xbe, 0x6f, 0xff, 0x89, 0x3d,
  0x7f, 0xf1, 0xcf, 0xbd, 0x06, 0x77, 0xe5, 0x3c, 0xaa, 0xe7, 0x20, 0x3d,
  0x31, 0x1a, 0x79, 0xbe, 0x7a, 0x40, 0xd8, 0x3c, 0x6a, 0x13, 0x37, 0x3e,
  0x71, 0x64, 0x63, 0x3e, 0x10, 0xc9, 0x98, 0xbe, 0x4e, 0x29, 0x07, 0xbf,
  0xae, 0x50, 0x00, 0xbf, 0xab, 0xa1, 0x1b, 0xbe, 0xa9, 0x44, 0x01, 0xbf,
  0xc5, 0xc5, 0xa3, 0xbd, 0x8e, 0x94, 0xb1, 0x3e, 0x39, 0xdd, 0x1a, 0xbd,
  0xb2, 0x40, 0xaf, 0xbd, 0x7f, 0x1e, 0xd1, 0xbd, 0x65, 0x29, 0xc2, 0xbe,
  0x6a, 0xa3, 0xc4, 0xbe, 0x09, 0xd5, 0xe9, 0xbe, 0x39, 0x9f, 0x4a, 0xbe,
  0x1b, 0xd5, 0x14, 0x3e, 0xb5, 0xd9, 0x38, 0xbe, 0x9a, 0x99, 0xe5, 0xbe,
  0x07, 0x7e, 0xe7, 0xbd, 0xef, 0xc7, 0x06, 0xbf, 0xb9, 0xc1, 0x54, 0xbe,
  0xae, 0x34, 0xe4, 0xbd, 0x96, 0x7e, 0xf7, 0x3d, 0x1f, 0x31, 0xa8, 0x3e,
  0x93, 0x0d, 0x53, 0x3e, 0x1f, 0xfa, 0xcb, 0x3d, 0x7b, 0xf3, 0x04, 0xbe,
  0xce, 0x90, 0x7f, 0xbe, 0x25, 0xaf, 0x35, 0xbf, 0xc6, 0xd7, 0x3f, 0xbe,
  0xee, 0x61, 0x17, 0xbe, 0x1e, 0x16, 0x86, 0x3e, 0x0f, 0x4b, 0x76, 0xbe,
  0xc3, 0x8a, 0x85, 0xbe, 0x9c, 0x19, 0x89, 0x3d, 0x8b, 0xb4, 0x7d, 0xbb,
  0x6c, 0x03, 0xb5, 0x3d, 0x6f, 0x1c, 0x1d, 0x3d, 0x63, 0xea, 0x62, 0x3e,
  0xcd, 0xda, 0xdb, 0x3e, 0x51, 0x84, 0xb7, 0x3e, 0xf2, 0x71, 0xc0, 0x3e,
  0xe0, 0xb5, 0xa5, 0xbd, 0xec, 0xd0, 0x96, 0xbe, 0xd1, 0xee, 0x6b, 0xbe,
  0x28, 0x31, 0x55, 0x3c, 0xcc, 0x66, 0xb4, 0x3e, 0xce, 0xe3, 0xf9, 0x3e,
  0x9b, 0xb9, 0x55, 0x3d, 0xa2, 0xe1, 0x04, 0x3d, 0x17, 0x64, 0xe3, 0x3c,
  0xf6, 0x6d, 0x70, 0x3d, 0xf4, 0xfc, 0x37, 0xbe, 0xa6, 0xd0, 0xa8, 0x3d,
  0x79, 0xa7, 0x48, 0x3c, 0x02, 0x6a, 0x08, 0x3f, 0xbc, 0xad, 0xa5, 0x3e,
  0x57, 0xdd, 0x35, 0x3e, 0xb7, 0x0f, 0x42, 0xbd, 0x90, 0x25, 0x55, 0xbe,
  0x78, 0x2a, 0x1e, 0x3e, 0x7b, 0x19, 0x8e, 0x3d, 0x7c, 0xba, 0xaf, 0x3e,
  0x3b, 0xee, 0xde, 0x3e, 0x13, 0xca, 0xb8, 0x3e, 0x69, 0x8c, 0xc3, 0xbd,
  0xc1, 0x18, 0x18, 0xbd, 0xe0, 0xb6, 0xc1, 0x3d, 0x9d, 0xb5, 0xeb, 0x3c,
  0x6f, 0x21, 0x5a, 0xbd, 0xbf, 0xcc, 0x93, 0xbd, 0x50, 0xa2, 0x46, 0xbd,
  0xab, 0xa0, 0x7e, 0x3e, 0xaa, 0x13, 0x21, 0x3e, 0x08, 0xd8, 0x87, 0xbd,
  0xf6, 0x40, 0x0d, 0xbd, 0xd1, 0xc4, 0x60, 0x3d, 0x6a, 0x46, 0x4c, 0x3d,
  0x99, 0x79, 0xf7, 0x3d, 0x6b, 0xa9, 0xb0, 0x3e, 0x93, 0xf8, 0x46, 0x3e,
  0x67, 0x84, 0x4f, 0xbd, 0x0c, 0x18, 0x51, 0xbd, 0x10, 0x13, 0x93, 0x3d,
  0xd5, 0x48, 0xe8, 0xbd, 0xfd, 0x4d, 0x4a, 0xbe, 0x31, 0x56, 0x79, 0xbd,
  0x8a, 0x69, 0x9f, 0x3e, 0x46, 0x2a, 0x13, 0x3e, 0xcf, 0xb7, 0xbe, 0xbd,
  0xc3, 0x08, 0x6d, 0xbe, 0x27, 0x9c, 0xd4, 0xbd, 0xf6, 0xe8, 0xb2, 0xbd,
  0x9d, 0xe1, 0x03, 0xbe, 0x04, 0x54, 0x55, 0xbe, 0xb4, 0x4b, 0xbf, 0x3e,
  0xd3, 0x4d, 0x3e, 0xbc, 0xfd, 0x18, 0xfa, 0x3d, 0x56, 0xb8, 0xa7, 0x3d,
  0x57, 0x4b, 0x3c, 0xbd, 0xbb, 0x27, 0x78, 0xbe, 0x9a, 0x48, 0x89, 0xbe,
  0x34, 0x95, 0x00, 0x3e, 0xb1, 0x84, 0xae, 0x3e, 0x0b, 0x11, 0x49, 0x3e,
  0xdf, 0x51, 0x06, 0x3f, 0x22, 0xb2, 0x33, 0xbd, 0x44, 0x9e, 0x5c, 0xbe,
  0x3a, 0x3a, 0xc6, 0xbc, 0x33, 0x4e, 0x17, 0x3e, 0xa3, 0xe7, 0x27, 0x3e,
  0xdb, 0x42, 0x16, 0x3f, 0x85, 0xa4, 0xda, 0xbd, 0x13, 0xf7, 0x92, 0x3d,
  0xca, 0x1d, 0x19, 0x3e, 0xb5, 0x86, 0x3e, 0xbe, 0x20, 0x11, 0x8d, 0xbd,
  0xf4, 0x32, 0x71, 0xbe, 0x54, 0x90, 0x23, 0x3c, 0x58, 0xee, 0xaa, 0x3e,
  0x45, 0x15, 0xa4, 0xbd, 0x18, 0xc9, 0x40, 0x3e, 0x65, 0x94, 0x26, 0xbe,
  0x9b, 0x92, 0x81, 0xbe, 0xd9, 0xe3, 0x4b, 0x3e, 0x7f, 0xb3, 0x4d, 0xbe,
  0x36, 0xb1, 0xfe, 0x3d, 0x40, 0xce, 0x9a, 0x3e, 0xd6, 0x21, 0x82, 0x3d,
  0x4d, 0xac, 0xf1, 0x3e, 0xdf, 0x75, 0x36, 0x3d, 0x4b, 0x22, 0xa7, 0xbc,
  0xa9, 0x8a, 0xf9, 0xbd, 0x82, 0x14, 0x43, 0xbe, 0x6b, 0xc2, 0xd5, 0x3d,
  0xd6, 0x0c, 0xff, 0x3e, 0xf9, 0xb6, 0x5c, 0xbe, 0x4d, 0x57, 0xb9, 0x3e,
  0xee, 0x69, 0x88, 0xbe, 0xf8, 0xbd, 0x93, 0xbe, 0x9d, 0x74, 0x2b, 0xbe,
  0x20, 0x23, 0x07, 0x3e, 0x85, 0xbe, 0x09, 0xbe, 0x48, 0x08, 0xdb, 0x3e,
  0xf0, 0xd8, 0x39, 0x3e, 0x58, 0xb5, 0x90, 0x3e, 0x11, 0x6a, 0x4a, 0xbe,
  0x42, 0xa8, 0x55, 0xbe, 0x4d, 0xc5, 0xa4, 0xbd, 0x5d, 0x2e, 0x98, 0xbe,
  0x70, 0x5b, 0x76, 0xbe, 0x2b, 0x30, 0x83, 0x3e, 0x07, 0x15, 0x70, 0x3d,
  0x35, 0xda, 0x29, 0x3d, 0x8c, 0x9f, 0x7a, 0xbe, 0x06, 0x6b, 0xab, 0xbe,
  0xa7, 0x88, 0x5e, 0x3d, 0xb1, 0xa5, 0xbc, 0x3d, 0xe2, 0xf7, 0xd1, 0x3d,
  0x57, 0x7b, 0x8a, 0x3e, 0x9e, 0x5a, 0x23, 0xbd, 0x80, 0x6a, 0xe1, 0x3d,
  0xad, 0xb2, 0x96, 0x3d, 0xd7, 0xa6, 0x07, 0xbc, 0x5b, 0x24, 0x8f, 0xbe,
  0xcf, 0xee, 0x8a, 0xbe, 0xcf, 0x16, 0xeb, 0x3d, 0x13, 0x20, 0xf1, 0x3e,
  0x49, 0xd1, 0x10, 0xbc, 0x4a, 0xce, 0x68, 0xbd, 0xe2, 0xec, 0x66, 0xbe,
  0x5c, 0x16, 0xa0, 0xbe, 0xa1, 0xc6, 0x8e, 0xbe, 0xe8, 0xa2, 0x6f, 0xbe,
  0xd3, 0xe6, 0xe9, 0xbc, 0x11, 0x5e, 0x31, 0x3e, 0x7f, 0x11, 0x9d, 0x3d,
  0xf8, 0xdf, 0x85, 0x3e, 0x86, 0x36, 0xf6, 0xbd, 0x93, 0x55, 0xee, 0xbc,
  0xe1, 0x93, 0x1e, 0xbe, 0x98, 0xb4, 0x75, 0xbe, 0xe7, 0x1b, 0x9c, 0xbc,
  0x8c, 0x2c, 0xc4, 0x3e, 0xb4, 0xb6, 0xdd, 0xbd, 0x09, 0x69, 0x54, 0x3e,
  0xba, 0xe1, 0x80, 0xbc, 0xdb, 0x62, 0x3d, 0xbe, 0xc1, 0xac, 0x6c, 0xbe,
  0x35, 0x3f, 0x17, 0x3d, 0x07, 0x58, 0xa0, 0x3c, 0x82, 0x14, 0x30, 0x3e,
  0xee, 0xfa, 0x36, 0xbb, 0x5d, 0x1e, 0x99, 0xbd, 0x2f, 0xcc, 0xde, 0x3c,
  0xdb, 0xdd, 0x87, 0xbd, 0x06, 0x33, 0x84, 0x3b, 0xce, 0xa8, 0xc4, 0xbd,
  0x33, 0xcd, 0x6a, 0x3d, 0x25, 0x43, 0x45, 0xbd, 0xb0, 0xdc, 0xb6, 0xbd,
  0x0f, 0x70, 0x1c, 0x3e, 0xda, 0xad, 0x0b, 0xbe, 0xbe, 0x47, 0x97, 0xbd,
  0x3d, 0xaa, 0x15, 0xbe, 0x27, 0xcb, 0x7f, 0x3d, 0x17, 0xdc, 0x09, 0xbe,
  0x9a, 0x12, 0x31, 0xbd, 0x89, 0x2b, 0xf9, 0xbd, 0xdc, 0x87, 0xea, 0x3d,
  0xf6, 0x72, 0x06, 0xbe, 0xf4, 0x7a, 0x97, 0xbc, 0x98, 0xba, 0x16, 0x3b,
  0xb3, 0xfa, 0x10, 0xbd, 0x62, 0xc8, 0x11, 0x3e, 0xd6, 0xbd, 0x4f, 0xbd,
  0x53, 0xcb, 0x8a, 0x3e, 0x3c, 0xe7, 0xab, 0x3e, 0x40, 0x1d, 0x09, 0xbe,
  0xa2, 0x20, 0x61, 0xbe, 0x6d, 0x58, 0xe2, 0x3d, 0xe5, 0x88, 0x42, 0x3e,
  0xfe, 0xae, 0x19, 0x3d, 0x1a, 0xb3, 0x28, 0xbe, 0x18, 0x56, 0x78, 0x3d,
  0xdc, 0x59, 0xee, 0x3e, 0x2f, 0x55, 0xbc, 0xbd, 0xb9, 0xb2, 0xff, 0xbd,
  0xa5, 0x58, 0x69, 0xbd, 0xb6, 0x66, 0x53, 0xbd, 0x70, 0xc5, 0xff, 0xbc,
  0xf7, 0x9a, 0xe0, 0xbd, 0x0b, 0x98, 0x86, 0x3e, 0x50, 0x1e, 0x1d, 0x3e,
  0x9c, 0x95, 0xb0, 0xbe, 0x5c, 0x25, 0x8d, 0xbd, 0xa9, 0x29, 0x91, 0x3d,
  0xa2, 0xc9, 0x81, 0x3e, 0xe2, 0xa7, 0xae, 0x3e, 0xdb, 0xe6, 0x3e, 0x3e,
  0xe0, 0x7b, 0x00, 0xbd, 0x09, 0x8e, 0x04, 0x3f, 0xf2, 0xa8, 0xb8, 0x3e,
  0x08, 0x25, 0x36, 0x3b, 0xa6, 0x45, 0x87, 0x3d, 0x01, 0x02, 0xfc, 0xbd,
  0x1d, 0x06, 0x27, 0xbe, 0x1c, 0x36, 0x0a, 0xbe, 0xe0, 0x7e, 0x83, 0xbd,
  0x89, 0x41, 0x11, 0xbd, 0x01, 0x2a, 0x16, 0xbe, 0xe3, 0x2a, 0x94, 0x3c,
  0xdb, 0xb6, 0x8b, 0x3d, 0x8a, 0x34, 0xb6, 0x3d, 0x92, 0x28, 0x5a, 0x3e,
  0xb4, 0x5c, 0x18, 0x3d, 0x39, 0x35, 0x3d, 0x3e, 0x71, 0x73, 0x78, 0x3e,
  0x02, 0xde, 0xa9, 0xbb, 0x40, 0x00, 0x8a, 0x3c, 0x8d, 0x51, 0x01, 0x3e,
  0x6c, 0x68, 0x87, 0xbe, 0xfc, 0x95, 0x14, 0xbc, 0xd5, 0xf7, 0x89, 0xbd,
  0xe6, 0x1a, 0x26, 0x3e, 0x90, 0x11, 0x00, 0x3d, 0x3d, 0x0f, 0x42, 0xbe,
  0x30, 0x1c, 0xa8, 0x3d, 0xdc, 0x6d, 0xd3, 0xbd, 0xd4, 0x3c, 0x7d, 0x3d,
  0x7b, 0x6e, 0x28, 0x3e, 0x24, 0x83, 0xa5, 0xba, 0x80, 0x9b, 0x50, 0x3e,
  0xee, 0x1a, 0xef, 0x3e, 0x2a, 0x18, 0xcf, 0xbd, 0x5b, 0xca, 0x12, 0xbe,
  0xdc, 0xbc, 0x12, 0xbe, 0xf2, 0x6a, 0x33, 0xbd, 0x10, 0xe9, 0xad, 0xbd,
  0x10, 0xe1, 0xd5, 0x3b, 0x09, 0x4a, 0xbd, 0xbd, 0x77, 0x0e, 0x8a, 0x3e,
  0xc9, 0x5b, 0xe9, 0xbd, 0x5e, 0x20, 0x02, 0x3e, 0xa1, 0xe9, 0x8d, 0xbe,
  0x9a, 0x65, 0x2c, 0x3e, 0x73, 0xf8, 0xf5, 0xbd, 0x85, 0x8b, 0x58, 0xbe,
  0x2e, 0x9a, 0x3a, 0xbe, 0xcf, 0x98, 0xbc, 0x3c, 0x93, 0x4d, 0x3d, 0xbe,
  0x48, 0x14, 0x73, 0x3d, 0x68, 0xf0, 0x59, 0x3e, 0x35, 0x34, 0x85, 0x3d,
  0xbb, 0x61, 0x4a, 0x3e, 0xe2, 0xbf, 0x77, 0x3d, 0x26, 0xc1, 0x69, 0x3e,
  0x40, 0x29, 0xb3, 0x3e, 0xe4, 0xab, 0x0e, 0xbe, 0x67, 0x15, 0x33, 0xbe,
  0x32, 0xc8, 0x46, 0xbe, 0x2a, 0xd8, 0xce, 0x3d, 0x75, 0xd1, 0x1f, 0x3e,
  0x36, 0x91, 0x05, 0xbd, 0x7b, 0x11, 0x3a, 0xbd, 0x00, 0x1f, 0x1a, 0x3e,
  0xc4, 0x24, 0x5b, 0x3c, 0x6a, 0x13, 0x9f, 0x3d, 0x49, 0xeb, 0x85, 0xbe,
  0x07, 0x5c, 0x9a, 0xbe, 0xb3, 0x4f, 0xb4, 0x3d, 0x8d, 0x59, 0x1b, 0xbd,
  0x6b, 0xf3, 0x19, 0x3d, 0xab, 0xfa, 0xef, 0xbd, 0x50, 0xb2, 0xda, 0xbd,
  0xc9, 0xf4, 0x01, 0xbd, 0x29, 0x87, 0xe4, 0xbc, 0x76, 0xa4, 0x3e, 0xbe,
  0x3f, 0xfc, 0x11, 0x3e, 0x61, 0x1f, 0x38, 0x3e, 0x1a, 0xe8, 0x30, 0x3d,
  0x66, 0xbe, 0x9f, 0xbd, 0xdb, 0x91, 0x99, 0xbe, 0x39, 0x57, 0x1f, 0x3e,
  0x9b, 0x58, 0x71, 0xbd, 0x9b, 0x26, 0x9a, 0xbe, 0x20, 0x6d, 0xca, 0x3d,
  0x04, 0xcc, 0x13, 0xbd, 0x06, 0xc6, 0x5e, 0xbd, 0x88, 0x74, 0x70, 0x3e,
  0x60, 0x67, 0x58, 0xbe, 0xe6, 0x0b, 0x7d, 0xba, 0x3e, 0xb5, 0xd8, 0xbc,
  0x3d, 0x73, 0xb7, 0x3b, 0xe3, 0xdc, 0xa5, 0xbc, 0x86, 0x3c, 0x64, 0xbd,
  0x5c, 0xbf, 0xfe, 0x3c, 0x41, 0xe7, 0x17, 0xbe, 0x2b, 0xea, 0x03, 0xbe,
  0x2b, 0x42, 0x65, 0x3d, 0xbc, 0x7b, 0xc9, 0x3c, 0x55, 0xb5, 0x9a, 0xbe,
  0xcc, 0x50, 0x4f, 0x3d, 0x5c, 0xb1, 0x14, 0xbe, 0x51, 0x55, 0x02, 0x3e,
  0x15, 0xf6, 0xf2, 0x3d, 0xfd, 0xf7, 0x15, 0xbe, 0x23, 0xdc, 0x85, 0xbe,
  0xb1, 0x11, 0x21, 0xbe, 0xcd, 0x0f, 0x62, 0xbe, 0x47, 0xa7, 0x07, 0x3e,
  0x18, 0x0c, 0xfd, 0xbd, 0xdc, 0xf8, 0x51, 0xbe, 0x92, 0xdd, 0x88, 0xbe,
  0xdf, 0x8d, 0x18, 0x3e, 0xf4, 0x85, 0xa6, 0x3d, 0xc5, 0x69, 0xbb, 0x3d,
  0x89, 0x71, 0x2c, 0xbe, 0xcd, 0x9b, 0x41, 0xbe, 0x2d, 0x7a, 0x0a, 0x3d,
  0xcb, 0x4c, 0x91, 0xbd, 0xd5, 0x35, 0x0b, 0xbe, 0x7a, 0x90, 0x49, 0x3c,
  0x4a, 0x8c, 0x8b, 0xbe, 0xc6, 0x25, 0x4e, 0xbe, 0xbb, 0x32, 0xf6, 0xbd,
  0x5c, 0x5d, 0x20, 0xbe, 0x4b, 0x72, 0x65, 0x3d, 0x36, 0x22, 0x32, 0xbe,
  0x34, 0xe1, 0xe4, 0xbd, 0x66, 0x91, 0x2a, 0xbe, 0x0c, 0x98, 0x04, 0xbe,
  0xe9, 0xc4, 0xbb, 0xbd, 0x0a, 0xbc, 0xa7, 0xbe, 0xef, 0x41, 0x02, 0xbd,
  0x76, 0x33, 0xe5, 0x3c, 0x9c, 0xf9, 0x82, 0xbe, 0x02, 0x5a, 0x57, 0x3d,
  0xb5, 0xbf, 0x81, 0xbd, 0xd2, 0x68, 0x14, 0xbe, 0x7f, 0xf0, 0x55, 0xbd,
  0x73, 0x7d, 0xfd, 0xbd, 0x10, 0x73, 0x03, 0xbe, 0x29, 0xc3, 0x37, 0xbd,
  0x2b, 0x9f, 0x27, 0x3e, 0xdb, 0x32, 0x8e, 0xbc, 0x5c, 0xf1, 0xa3, 0xbd,
  0x2c, 0x07, 0x1e, 0x3b, 0x39, 0x17, 0x7b, 0xbe, 0x13, 0x23, 0xa6, 0xbe,
  0x19, 0x68, 0x89, 0x3d, 0xde, 0x23, 0x19, 0xbe, 0xa9, 0xc8, 0x65, 0x3d,
  0xb2, 0xc6, 0x58, 0xbe, 0xa2, 0x1d, 0x9e, 0xbe, 0x31, 0x62, 0x58, 0xbd,
  0xcc, 0x00, 0x8a, 0x3d, 0x1a, 0xe5, 0x05, 0x3c, 0x4e, 0xa2, 0x34, 0xbe,
  0xdc, 0xe5, 0x11, 0x3e, 0xb2, 0x5c, 0x12, 0x3e, 0x50, 0xa9, 0xd1, 0xbc,
  0xa8, 0x23, 0x5c, 0xbd, 0x24, 0x53, 0xa0, 0xbd, 0x89, 0xaa, 0x5e, 0x3e,
  0xef, 0x00, 0x50, 0xbe, 0xc6, 0x90, 0x3f, 0xbe, 0xd8, 0xa7, 0x4b, 0xbd,
  0xaf, 0x61, 0x42, 0xbe, 0x4f, 0xc5, 0x3c, 0xbe, 0xf3, 0xe3, 0x89, 0x3d,
  0x37, 0x53, 0xfd, 0xbd, 0x39, 0xda, 0xc8, 0xbd, 0x95, 0x2a, 0xcf, 0xbd,
  0x60, 0x8b, 0xd0, 0x3c, 0x96, 0x92, 0x0d, 0xbe, 0x5b, 0xdd, 0x39, 0x3e,
  0x90, 0x82, 0xba, 0xbd, 0x5d, 0xe9, 0x82, 0xbe, 0x94, 0x3b, 0xcd, 0x3b,
  0xbe, 0xb4, 0x59, 0xbe, 0xfb, 0x39, 0x72, 0x3e, 0x70, 0xbd, 0x15, 0xbe,
  0xa6, 0xfe, 0xf9, 0xbd, 0x45, 0x6e, 0x8f, 0x3e, 0xcd, 0x15, 0x00, 0x3d,
  0xda, 0xa0, 0xb6, 0x3c, 0xa1, 0x17, 0x43, 0x3d, 0x9a, 0x45, 0x00, 0xbe,
  0x02, 0xd4, 0xb8, 0x3e, 0xe3, 0xc5, 0xc4, 0x3e, 0x2c, 0xb8, 0x11, 0x3e,
  0xda, 0xae, 0xb0, 0x3e, 0x98, 0x24, 0x89, 0x3c, 0x0f, 0x40, 0x25, 0xbe,
  0xbc, 0x69, 0x14, 0xbe, 0xbe, 0xd2, 0x73, 0x3e, 0x88, 0x63, 0x0a, 0xbe,
  0xf6, 0xc0, 0x49, 0x3e, 0x39, 0x03, 0x94, 0xbe, 0x08, 0xa8, 0x7b, 0xbe,
  0xfe, 0x04, 0x8e, 0xbe, 0x06, 0x77, 0xe2, 0xbc, 0xb5, 0x7e, 0x29, 0xbc,
  0x47, 0x40, 0x4e, 0x3e, 0x8b, 0xb4, 0x13, 0xbe, 0x82, 0xe3, 0x2a, 0x3c,
  0x81, 0xe5, 0x4e, 0xbe, 0x3b, 0x54, 0x73, 0x3e, 0x7c, 0xdb, 0x97, 0xbe,
  0x21, 0xcb, 0xe8, 0xbd, 0xad, 0x71, 0xd8, 0xbe, 0xa4, 0x96, 0x70, 0x3d,
  0x68, 0xbf, 0x82, 0xbe, 0xef, 0x67, 0xc2, 0xbe, 0x56, 0x44, 0x5a, 0xbe,
  0xe8, 0x0f, 0xf4, 0xbe, 0x52, 0x3c, 0xac, 0xbe, 0xbe, 0xee, 0x52, 0xbd,
  0x72, 0x86, 0x33, 0xbe, 0xb0, 0x2a, 0x7c, 0xbe, 0xa5, 0xb7, 0x4e, 0xbe,
  0xfb, 0xdf, 0xae, 0xbe, 0x0f, 0x5a, 0x92, 0xbe, 0xaf, 0x6f, 0x7c, 0xbe,
  0xb0, 0x61, 0x2c, 0xbf, 0x8e, 0x99, 0x6a, 0xbe, 0x69, 0x37, 0x61, 0xbf,
  0xa2, 0x92, 0x85, 0xbe, 0x2e, 0xd4, 0x30, 0xbe, 0x22, 0x14, 0x2a, 0x3e,
  0xfc, 0xff, 0x07, 0xbd, 0x9b, 0x8d, 0xbd, 0x3e, 0x51, 0x41, 0x20, 0x3d,
  0x80, 0x12, 0x07, 0xbd, 0x41, 0x2b, 0xcc, 0xbe, 0x67, 0x04, 0x5f, 0xbf,
  0xbf, 0x38, 0xd0, 0xbd, 0x7f, 0x12, 0x5e, 0xbe, 0x23, 0xcf, 0x97, 0x3e,
  0x66, 0x48, 0xe8, 0xbe, 0xf5, 0x19, 0x09, 0xbf, 0x6c, 0xdf, 0xd3, 0xbc,
  0x00, 0x12, 0xce, 0xbd, 0x16, 0x68, 0xdc, 0x3c, 0x67, 0x91, 0x59, 0xbc,
  0x56, 0xe1, 0x47, 0x3e, 0xa1, 0x7c, 0x83, 0xbd, 0xeb, 0x9a, 0x95, 0x3e,
  0x07, 0xcc, 0xa8, 0x3e, 0x9b, 0xd0, 0x4b, 0xbd, 0x71, 0xc4, 0xb9, 0xbe,
  0x28, 0x46, 0xd4, 0xbd, 0x45, 0xbb, 0xec, 0x3d, 0xff, 0x26, 0x93, 0x3e,
  0x2a, 0xba, 0xaa, 0x3e, 0xed, 0x38, 0x31, 0x3e, 0xa1, 0xc1, 0xb0, 0xbd,
  0xd2, 0x98, 0x7a, 0xbd, 0xcf, 0x5d, 0x13, 0x3d, 0x25, 0xe4, 0xc5, 0xbd,
  0xf7, 0x41, 0xb5, 0x3d, 0x1e, 0x51, 0xaa, 0xbd, 0x0b, 0x6c, 0x5d, 0xbe,
  0x55, 0x77, 0x88, 0x3e, 0xf1, 0x83, 0x54, 0x3d, 0x0b, 0x44, 0x20, 0xbd,
  0xdc, 0x96, 0x26, 0xbe, 0x4b, 0x16, 0x8c, 0x3d, 0x18, 0xc3, 0x08, 0x3e,
  0xda, 0x5a, 0xb9, 0x3e, 0x25, 0x29, 0x69, 0x3e, 0xa0, 0x72, 0xf2, 0x3e,
  0xfe, 0x27, 0xee, 0xbc, 0x8c, 0x8b, 0x7b, 0x3c, 0xf2, 0xb4, 0xcc, 0x3d,
  0xf0, 0x1d, 0xa4, 0xbd, 0xd0, 0xd3, 0x8e, 0x3d, 0x8e, 0xb1, 0x9a, 0xbd,
  0x2c, 0x12, 0x04, 0x3e, 0x91, 0x2a, 0x18, 0x3f, 0x41, 0xd5, 0x4b, 0x3e,
  0xa4, 0xb9, 0x90, 0xbc, 0xe7, 0xe8, 0xbb, 0x3c, 0x61, 0x63, 0x31, 0x3d,
  0x76, 0x08, 0xce, 0xbb, 0xc5, 0xaf, 0x14, 0x3e, 0x03, 0xac, 0xd7, 0x3e,
  0x2d, 0x94, 0xde, 0x3d, 0xa5, 0xa7, 0x98, 0x3c, 0x35, 0x4d, 0x82, 0x3e,
  0x39, 0xa3, 0x51, 0x3c, 0x2e, 0x22, 0x40, 0x3e, 0x15, 0xea, 0x45, 0xbe,
  0x76, 0x2d, 0x25, 0x3e, 0x34, 0xd4, 0x0b, 0x40, 0xc4, 0x89, 0x83, 0xbe,
  0x65, 0x3b, 0x36, 0xbe, 0x6f, 0xd9, 0xf9, 0x3b, 0xc2, 0x4d, 0x78, 0x3e,
  0xaa, 0x6e, 0xeb, 0x3d, 0x71, 0xc1, 0x1a, 0xbd, 0xcf, 0x96, 0x0b, 0xbe,
  0xbc, 0x9c, 0x62, 0xbe, 0x47, 0xeb, 0x73, 0xbe, 0x78, 0xd4, 0x14, 0xbe,
  0x19, 0xc4, 0x34, 0x3e, 0xbb, 0xee, 0x25, 0x3e, 0x79, 0x1a, 0x0e, 0xbe,
  0xfb, 0x74, 0x91, 0xbc, 0xd2, 0x3b, 0xd5, 0xbd, 0x10, 0x3e, 0xf1, 0x3f,
  0x68, 0xdb, 0xe6, 0x3d, 0x91, 0xb4, 0x92, 0x3e, 0x67, 0xd2, 0x78, 0xbd,
  0x15, 0xc2, 0x0d, 0x3e, 0xac, 0x90, 0xbd, 0x3c, 0xdd, 0x94, 0x19, 0xbe,
  0x68, 0x7a, 0x31, 0x3e, 0xbb, 0x49, 0x62, 0x3e, 0x09, 0xc2, 0x20, 0x3e,
  0x93, 0x1a, 0x8c, 0xbe, 0xa7, 0x00, 0x03, 0x3e, 0x84, 0x44, 0xd8, 0x3e,
  0xa6, 0x3e, 0x88, 0x3d, 0x16, 0xff, 0x54, 0x3e, 0x42, 0x01, 0xcb, 0x3d,
  0xb0, 0xc8, 0xe7, 0x3f, 0xdb, 0x46, 0xc7, 0x3b, 0x6f, 0xb8, 0x1c, 0xbd,
  0xe9, 0x0f, 0xf6, 0xbc, 0x5e, 0x62, 0xf9, 0xbd, 0xf8, 0x6e, 0xa0, 0x3e,
  0xc6, 0xba, 0xe6, 0x3c, 0xd2, 0x93, 0x10, 0x3e, 0x12, 0x6b, 0xb6, 0x3d,
  0xc8, 0x6d, 0xf2, 0xbd, 0x8b, 0x32, 0x3a, 0xbe, 0x96, 0xe7, 0x4e, 0x3d,
  0x0a, 0x5a, 0x56, 0x3e, 0x61, 0xa0, 0xa8, 0x3e, 0x92, 0xfd, 0x2f, 0xbe,
  0x93, 0x62, 0x31, 0x3e, 0x9f, 0xe4, 0xfd, 0x3f, 0x29, 0x1c, 0xa1, 0xbd,
  0xa3, 0xc9, 0x1e, 0xbd, 0xd1, 0xd7, 0x48, 0x3c, 0xcf, 0x58, 0x03, 0xbe,
  0xb6, 0xeb, 0xc1, 0x3e, 0xbc, 0xf6, 0xb4, 0xbe, 0xb5, 0x07, 0x9f, 0x3d,
  0xc1, 0x3e, 0x08, 0x3c, 0xf7, 0xb8, 0x71, 0xbb, 0x21, 0xec, 0x16, 0xbe,
  0xbb, 0xe5, 0x3a, 0x3e, 0x13, 0xdf, 0x08, 0x3e, 0x56, 0x8a, 0x05, 0x3d,
  0x04, 0x27, 0x73, 0xbe, 0x95, 0xae, 0xa1, 0xbd, 0xb4, 0x43, 0xeb, 0x3f,
  0x79, 0x3e, 0x6f, 0xbe, 0xa8, 0x43, 0x5b, 0xbe, 0x96, 0xd5, 0x0b, 0x3c,
  0xc8, 0xf9, 0x3b, 0x3d, 0x24, 0x0f, 0x06, 0x3e, 0x9d, 0x9b, 0x09, 0xbf,
  0xb4, 0x59, 0x22, 0xbc, 0x9a, 0xf3, 0xf6, 0xbd, 0x50, 0xf0, 0x83, 0x3e,
  0xaf, 0x63, 0x9a, 0xbe, 0xed, 0xb2, 0x17, 0x3e, 0xa2, 0xe2, 0x61, 0x3e,
  0xc0, 0xec, 0x2f, 0x3e, 0xff, 0x1a, 0x9f, 0xbe, 0xcc, 0x01, 0x81, 0x3e,
  0x27, 0x98, 0x07, 0x40, 0x6b, 0x1e, 0xae, 0xbe, 0x68, 0x98, 0x59, 0xbe,
  0x00, 0x2c, 0x4a, 0x3c, 0x4e, 0x20, 0x70, 0x3e, 0xec, 0xbd, 0x8e, 0x3c,
  0xfb, 0x8a, 0x81, 0xbe, 0x46, 0xb2, 0x9d, 0xbe, 0x6b, 0xde, 0xf0, 0xbb,
  0x5b, 0x6d, 0xa2, 0xbe, 0xe4, 0x09, 0xab, 0xbe, 0xc4, 0xd9, 0x74, 0x3d,
  0xd9, 0x10, 0x2e, 0x3e, 0xee, 0x17, 0x91, 0x3d, 0xde, 0x69, 0xf7, 0xbc,
  0xd7, 0x20, 0x5b, 0x3e, 0xb2, 0xa6, 0x09, 0xbe, 0x47, 0xf7, 0x18, 0xbe,
  0x20, 0xa8, 0xd3, 0x3c, 0x42, 0x38, 0x5e, 0xbd, 0x1a, 0x9b, 0xaa, 0xbb,
  0x60, 0x71, 0x0e, 0x3d, 0x3b, 0x52, 0x85, 0xbb, 0xdf, 0xc3, 0x68, 0xbe,
  0x27, 0xcb, 0x88, 0xbd, 0xa8, 0x00, 0xf0, 0xbd, 0x46, 0xad, 0x27, 0xbe,
  0x5e, 0xa5, 0xd7, 0xbd, 0x6f, 0x56, 0x88, 0xbe, 0xeb, 0x78, 0xc3, 0x3d,
  0xe4, 0xeb, 0xf3, 0xbd, 0x31, 0xe8, 0x96, 0x3e, 0x8d, 0x2a, 0x05, 0x40,
  0x3a, 0x8a, 0x9a, 0xbc, 0x17, 0xb1, 0x4c, 0xbe, 0x7e, 0xbd, 0x8a, 0xbe,
  0x8f, 0x01, 0x08, 0x3e, 0x69, 0xae, 0xa4, 0x3d, 0xc4, 0xd2, 0xbc, 0x3c,
  0x9e, 0xa3, 0xff, 0xbd, 0xb1, 0x51, 0xbe, 0x3d, 0x9c, 0x13, 0x3f, 0x3d,
  0x4a, 0x50, 0xe5, 0x3c, 0x29, 0x7c, 0x2c, 0x3d, 0xd4, 0xdd, 0xbf, 0xbd,
  0xa2, 0x67, 0xed, 0xbd, 0x6a, 0x22, 0xa6, 0xbe, 0xa8, 0xc1, 0xa3, 0x3d,
  0x36, 0x89, 0x04, 0x40, 0xb2, 0xbb, 0xed, 0xbd, 0x3d, 0xa3, 0xb7, 0x3e,
  0x09, 0xa2, 0x87, 0xbe, 0x69, 0x34, 0x1c, 0xbe, 0xa5, 0xf6, 0x98, 0x3d,
  0x0e, 0x87, 0x9c, 0x3c, 0x73, 0x12, 0xde, 0xbc, 0x69, 0x75, 0xab, 0x3f,
  0x1a, 0xfa, 0x48, 0x3e, 0x57, 0x83, 0x90, 0xbd, 0xd9, 0xff, 0xf1, 0xbd,
  0xed, 0xbf, 0x74, 0xbd, 0x3b, 0xfb, 0xc0, 0xbd, 0xf4, 0xf2, 0xbf, 0xbe,
  0xbd, 0x3d, 0x5a, 0xbd, 0x39, 0x9f, 0xde, 0x3f, 0x6f, 0xed, 0x3d, 0xba,
  0x9d, 0x6d, 0x11, 0x3e, 0xe7, 0x46, 0xe1, 0xbe, 0x86, 0xa2, 0xc4, 0x3c,
  0x83, 0x1b, 0xfa, 0xbc, 0x9e, 0xd3, 0x49, 0xbe, 0xd3, 0x49, 0x84, 0x3d,
  0xd5, 0x9f, 0x8f, 0x3f, 0x91, 0xd9, 0xb9, 0x3e, 0x0c, 0x6a, 0x13, 0xbe,
  0xe9, 0x51, 0x59, 0xbe, 0x3c, 0x35, 0x39, 0xbe, 0x75, 0x5e, 0x3b, 0x3e,
  0x0a, 0x47, 0x88, 0xbe, 0x9f, 0x1d, 0x80, 0xbe, 0x91, 0x33, 0x10, 0x40,
  0x61, 0x5c, 0xca, 0x3d, 0x47, 0xac, 0xba, 0x3d, 0x56, 0x09, 0x53, 0xbe,
  0xc2, 0xaa, 0xfc, 0xbd, 0xab, 0x5f, 0xf9, 0x3d, 0xe1, 0xcc, 0x2a, 0xbe,
  0xcd, 0x42, 0xfd, 0xbc, 0x71, 0xd5, 0x58, 0x3f, 0x1b, 0x60, 0xca, 0x3e,
  0x0b, 0x15, 0x0c, 0xbe, 0x19, 0x08, 0x3f, 0xbd, 0xfb, 0xb1, 0xa2, 0xbe,
  0x79, 0x01, 0x52, 0xbd, 0x2b, 0x60, 0xe2, 0xbe, 0xcd, 0xa9, 0x2b, 0x3e,
  0xca, 0x0b, 0xaf, 0x3f, 0x8f, 0x19, 0x3a, 0xbe, 0x01, 0xfe, 0xd8, 0x3d,
  0x2b, 0xc9, 0xc6, 0xbe, 0xe7, 0x3f, 0x7d, 0xbe, 0x5d, 0x0c, 0xad, 0x3d,
  0x7e, 0x55, 0x81, 0xbd, 0x93, 0xd4, 0x29, 0xbe, 0xe2, 0x49, 0xe8, 0x3e,
  0xde, 0xe6, 0x9e, 0x3d, 0x8f, 0xb4, 0xbc, 0x3d, 0x16, 0x51, 0xb0, 0x3d,
  0xba, 0xac, 0xd4, 0xbd, 0xec, 0xf0, 0x50, 0xbd, 0xe9, 0x1b, 0xd5, 0xbe,
  0x53, 0x0e, 0x0e, 0xbe, 0x77, 0x1d, 0xf2, 0x3f, 0xca, 0xde, 0x0e, 0x3d,
  0x15, 0xe7, 0x7b, 0x3e, 0x70, 0x00, 0x9c, 0xbe, 0xb0, 0xbe, 0x3d, 0xbe,
  0x4e, 0x0c, 0x74, 0xbe, 0x3a, 0x85, 0x35, 0xbe, 0xf5, 0xb6, 0xc6, 0xbd,
  0xa4, 0xd2, 0x1f, 0xbc, 0x7a, 0x66, 0xf9, 0x3d, 0xb5, 0xc5, 0xb3, 0xbd,
  0x79, 0xd5, 0x08, 0xbe, 0x41, 0x13, 0x38, 0xbd, 0x20, 0x43, 0xf7, 0xbd,
  0x2b, 0x65, 0xfa, 0xbd, 0x2e, 0x02, 0x62, 0xbe, 0xa7, 0x27, 0xa5, 0x3e,
  0xcf, 0x12, 0x6e, 0xbe, 0x3c, 0xe6, 0xa3, 0xbd, 0xdc, 0x62, 0xe6, 0xbe,
  0x38, 0xe6, 0x6b, 0xbe, 0x07, 0x3b, 0x86, 0xbe, 0x30, 0x4b, 0xf2, 0x3b,
  0xe0, 0x33, 0x69, 0xbd, 0x99, 0xfe, 0x02, 0x3f, 0xb1, 0x82, 0xbf, 0xbd,
  0xe9, 0x48, 0x85, 0xbe, 0xcf, 0x12, 0xe9, 0xbd, 0x6a, 0x01, 0x25, 0x3d,
  0x77, 0x40, 0x4e, 0xbd, 0x8b, 0xa7, 0xc3, 0x3d, 0xf0, 0x22, 0x89, 0xbd,
  0x42, 0x81, 0x1f, 0xbe, 0xd7, 0x68, 0x25, 0xbe, 0x62, 0xb4, 0x2e, 0xbe,
  0x3d, 0xc5, 0x9a, 0xbe, 0x11, 0x4e, 0x06, 0xbe, 0xcf, 0x85, 0x9b, 0xbe,
  0xf2, 0x4c, 0xdb, 0x3d, 0x69, 0xad, 0xe0, 0xbd, 0x79, 0x77, 0xbb, 0x3c,
  0x80, 0x11, 0xac, 0x3c, 0x00, 0x01, 0xa5, 0xbc, 0x84, 0x09, 0xd9, 0xbd,
  0xd7, 0xf9, 0xe4, 0x3b, 0x51, 0x56, 0xb3, 0xbd, 0x6e, 0x90, 0xdd, 0xbc,
  0x2e, 0xc7, 0xf6, 0xbc, 0x28, 0x61, 0xa0, 0xbd, 0x36, 0x01, 0x06, 0x3d,
  0x1c, 0x1e, 0x09, 0x3f, 0x13, 0x95, 0x3d, 0xbe, 0x58, 0x81, 0xbf, 0x3d,
  0xfa, 0xe5, 0x20, 0xbe, 0x2c, 0x0b, 0x96, 0x3e, 0x9b, 0x97, 0x04, 0x3e,
  0x1c, 0xd7, 0xb2, 0x3e, 0x55, 0xe3, 0x8a, 0xbd, 0x03, 0x46, 0xd0, 0x3e,
  0x2d, 0xbd, 0x42, 0xbe, 0x34, 0x83, 0x49, 0x3d, 0x74, 0x35, 0x3e, 0x3d,
  0xce, 0xc0, 0x2c, 0x3d, 0x76, 0x70, 0x5c, 0x3d, 0x63, 0xee, 0x72, 0x3b,
  0xb8, 0xd7, 0xf4, 0x3d, 0x52, 0x61, 0x2b, 0x3e, 0x0a, 0xd5, 0xc9, 0xbd,
  0x66, 0x12, 0x7d, 0xbc, 0x28, 0x86, 0x2f, 0x3d, 0xa5, 0x09, 0x83, 0x3e,
  0x32, 0xf8, 0x1f, 0xbe, 0x8a, 0x8e, 0x48, 0x3e, 0x6c, 0x6e, 0xfa, 0x3d,
  0xea, 0x99, 0xe4, 0x3e, 0xa7, 0x2c, 0xe8, 0x3c, 0xbf, 0x52, 0x9b, 0xbb,
  0xfa, 0x53, 0x18, 0xbe, 0xd8, 0x63, 0xde, 0x3d, 0x06, 0x71, 0x3f, 0xbd,
  0x32, 0xee, 0xa7, 0xbd, 0xe3, 0xce, 0x13, 0xbd, 0x43, 0x66, 0x10, 0x3e,
  0x4a, 0xec, 0x59, 0xbe, 0x0a, 0xfa, 0x10, 0x3e, 0x37, 0x34, 0x52, 0xbd,
  0x0d, 0x25, 0x08, 0x3f, 0x95, 0x01, 0x69, 0xbe, 0xca, 0x2b, 0xd2, 0xbd,
  0x4d, 0xb1, 0xb2, 0x3e, 0x70, 0x85, 0x9d, 0x3e, 0x78, 0xec, 0x03, 0xbe,
  0x98, 0x68, 0xa3, 0xbc, 0x0e, 0xc9, 0x1e, 0xbe, 0xb2, 0xbf, 0x51, 0xbd,
  0xd9, 0x77, 0x3b, 0xbe, 0xa2, 0x8e, 0x31, 0xbe, 0x2c, 0x05, 0x7a, 0x3d,
  0x7a, 0x51, 0xa0, 0xbd, 0xc5, 0x0f, 0x8d, 0xbe, 0xff, 0x7a, 0xdd, 0x3d,
  0xde, 0x67, 0x51, 0xbc, 0x40, 0xe4, 0x32, 0x3e, 0xeb, 0xc6, 0x18, 0x3e,
  0x66, 0x4e, 0x53, 0x3d, 0x96, 0x15, 0x8f, 0x3e, 0x75, 0x31, 0x39, 0x3d,
  0xf0, 0x34, 0x1c, 0xbe, 0x61, 0xfe, 0xdc, 0xbd, 0x95, 0x50, 0x0f, 0xbc,
  0x76, 0x76, 0x09, 0xbe, 0x72, 0x79, 0xcc, 0x3d, 0xfa, 0x29, 0x84, 0xbd,
  0x34, 0x87, 0x5c, 0xbd, 0x31, 0x25, 0x0e, 0xbc, 0x5c, 0x98, 0x8e, 0xbe,
  0x68, 0x74, 0x23, 0x3e, 0x21, 0xe0, 0x06, 0xbe, 0x82, 0xdc, 0x16, 0x3e,
  0x6d, 0x00, 0xa4, 0xbd, 0x9d, 0x83, 0x23, 0xbc, 0xd1, 0x30, 0x20, 0x3d,
  0xfb, 0xbb, 0x2d, 0x3e, 0xd5, 0x80, 0xc8, 0xbd, 0xd1, 0x76, 0xe9, 0xbd,
  0x3d, 0x71, 0x65, 0xbe, 0xac, 0xe3, 0xc2, 0x3b, 0xa2, 0x33, 0x62, 0x3e,
  0xac, 0x86, 0x1b, 0x3d, 0xea, 0xd6, 0x33, 0x3e, 0x99, 0x0f, 0x1b, 0x3d,
  0x6e, 0x3c, 0x27, 0xbe, 0x28, 0x07, 0xf5, 0xbd, 0x74, 0xcb, 0x08, 0xbe,
  0xcf, 0xdc, 0x4c, 0x3e, 0x2b, 0xdb, 0x8c, 0xbe, 0xbd, 0x28, 0x35, 0x3e,
  0x73, 0x4d, 0xff, 0xbd, 0x43, 0x36, 0x3c, 0x3e, 0xb9, 0x55, 0xfd, 0x3d,
  0xf1, 0x9b, 0x2f, 0x3e, 0x4a, 0xe2, 0xab, 0xbd, 0x2a, 0x0c, 0x8f, 0xbe,
  0x5a, 0xd2, 0x6c, 0xbe, 0x5c, 0xb4, 0x3f, 0xbe, 0x99, 0xf4, 0xc6, 0xbd,
  0x6e, 0x16, 0x55, 0xbd, 0x08, 0x63, 0xc5, 0xbd, 0x7e, 0x91, 0x75, 0xbe,
  0xb2, 0x26, 0x96, 0xbe, 0x64, 0x54, 0xd6, 0xbd, 0x95, 0xbd, 0x42, 0x3d,
  0xe3, 0xfa, 0xba, 0x3d, 0x9d, 0xac, 0x9e, 0x3d, 0xd1, 0xb5, 0xa2, 0xbb,
  0x65, 0x1f, 0x51, 0xbe, 0x53, 0x82, 0xb1, 0xbd, 0xa4, 0xcc, 0x2b, 0xbe,
  0xfa, 0xc7, 0x22, 0xbd, 0x46, 0x91, 0xa1, 0x3d, 0xfb, 0xcc, 0xae, 0xbd,
  0xe0, 0x4f, 0x16, 0xbe, 0x72, 0xce, 0x21, 0x3e, 0x00, 0xfe, 0xce, 0xbd,
  0x0d, 0x9e, 0x7f, 0xbe, 0x1f, 0xf8, 0xfe, 0xbd, 0xcf, 0x31, 0x0c, 0x3e,
  0xa2, 0x80, 0x13, 0x3e, 0xb7, 0xaa, 0x2c, 0x3e, 0x67, 0xc2, 0x34, 0x3e,
  0xd7, 0xe4, 0x84, 0xbe, 0x08, 0xaf, 0x4a, 0xbe, 0xef, 0x4d, 0x18, 0xbc,
  0x6c, 0x40, 0xfb, 0x3d, 0x43, 0x29, 0xb7, 0xbe, 0x79, 0x60, 0x76, 0x3d,
  0x96, 0xbd, 0x78, 0x3d, 0xd8, 0x78, 0xb7, 0x3d, 0x40, 0x10, 0x4e, 0x3e,
  0x41, 0x5a, 0xc0, 0xbd, 0x15, 0xa6, 0x0c, 0xbd, 0x6d, 0xc5, 0x04, 0xbe,
  0x3c, 0xb0, 0x31, 0xbe, 0x04, 0x55, 0x85, 0xbc, 0xb8, 0x2d, 0x71, 0x3c,
  0x5b, 0xcc, 0xad, 0xbb, 0x2e, 0xa8, 0x1b, 0xbe, 0x4c, 0x20, 0x86, 0x3d,
  0x23, 0x3f, 0x1e, 0xbd, 0xa4, 0x35, 0xe5, 0x3d, 0x73, 0xea, 0x8c, 0xbe,
  0x1d, 0x78, 0xcb, 0xbd, 0xb8, 0xf0, 0x40, 0xbe, 0x0a, 0x33, 0x42, 0xbe,
  0x15, 0xe0, 0x00, 0x3d, 0xbc, 0xcf, 0x9e, 0xbc, 0x4b, 0xd0, 0x27, 0xbd,
  0xde, 0xfc, 0x41, 0xbd, 0xa5, 0xaf, 0x15, 0x3e, 0x43, 0x61, 0x0b, 0xbc,
  0x36, 0x51, 0x0b, 0x3e, 0xce, 0x80, 0xf7, 0x3b, 0x03, 0x9d, 0x67, 0xbe,
  0x87, 0x5b, 0x92, 0x3c, 0xfa, 0x5a, 0xf4, 0xbd, 0x0d, 0xbc, 0x73, 0xbd,
  0x53, 0xf1, 0x80, 0xbe, 0x3c, 0x02, 0xbc, 0x3d, 0x11, 0x20, 0xdb, 0x3c,
  0xbb, 0x31, 0xaa, 0xbd, 0xc3, 0xfb, 0x98, 0xbd, 0x76, 0x25, 0x61, 0xbe,
  0x84, 0x3f, 0x9b, 0xbe, 0x28, 0x7b, 0x95, 0x3d, 0x33, 0x22, 0x74, 0x3d,
  0x35, 0xf4, 0x4e, 0xbe, 0xd1, 0x18, 0x4c, 0xbc, 0x0a, 0x8f, 0x1a, 0xbe,
  0x30, 0x59, 0x9e, 0x3d, 0x1f, 0x89, 0xe3, 0xbd, 0x09, 0xf7, 0x19, 0xbe,
  0xba, 0xc3, 0xa1, 0xbd, 0x41, 0xee, 0xcb, 0xbe, 0x1a, 0xbe, 0x6c, 0x3e,
  0x6d, 0xa4, 0x37, 0x3e, 0x02, 0xa4, 0xb8, 0x3e, 0x98, 0xfd, 0x05, 0xbe,
  0xc9, 0xa2, 0xbe, 0xbe, 0xdc, 0x90, 0x18, 0xbd, 0xff, 0x24, 0x57, 0xbe,
  0xbb, 0xbc, 0xcd, 0xbd, 0x91, 0x81, 0x67, 0x3d, 0x04, 0x0c, 0x8d, 0x3d,
  0xcc, 0x80, 0x12, 0xbe, 0xed, 0x00, 0x71, 0xbe, 0x4d, 0x28, 0xe5, 0x3d,
  0xe8, 0xe7, 0x9c, 0x3b, 0x49, 0xaf, 0xd6, 0xbc, 0xdd, 0x27, 0xed, 0xbb,
  0x4e, 0x33, 0xb2, 0xbd, 0xb5, 0x7b, 0xa3, 0xbe, 0x5a, 0x5f, 0xca, 0x3e,
  0x52, 0x50, 0xdd, 0x3d, 0x50, 0xd6, 0x13, 0xbe, 0xfe, 0x56, 0x85, 0xbd,
  0x01, 0xc0, 0x74, 0xbd, 0x6e, 0xba, 0x99, 0xbd, 0xfe, 0x1e, 0x84, 0x3e,
  0x08, 0x55, 0x88, 0x3d, 0xc0, 0x65, 0xd6, 0xbb, 0xfa, 0x36, 0xc6, 0xbd,
  0x0e, 0x5e, 0x8f, 0x3b, 0x66, 0x51, 0x20, 0xbe, 0x3f, 0xf1, 0x71, 0xbd,
  0x00, 0x73, 0x19, 0xbe, 0xa9, 0xc3, 0xd0, 0x3c, 0x3f, 0x4e, 0x2f, 0x3e,
  0xa6, 0x77, 0x94, 0xbc, 0xd4, 0xba, 0x36, 0xbe, 0xc0, 0x61, 0xd9, 0xbd,
  0xfe, 0xc3, 0x93, 0xbe, 0x55, 0xd2, 0xec, 0xbc, 0xf2, 0x46, 0x2a, 0xbe,
  0x3f, 0x5a, 0x59, 0xbe, 0xc5, 0xde, 0x03, 0xbd, 0x19, 0xca, 0x3e, 0x3d,
  0x4a, 0x22, 0x8d, 0xbd, 0x6a, 0xad, 0x8b, 0x3d, 0x2f, 0xb5, 0xfe, 0xbd,
  0xae, 0x49, 0x0b, 0x3e, 0xb3, 0x1c, 0xc1, 0xbd, 0x24, 0x41, 0x3b, 0x3e,
  0xb0, 0x57, 0x48, 0xbe, 0x90, 0xe1, 0x7d, 0x3d, 0xbb, 0x63, 0x99, 0x3d,
  0x70, 0x68, 0xd4, 0xbe, 0x1a, 0xf1, 0x93, 0xbe, 0xe0, 0xc0, 0xb4, 0xbc,
  0x00, 0xe4, 0x1f, 0xbd, 0x24, 0x20, 0x2a, 0xbd, 0x48, 0xac, 0x4c, 0xbe,
  0xee, 0x7d, 0xa4, 0x3d, 0x9c, 0x2e, 0x13, 0xbe, 0x21, 0x88, 0xe7, 0xbd,
  0xd6, 0x3e, 0x53, 0x3d, 0x6e, 0x05, 0xe9, 0xbd, 0x92, 0x50, 0x5d, 0xbe,
  0xb1, 0xef, 0x3c, 0xbe, 0x12, 0xb1, 0xa3, 0xbd, 0x79, 0xf5, 0x1d, 0xbe,
  0xff, 0xcc, 0x0c, 0xbe, 0x48, 0x27, 0x97, 0xbe, 0xf8, 0xed, 0x91, 0xbd,
  0x3a, 0x4e, 0xc5, 0x3d, 0x39, 0x03, 0xb6, 0xbd, 0x6e, 0xf9, 0x18, 0xbc,
  0xcc, 0x08, 0x3b, 0xbe, 0x7b, 0x1e, 0xd6, 0xbd, 0xce, 0xc9, 0x28, 0x3d,
  0x4c, 0x27, 0x3e, 0x3d, 0x34, 0x96, 0x2b, 0x3c, 0x39, 0xbb, 0x30, 0xbe,
  0x99, 0x6f, 0x3b, 0xbd, 0x9c, 0x30, 0xae, 0x3d, 0x4a, 0x97, 0x9c, 0x3d,
  0xaf, 0xb5, 0x85, 0x3d, 0x53, 0x4a, 0x98, 0xbd, 0xb1, 0x09, 0xad, 0xbe,
  0x46, 0x43, 0x68, 0xbd, 0x2e, 0x55, 0xd8, 0xbd, 0x7d, 0xac, 0x27, 0xbd,
  0x2e, 0xc9, 0x41, 0x3e, 0x00, 0x34, 0x0b, 0x3b, 0xd9, 0x4a, 0x98, 0xbd,
  0xf6, 0x95, 0xb4, 0xbd, 0x1d, 0x3a, 0x4d, 0x3d, 0xb2, 0x8f, 0x27, 0xbe,
  0x01, 0xd3, 0x66, 0xbe, 0x11, 0x64, 0x5b, 0x3d, 0x32, 0xe3, 0x11, 0xbe,
  0x17, 0x58, 0x37, 0x3e, 0xb9, 0x96, 0x92, 0x3c, 0x98, 0xf8, 0x1e, 0xbe,
  0x00, 0x7c, 0x74, 0xbe, 0x96, 0x33, 0x0f, 0x3e, 0x8b, 0x26, 0xbc, 0x3d,
  0x80, 0xa5, 0xe8, 0xbd, 0xbf, 0x56, 0xd2, 0x3d, 0x50, 0xb0, 0x59, 0xbc,
  0x20, 0xac, 0xb6, 0x3c, 0x7d, 0xcb, 0x75, 0xbd, 0x99, 0x68, 0x3b, 0xbe,
  0xd6, 0xbe, 0x3f, 0xbd, 0x5a, 0xf6, 0x18, 0x3e, 0x18, 0x3a, 0x8c, 0xbe,
  0x4f, 0xd0, 0xbb, 0xbc, 0xfc, 0x89, 0x3b, 0xbe, 0x13, 0x64, 0xd9, 0xbb,
  0xb6, 0x78, 0x56, 0x3e, 0xae, 0x9a, 0xab, 0xbd, 0x94, 0xb5, 0x40, 0xbe,
  0x8e, 0xd9, 0x6b, 0xbe, 0x65, 0x91, 0xd2, 0xbd, 0x77, 0x0a, 0xae, 0xbd,
  0x02, 0x89, 0xcb, 0x3d, 0x72, 0xdc, 0xf3, 0x3d, 0x05, 0x5f, 0x03, 0xbe,
  0x33, 0x9c, 0x58, 0x3d, 0xef, 0x9f, 0xb7, 0x3c, 0xba, 0x7d, 0x1d, 0xbe,
  0x88, 0x0a, 0x5b, 0xbe, 0x02, 0xe7, 0x04, 0xbe, 0xd1, 0xa6, 0x59, 0xbe,
  0x14, 0x4d, 0x39, 0x3e, 0x2c, 0x17, 0xc7, 0xbd, 0x26, 0x44, 0x8f, 0xbe,
  0x1c, 0xa2, 0x8f, 0xbe, 0x72, 0xf2, 0x6c, 0xbe, 0xb4, 0x2d, 0x47, 0xbe,
  0x34, 0x2f, 0xd0, 0xbc, 0xb8, 0xcf, 0x28, 0x3d, 0xa6, 0x18, 0x24, 0x3e,
  0xe0, 0xad, 0xba, 0xbd, 0xfb, 0x31, 0x03, 0xbe, 0x38, 0xb1, 0xde, 0xbd,
  0x55, 0xbf, 0x99, 0x3d, 0xfa, 0x45, 0x5a, 0xbe, 0xdf, 0x5b, 0x58, 0xbd,
  0x91, 0x72, 0x2e, 0xbd, 0xc6, 0x0c, 0xab, 0x3d, 0xf1, 0x2d, 0x3a, 0x3b,
  0xf6, 0x03, 0x59, 0xbe, 0x8b, 0x4d, 0x20, 0xbe, 0x43, 0x65, 0x0e, 0xbb,
  0xf6, 0x0d, 0x24, 0xbe, 0xb3, 0xfe, 0xa3, 0x3d, 0x1d, 0x12, 0x95, 0x3d,
  0x97, 0x76, 0x83, 0x3c, 0x64, 0xd9, 0xe0, 0xbd, 0x5b, 0x87, 0x8a, 0xbb,
  0x01, 0x23, 0x34, 0xbe, 0xda, 0xd8, 0x1c, 0xbe, 0x81, 0x68, 0xd4, 0xbe,
  0xff, 0xd7, 0x53, 0xbe, 0x89, 0x9c, 0xee, 0xbd, 0x52, 0xbd, 0x6c, 0xbe,
  0xab, 0x23, 0xbf, 0x3d, 0xdb, 0x93, 0x7d, 0xbe, 0xb7, 0x88, 0x6d, 0xbd,
  0xf3, 0x0f, 0xbb, 0xbd, 0x34, 0x8a, 0xe3, 0xbd, 0xf2, 0x8a, 0x7e, 0xbd,
  0x8d, 0x8f, 0x0e, 0xbe, 0x7c, 0xfc, 0x87, 0x3d, 0x65, 0x26, 0xb0, 0xbd,
  0xb8, 0xd9, 0x63, 0xbd, 0x0a, 0x85, 0xa0, 0x3d, 0x87, 0x26, 0xf0, 0x3d,
  0x3e, 0x62, 0x53, 0xbe, 0xf1, 0xbc, 0x2b, 0x3e, 0x6b, 0xfc, 0x53, 0x3e,
  0x2d, 0xa8, 0xcc, 0xba, 0x05, 0x7b, 0x50, 0x3d, 0x1d, 0xca, 0x98, 0xbe,
  0xdc, 0x3c, 0x64, 0x3d, 0x62, 0x02, 0x8b, 0x3c, 0x1f, 0xce, 0x4b, 0xbd,
  0xf8, 0x48, 0x89, 0x3d, 0xa2, 0x74, 0x28, 0xbe, 0xab, 0x6c, 0x5f, 0xbe,
  0xeb, 0x72, 0x1b, 0x3e, 0x05, 0xae, 0xb3, 0xbc, 0xfa, 0xd0, 0x71, 0xbd,
  0x32, 0x89, 0xb3, 0x3b, 0xd4, 0x03, 0x69, 0xbe, 0xec, 0xaa, 0x71, 0xbb,
  0x33, 0xd1, 0xb4, 0xbd, 0x46, 0xda, 0x3c, 0xbd, 0x84, 0x8c, 0x51, 0xbe,
  0xe8, 0x4f, 0x90, 0xbd, 0x04, 0x32, 0x08, 0xbe, 0x7e, 0x82, 0x35, 0xbe,
  0x6b, 0x79, 0x29, 0x3e, 0x05, 0x2b, 0x05, 0xbe, 0xb3, 0xa2, 0x3f, 0xbe,
  0xd1, 0x45, 0x9d, 0x3d, 0xcf, 0x8a, 0xd9, 0xbd, 0x52, 0xa6, 0x28, 0x3d,
  0x1a, 0x1a, 0xe8, 0xbc, 0xc0, 0xc7, 0x93, 0xbe, 0x34, 0x72, 0xaf, 0xbe,
  0x24, 0xd8, 0xb7, 0xbd, 0x38, 0x31, 0x21, 0xbe, 0x7e, 0xfe, 0x0f, 0xbc,
  0x86, 0xba, 0x2a, 0xbe, 0x84, 0x27, 0xa0, 0xbe, 0x3c, 0x0d, 0xdb, 0xbc,
  0x78, 0x0a, 0x57, 0x3d, 0x90, 0x86, 0x72, 0xbe, 0x15, 0xf8, 0x1b, 0x3d,
  0x74, 0x79, 0x5b, 0xbc, 0x3c, 0x5f, 0x3c, 0x3d, 0x50, 0x67, 0xce, 0xbd,
  0x15, 0x82, 0x1a, 0x3d, 0xb8, 0x00, 0x5f, 0xbe, 0x8b, 0xb2, 0x61, 0xbe,
  0x39, 0x68, 0xca, 0xbd, 0x72, 0xe4, 0x15, 0x3b, 0x15, 0x55, 0xb9, 0xbb,
  0x30, 0x12, 0x3a, 0x3b, 0xd6, 0x62, 0x6a, 0xbd, 0xbc, 0xff, 0xfc, 0xbc,
  0x40, 0x14, 0x16, 0xbe, 0x5c, 0xa4, 0xbd, 0x3d, 0xfa, 0x8d, 0x66, 0xbd,
  0x8a, 0x5d, 0x8c, 0xbd, 0x68, 0x1f, 0x83, 0xbe, 0xb7, 0xdc, 0x07, 0x3e,
  0x64, 0x69, 0xe4, 0xbc, 0x81, 0x2f, 0x6c, 0xbd, 0x6d, 0x67, 0xe1, 0xbd,
  0xdb, 0x7d, 0x2f, 0xbe, 0xe2, 0xce, 0x18, 0xbe, 0x44, 0x6e, 0x20, 0xbd,
  0xe8, 0xfe, 0x00, 0xbe, 0x92, 0xa1, 0x51, 0xbb, 0x5a, 0x65, 0x46, 0x3c,
  0xf8, 0xf9, 0x69, 0xbd, 0x7e, 0xa6, 0x31, 0xbe, 0x83, 0x95, 0x4c, 0xbd,
  0x1c, 0xcb, 0xe1, 0x3d, 0x1f, 0x34, 0x03, 0x3e, 0x39, 0x56, 0xf5, 0xbc,
  0xcd, 0x22, 0x92, 0x3d, 0x5c, 0xe0, 0x81, 0xbd, 0x44, 0x06, 0xba, 0x3d,
  0x00, 0xea, 0xe8, 0xbd, 0xc6, 0x1b, 0x68, 0x3d, 0xa1, 0xc2, 0x80, 0xbe,
  0x2d, 0x5e, 0x93, 0x3c, 0x29, 0x73, 0x82, 0xba, 0xd6, 0xa0, 0x81, 0x3c,
  0x93, 0x3a, 0x6e, 0xbe, 0x7d, 0x00, 0x94, 0xbd, 0xa4, 0x28, 0x4d, 0x3d,
  0x66, 0xd3, 0x81, 0x3c, 0xfe, 0xa8, 0x43, 0xbe, 0xde, 0xb3, 0x87, 0xbd,
  0x6d, 0x28, 0x0b, 0x3d, 0x8d, 0x82, 0xe5, 0xbc, 0x98, 0x3f, 0x10, 0x3c,
  0x74, 0x04, 0x90, 0x3e, 0xe3, 0x88, 0x8c, 0x3e, 0x7d, 0x93, 0x36, 0x3e,
  0x1e, 0x37, 0xd1, 0xbd, 0x5b, 0xe3, 0xcf, 0xbd, 0xe5, 0x77, 0xd8, 0x3d,
  0x0c, 0xbf, 0x83, 0x3d, 0x3d, 0xc3, 0xa5, 0xbc, 0x6e, 0xf5, 0x6f, 0xbe,
  0xe9, 0x03, 0xeb, 0x3d, 0x0e, 0x0f, 0x5f, 0x3d, 0x34, 0x2b, 0x3d, 0xbe,
  0x5c, 0x2c, 0xa4, 0x3d, 0x6b, 0x3d, 0x0c, 0x3e, 0x26, 0xb8, 0x57, 0x3d,
  0x28, 0xa9, 0x50, 0xbe, 0x0b, 0xa2, 0x8e, 0xbd, 0x41, 0x24, 0x33, 0x3e,
  0x7d, 0xd3, 0x9d, 0x3e, 0x92, 0x73, 0x31, 0x3d, 0xac, 0x08, 0xf1, 0x3d,
  0xff, 0x1a, 0xe0, 0xbd, 0x40, 0xfc, 0x9f, 0x3d, 0xfc, 0x92, 0xaa, 0xbd,
  0x75, 0xa9, 0xba, 0x3d, 0xd0, 0x15, 0x36, 0xbe, 0x2b, 0xe7, 0x97, 0x3c,
  0x38, 0x13, 0x4a, 0xbe, 0x2d, 0xb4, 0x8a, 0x3e, 0xf3, 0x36, 0x43, 0x3e,
  0x2b, 0xa8, 0xc7, 0x3d, 0x38, 0x76, 0xe3, 0xbc, 0x99, 0xa9, 0x50, 0x3c,
  0xf4, 0x5c, 0x8b, 0x3e, 0xec, 0x5d, 0x04, 0x3e, 0x3d, 0xb4, 0xb7, 0xbe,
  0xa5, 0x8e, 0xa9, 0xbd, 0x3e, 0x69, 0xb7, 0xbd, 0x21, 0x62, 0x91, 0xbc,
  0xda, 0xba, 0x3b, 0xbd, 0x70, 0x0b, 0x78, 0xbb, 0x6b, 0x44, 0x33, 0xbe,
  0x1f, 0x0b, 0xcb, 0x3e, 0x69, 0x3d, 0x86, 0x3d, 0xef, 0xdc, 0x0c, 0x3d,
  0xcc, 0xae, 0x06, 0x3d, 0x59, 0xf8, 0xbb, 0x3d, 0x56, 0x28, 0xa1, 0xbd,
  0x85, 0x6f, 0x69, 0x3d, 0x3d, 0xed, 0x04, 0x3e, 0xb3, 0xdb, 0x61, 0x3e,
  0x37, 0xf3, 0x48, 0xbe, 0x8f, 0xbb, 0x57, 0x3e, 0x91, 0x95, 0xe1, 0xbc,
  0xd7, 0x53, 0x45, 0xbe, 0xfa, 0x47, 0xc2, 0xbe, 0xc3, 0xf4, 0x33, 0xbe,
  0x9e, 0x96, 0xf2, 0x3c, 0x05, 0x38, 0xc2, 0x3e, 0x3b, 0x34, 0xaa, 0xbe,
  0xab, 0xd4, 0xa8, 0xbd, 0x81, 0xc6, 0x20, 0xbe, 0x79, 0x7c, 0x53, 0xbd,
  0x57, 0xda, 0xda, 0xbb, 0x5f, 0x2f, 0xd0, 0x3d, 0x10, 0x99, 0x4b, 0x3d,
  0xec, 0x1a, 0x37, 0x3d, 0xab, 0x7b, 0x89, 0xbe, 0xcc, 0x8d, 0xcf, 0x3c,
  0xca, 0xf6, 0x07, 0x3d, 0x24, 0x4e, 0x71, 0xbd, 0x1c, 0x84, 0x02, 0xbd,
  0xf3, 0x4c, 0x22, 0xbd, 0xe9, 0x35, 0x2c, 0x3c, 0xda, 0x4e, 0x2e, 0x3d,
  0xd5, 0xe9, 0x86, 0xbd, 0x99, 0x5a, 0x0f, 0x3d, 0xb3, 0x83, 0x7f, 0xbe,
  0xc5, 0x05, 0xcd, 0xbc, 0x5d, 0xf5, 0xdd, 0xbe, 0x22, 0xb5, 0xd1, 0xbd,
  0x90, 0x34, 0x91, 0x3d, 0x35, 0x48, 0xa7, 0x3c, 0xf9, 0xd4, 0x1a, 0xbe,
  0x86, 0xb5, 0x5f, 0x3d, 0x03, 0xd1, 0x8b, 0x3c, 0x32, 0x74, 0xba, 0xbd,
  0x72, 0xa2, 0x48, 0x3d, 0x06, 0x39, 0x10, 0x39, 0x1b, 0x82, 0x59, 0xbe,
  0x21, 0xfd, 0x8a, 0x3d, 0x21, 0xe5, 0x96, 0x3c, 0x05, 0x0e, 0xaf, 0xbd,
  0xd0, 0x18, 0xd8, 0x3d, 0x50, 0x05, 0x32, 0xbd, 0xfe, 0x3c, 0x3b, 0xbe,
  0xdd, 0xd2, 0x4f, 0xbe, 0xbb, 0x00, 0x4d, 0x3d, 0xe9, 0x4f, 0x83, 0xbe,
  0xd0, 0x71, 0x93, 0xbe, 0x08, 0xb2, 0x56, 0xbe, 0x07, 0x88, 0x11, 0xbf,
  0x07, 0x62, 0x5a, 0x3e, 0xa2, 0xd5, 0xab, 0x3d, 0x46, 0xe9, 0x56, 0xbc,
  0x7c, 0xd7, 0xc6, 0xbe, 0x0f, 0x90, 0x10, 0xbf, 0x57, 0x75, 0x3e, 0xbe,
  0x77, 0x41, 0xbb, 0xbe, 0xca, 0x88, 0x9d, 0x3e, 0x2f, 0x7f, 0x05, 0x3d,
  0x11, 0xb2, 0xc3, 0x3c, 0x1a, 0x59, 0x01, 0xbf, 0x75, 0xe4, 0x69, 0xbe,
  0x4b, 0x56, 0x11, 0x3e, 0x36, 0x36, 0xb1, 0x3c, 0x9d, 0xd9, 0x8f, 0x3c,
  0x4a, 0x88, 0x72, 0xbf, 0x3c, 0x17, 0x00, 0x3e, 0x20, 0x79, 0x1d, 0x3f,
  0xe4, 0xe1, 0x7e, 0x3d, 0x88, 0xe8, 0x5b, 0xbe, 0xc6, 0xa8, 0xb0, 0x3c,
  0x9d, 0xcf, 0x4d, 0x3e, 0x38, 0x81, 0xf4, 0x3e, 0x32, 0x1e, 0x47, 0x3d,
  0xf4, 0x77, 0x99, 0x3d, 0xf0, 0xfd, 0xb7, 0x3e, 0x2b, 0x42, 0x96, 0xbe,
  0x12, 0x5b, 0x40, 0xbe, 0x9f, 0x90, 0x12, 0x3c, 0x05, 0x6c, 0xcd, 0x3c,
  0x66, 0x8c, 0x96, 0x3e, 0x79, 0x62, 0x31, 0xbf, 0xf2, 0x5c, 0x94, 0x3e,
  0xb9, 0x4e, 0x87, 0x3e, 0x8a, 0x73, 0x96, 0x3d, 0xb8, 0x28, 0x5d, 0xbd,
  0x19, 0xfd, 0x54, 0xbe, 0x68, 0x60, 0x7f, 0x3d, 0x49, 0x11, 0x19, 0x3e,
  0x94, 0x67, 0x93, 0x3e, 0x9a, 0x5b, 0x9a, 0x3e, 0x71, 0x07, 0x03, 0x3f,
  0xd9, 0xc2, 0x14, 0xbe, 0xab, 0x21, 0xc3, 0xbd, 0xf3, 0x01, 0x85, 0x3d,
  0xf7, 0x77, 0xd9, 0xbc, 0xa3, 0xdc, 0x06, 0x3e, 0xa5, 0x89, 0xfc, 0xbe,
  0x3f, 0xe8, 0x69, 0xbb, 0xe4, 0xb6, 0xbf, 0x3d, 0x85, 0x09, 0x4d, 0x3d,
  0x9c, 0x53, 0xa8, 0xbb, 0x13, 0x53, 0x6c, 0xbb, 0x01, 0x51, 0x15, 0x3d,
  0xd5, 0xb7, 0xc1, 0x3d, 0xe6, 0x10, 0x27, 0xbd, 0xf5, 0x12, 0x43, 0x3e,
  0xb9, 0x68, 0xf3, 0x3e, 0x6e, 0x07, 0x81, 0xbe, 0xb5, 0x73, 0x6e, 0xbe,
  0x05, 0x1a, 0x2e, 0xbe, 0xfa, 0x30, 0xe3, 0x3d, 0x97, 0xe3, 0x8d, 0xbe,
  0x7e, 0xd5, 0x09, 0xbf, 0xc9, 0x9d, 0xbb, 0x3d, 0xe5, 0x02, 0x68, 0x3e,
  0x47, 0xda, 0x8e, 0x3d, 0x10, 0xcb, 0xb6, 0xbb, 0x45, 0xf3, 0xd9, 0xbb,
  0x40, 0x27, 0x3c, 0x3e, 0x5a, 0x0b, 0x50, 0x3e, 0x21, 0x11, 0x35, 0xbe,
  0x75, 0xe8, 0x02, 0x3f, 0xf2, 0x6c, 0xec, 0x3e, 0x17, 0x31, 0x87, 0xbe,
  0x41, 0x3d, 0x07, 0xbf, 0x89, 0x4b, 0xb4, 0xbe, 0x27, 0xb5, 0xe7, 0x3d,
  0x08, 0x9e, 0x07, 0xbe, 0xc7, 0x19, 0x0e, 0xbf, 0xf7, 0xc2, 0xcb, 0xbd,
  0x5a, 0x7f, 0xa5, 0xbd, 0x45, 0x03, 0x1e, 0x3d, 0x43, 0xa4, 0x77, 0xbd,
  0x60, 0xf7, 0x92, 0xbe, 0x3f, 0x50, 0x51, 0x3e, 0x26, 0xa3, 0x8f, 0x3d,
  0x7e, 0x25, 0x6b, 0xbe, 0xf9, 0x79, 0xd3, 0x3d, 0x3a, 0x8f, 0x64, 0x3e,
  0x8a, 0x6a, 0x90, 0xbd, 0xe2, 0xe5, 0x74, 0xbe, 0x7e, 0x9e, 0x31, 0x3c,
  0x63, 0x55, 0x8b, 0xbd, 0x47, 0x51, 0x73, 0x3c, 0xa8, 0x58, 0xd4, 0x3e,
  0x75, 0x38, 0x71, 0x3c, 0x62, 0xc4, 0xc9, 0xbd, 0xa3, 0xc7, 0xb3, 0x3b,
  0x50, 0x37, 0x35, 0x3b, 0x2e, 0xb5, 0xe0, 0xbd, 0xee, 0x4b, 0x3e, 0xbb,
  0x36, 0xca, 0xe1, 0x3c, 0x67, 0x5c, 0x05, 0x3c, 0x9a, 0x8a, 0x27, 0xbd,
  0x09, 0x8d, 0x6d, 0x3b, 0xb8, 0x0e, 0xaa, 0x3d, 0xef, 0xf0, 0x47, 0x3d,
  0x95, 0x06, 0x88, 0xbe, 0x90, 0x4a, 0x92, 0xbe, 0x4b, 0xf4, 0x96, 0x3c,
  0xb6, 0x95, 0xc4, 0xbd, 0x4e, 0xd5, 0x1e, 0xbe, 0xeb, 0x0e, 0x44, 0x3b,
  0x82, 0x1e, 0xb7, 0xbe, 0x56, 0x4d, 0x1f, 0xbe, 0x45, 0x73, 0x51, 0x3c,
  0x2a, 0x85, 0xc6, 0xbc, 0xfb, 0xad, 0x29, 0x3d, 0x20, 0x92, 0x3f, 0xbe,
  0x8a, 0xc3, 0x0e, 0xbe, 0x41, 0x0e, 0x3b, 0xbd, 0x0a, 0x48, 0xfd, 0x3c,
  0xb1, 0xd9, 0x00, 0x3d, 0x6f, 0x0a, 0xc1, 0xbd, 0x5f, 0x38, 0xac, 0xbe,
  0x7d, 0x7b, 0x3a, 0x3e, 0xa2, 0x36, 0xc0, 0xbd, 0x7a, 0xb3, 0x01, 0xbe,
  0x59, 0x78, 0x8c, 0x3c, 0xf7, 0x9c, 0x87, 0xbe, 0x2d, 0x53, 0x7c, 0xbe,
  0x64, 0x27, 0xd6, 0x3d, 0x02, 0x53, 0x6f, 0xbe, 0x77, 0x99, 0x56, 0xbe,
  0x3d, 0x5e, 0x3c, 0xbe, 0xc6, 0x11, 0xee, 0x3d, 0x15, 0xfd, 0x5f, 0xbd,
  0x34, 0xc4, 0x53, 0xbe, 0xb0, 0x8a, 0x2a, 0xbe, 0x9b, 0x7c, 0x33, 0xbe,
  0x94, 0xf7, 0x27, 0xbe, 0xdd, 0x4a, 0x6a, 0x3d, 0x4f, 0x5e, 0x20, 0x3e,
  0x50, 0x64, 0x42, 0x3e, 0x85, 0x71, 0x04, 0x3e, 0x5b, 0x84, 0x8c, 0xbe,
  0xe2, 0x8e, 0x53, 0xbe, 0xbf, 0xd8, 0x9e, 0x3d, 0x36, 0xd0, 0xf9, 0xbc,
  0x7e, 0x05, 0xc7, 0xbd, 0x1c, 0x65, 0x6c, 0xbd, 0x8c, 0x7e, 0x08, 0x3d,
  0xf8, 0xf7, 0x58, 0xbe, 0x90, 0x24, 0xd4, 0xbd, 0xd7, 0xdc, 0xd3, 0xbd,
  0xc1, 0xf3, 0x41, 0xbc, 0x4a, 0x33, 0xbd, 0xbe, 0x73, 0x9b, 0x82, 0xbd,
  0x1d, 0xb0, 0xf8, 0xbd, 0x68, 0x7a, 0x2e, 0x3e, 0x96, 0x21, 0x6e, 0x3d,
  0xba, 0x4e, 0x0e, 0xbe, 0xf6, 0xf8, 0xd9, 0xbc, 0x85, 0x6b, 0x7c, 0xbd,
  0xbe, 0x8c, 0x13, 0xbe, 0x5c, 0x94, 0x50, 0xbe, 0xa0, 0x3e, 0xd9, 0x3d,
  0x9c, 0xe4, 0x5f, 0xbd, 0x13, 0xd9, 0x02, 0x3c, 0xf3, 0xa6, 0xc9, 0xbd,
  0x66, 0x27, 0x37, 0x3c, 0x3f, 0xeb, 0xb1, 0xbd, 0x01, 0xea, 0x58, 0xbc,
  0xe7, 0x22, 0xe9, 0x3d, 0xda, 0x39, 0x4e, 0xbc, 0xf7, 0x0c, 0xf8, 0x3d,
  0x3b, 0x86, 0x33, 0xbe, 0xfb, 0xf1, 0x30, 0xbe, 0xf9, 0xc1, 0x09, 0xbe,
  0x6a, 0xff, 0x61, 0x3d, 0xeb, 0x00, 0x5d, 0xbe, 0xba, 0xac, 0x9d, 0xbd,
  0x10, 0x36, 0x2b, 0x3d, 0x73, 0x90, 0x2c, 0x3b, 0x56, 0xc2, 0x54, 0xbc,
  0x2c, 0x8e, 0x26, 0x3d, 0xd7, 0xdb, 0x85, 0x3d, 0x36, 0x84, 0x07, 0xbe,
  0xdc, 0xeb, 0xba, 0xbe, 0x5a, 0xe0, 0x9f, 0x3b, 0xda, 0x14, 0x04, 0x3b,
  0x9e, 0x4b, 0xa3, 0xbd, 0xbd, 0x65, 0x88, 0xbe, 0x75, 0x91, 0x64, 0xbe,
  0xdd, 0x1f, 0xa6, 0xbd, 0x9a, 0xac, 0x7f, 0xbd, 0xc1, 0x0b, 0x64, 0xbe,
  0xd8, 0x09, 0x0b, 0x3e, 0x60, 0x51, 0xef, 0xbc, 0x8d, 0x4c, 0xc1, 0x3d,
  0x78, 0x11, 0xb5, 0xbc, 0x90, 0xb7, 0x10, 0xbd, 0x9a, 0x15, 0x85, 0xbe,
  0x36, 0x77, 0xa9, 0x3c, 0x4e, 0x3a, 0xa9, 0xbd, 0xba, 0x0f, 0x6d, 0xbd,
  0x73, 0xc0, 0x4f, 0xbd, 0xf4, 0x4a, 0xe7, 0xbd, 0x71, 0xba, 0x3e, 0xbe,
  0xb7, 0x61, 0xaf, 0xbe, 0x4a, 0x30, 0x7b, 0xbe, 0xe7, 0x62, 0x3d, 0xbd,
  0x9b, 0xf1, 0xb8, 0x3d, 0xb6, 0x0a, 0x89, 0xbd, 0x6d, 0x3f, 0xf0, 0xbd,
  0xaf, 0xf0, 0x75, 0x3d, 0x12, 0xf3, 0x72, 0xbe, 0x48, 0xf6, 0x67, 0x3e,
  0xba, 0xe4, 0x93, 0x3c, 0x62, 0x90, 0xc1, 0x3d, 0x34, 0x28, 0x85, 0xbe,
  0x80, 0xf8, 0x22, 0x3e, 0xa4, 0xf0, 0x05, 0x3d, 0x28, 0xff, 0x48, 0xbe,
  0xca, 0x4e, 0xcf, 0xbe, 0xa2, 0xc6, 0x46, 0xbd, 0x4e, 0x7e, 0xdd, 0x3d,
  0x60, 0x26, 0xd4, 0x3d, 0xe7, 0xce, 0xfb, 0xbe, 0xc2, 0x8f, 0xcc, 0xbe,
  0x3a, 0x4c, 0x23, 0xbe, 0xb0, 0xa9, 0x1e, 0xbe, 0xfe, 0x61, 0xa9, 0xbe,
  0xf4, 0xdd, 0x64, 0x3e, 0x82, 0x7c, 0x49, 0x3e, 0x83, 0xdf, 0x0c, 0xbd,
  0xf5, 0x49, 0xa9, 0xbd, 0x16, 0xba, 0x1a, 0x3c, 0x0f, 0xc5, 0x52, 0xbd,
  0x11, 0x50, 0x8b, 0xbe, 0x66, 0x09, 0x90, 0xbe, 0x05, 0xe2, 0x1a, 0xbd,
  0x28, 0xd5, 0xc6, 0x3d, 0x17, 0xf8, 0x33, 0x3d, 0x84, 0x9e, 0x60, 0xbe,
  0xc1, 0x7f, 0x06, 0xbe, 0xb2, 0x44, 0x5f, 0x3e, 0x8d, 0xf7, 0xd5, 0x3c,
  0x65, 0x52, 0x9b, 0xbe, 0xd9, 0x1d, 0x80, 0x3e, 0xec, 0x0d, 0xb4, 0x3e,
  0x7e, 0x7e, 0x29, 0x3e, 0xb5, 0xa9, 0x67, 0x3e, 0x81, 0x8b, 0xa3, 0xbd,
  0x99, 0xcd, 0xdb, 0x3d, 0x31, 0xd5, 0x67, 0xbe, 0x42, 0xaa, 0x29, 0xbe,
  0xcf, 0x76, 0x17, 0xbd, 0xbe, 0x18, 0xb9, 0x3d, 0xe7, 0x3c, 0x20, 0x3e,
  0xec, 0x0e, 0xe9, 0xbd, 0x5d, 0xa8, 0xe0, 0x3d, 0xa2, 0x9a, 0xd8, 0x3d,
  0x44, 0xda, 0x9a, 0x3e, 0xcc, 0x33, 0x57, 0xbe, 0xfb, 0x78, 0x8e, 0x3e,
  0x9d, 0x3d, 0xca, 0x3e, 0x32, 0x88, 0x38, 0x3e, 0x8f, 0xa7, 0x14, 0x3e,
  0x3b, 0xfa, 0x28, 0xbd, 0x02, 0xd1, 0x47, 0x3e, 0xbd, 0x41, 0xce, 0x3c,
  0x48, 0x84, 0x62, 0xbe, 0x6f, 0xf0, 0x1c, 0x3c, 0xa4, 0x7e, 0xb0, 0x3b,
  0xb3, 0xe2, 0x97, 0x3e, 0x31, 0xab, 0x7d, 0xbe, 0x33, 0x58, 0x4c, 0x3d,
  0xc6, 0x09, 0x48, 0xbd, 0xcb, 0x58, 0x58, 0xbb, 0x74, 0xff, 0x2a, 0xbe,
  0xfd, 0x44, 0x49, 0x3e, 0x5d, 0xb6, 0x86, 0x3e, 0x4c, 0x51, 0x38, 0x3d,
  0xf9, 0x29, 0xcd, 0xbd, 0x64, 0xcc, 0x5b, 0x3e, 0x85, 0x9a, 0x83, 0xbd,
  0xa6, 0x19, 0xfe, 0xbe, 0x9c, 0x45, 0x09, 0xbf, 0xda, 0xa2, 0x1b, 0xbc,
  0xc0, 0x1d, 0x6b, 0x3e, 0x82, 0xa3, 0x6e, 0x3e, 0x5a, 0x6e, 0x5a, 0xbe,
  0xab, 0xdb, 0x4b, 0xbe, 0xcd, 0x2d, 0x41, 0xbf, 0x2a, 0xc3, 0x60, 0xbd,
  0xf4, 0x33, 0x8e, 0xbe, 0x75, 0xdf, 0xb9, 0x3c, 0xba, 0x03, 0x0d, 0x3e,
  0x26, 0xd4, 0x9f, 0x3e, 0x38, 0xfe, 0x79, 0xbe, 0x5a, 0xad, 0x77, 0x3e,
  0x7e, 0xe6, 0x93, 0xbd, 0x85, 0x18, 0xaa, 0xbe, 0x0c, 0x14, 0xc5, 0xbe,
  0x01, 0x1a, 0xfc, 0xbc, 0x14, 0xb8, 0x6b, 0x3d, 0x99, 0x87, 0x2e, 0x3e,
  0xf8, 0x38, 0xc0, 0xbe, 0x7d, 0xf2, 0x8d, 0xbe, 0xa0, 0x4b, 0xa2, 0xbe,
  0x89, 0x42, 0xbf, 0xbe, 0x0c, 0x20, 0xaa, 0xbe, 0x3e, 0x00, 0xad, 0x3d,
  0x14, 0x1e, 0x41, 0x3e, 0xb1, 0x42, 0xb0, 0xbd, 0xdc, 0x6a, 0xaf, 0xbd,
  0x42, 0xab, 0xa3, 0x3e, 0xdd, 0x19, 0x0b, 0xbe, 0x6c, 0x5a, 0x0a, 0xbe,
  0x8b, 0xea, 0x14, 0x3d, 0xdc, 0x69, 0xd3, 0x3c, 0xb4, 0x69, 0x4b, 0xbc,
  0x33, 0xd5, 0xbc, 0x3d, 0x32, 0xcf, 0xf9, 0x3d, 0xd6, 0x07, 0x34, 0xbe,
  0x25, 0xed, 0x71, 0xbe, 0x9b, 0x1c, 0x8a, 0xbe, 0x5c, 0xe3, 0x3d, 0xbd,
  0x46, 0xfe, 0xff, 0xff, 0x10, 0x00, 0x00, 0x00, 0x05, 0x00, 0x00, 0x00,
  0x14, 0x00, 0x00, 0x00, 0x2c, 0x00, 0x00, 0x00, 0x02, 0x00, 0x00, 0x00,
  0x10, 0x00, 0x00, 0x00, 0x70, 0x00, 0x00, 0x00, 0x17, 0x00, 0x00, 0x00,
  0x73, 0x65, 0x71, 0x75, 0x65, 0x6e, 0x74, 0x69, 0x61, 0x6c, 0x2f, 0x64,
  0x65, 0x6e, 0x73, 0x65, 0x2f, 0x4d, 0x61, 0x74, 0x4d, 0x75, 0x6c, 0x00,
  0x34, 0xfe, 0xff, 0xff, 0x2a, 0xff, 0xff, 0xff, 0x04, 0x00, 0x00, 0x00,
  0x08, 0x00, 0x00, 0x00, 0xff, 0xff, 0xff, 0xff, 0x70, 0x00, 0x00, 0x00,
  0x00, 0x00, 0x0e, 0x00, 0x18, 0x00, 0x08, 0x00, 0x07, 0x00, 0x0c, 0x00,
  0x10, 0x00, 0x14, 0x00, 0x0e, 0x00, 0x00, 0x00, 0x00, 0x00, 0x00, 0x02,
  0x10, 0x00, 0x00, 0x00, 0x04, 0x00, 0x00, 0x00, 0x10, 0x00, 0x00, 0x00,
  0x2c, 0x00, 0x00, 0x00, 0x01, 0x00, 0x00, 0x00, 0x02, 0x00, 0x00, 0x00,
  0x18, 0x00, 0x00, 0x00, 0x73, 0x65, 0x71, 0x75, 0x65, 0x6e, 0x74, 0x69,
  0x61, 0x6c, 0x2f, 0x66, 0x6c, 0x61, 0x74, 0x74, 0x65, 0x6e, 0x2f, 0x43,
  0x6f, 0x6e, 0x73, 0x74, 0x00, 0x00, 0x00, 0x00, 0x9c, 0xfe, 0xff, 0xff,
  0x92, 0xff, 0xff, 0xff, 0x04, 0x00, 0x00, 0x00, 0x10, 0x00, 0x00, 0x00,
  0x52, 0xfd, 0x48, 0xbf, 0x75, 0x40, 0x47, 0xc0, 0xdc, 0xbe, 0x3d, 0xc1,
  0x1b, 0x0f, 0x79, 0x40, 0x0a, 0xff, 0xff, 0xff, 0x10, 0x00, 0x00, 0x00,
  0x03, 0x00, 0x00, 0x00, 0x10, 0x00, 0x00, 0x00, 0x3c, 0x00, 0x00, 0x00,
  0x01, 0x00, 0x00, 0x00, 0x04, 0x00, 0x00, 0x00, 0x29, 0x00, 0x00, 0x00,
  0x73, 0x65, 0x71, 0x75, 0x65, 0x6e, 0x74, 0x69, 0x61, 0x6c, 0x2f, 0x64,
  0x65, 0x6e, 0x73, 0x65, 0x5f, 0x31, 0x2f, 0x42, 0x69, 0x61, 0x73, 0x41,
  0x64, 0x64, 0x2f, 0x52, 0x65, 0x61, 0x64, 0x56, 0x61, 0x72, 0x69, 0x61,
  0x62, 0x6c, 0x65, 0x4f, 0x70, 0x00, 0x00, 0x00, 0x60, 0xff, 0xff, 0xff,
  0x00, 0x00, 0x06, 0x00, 0x08, 0x00, 0x04, 0x00, 0x06, 0x00, 0x00, 0x00,
  0x04, 0x00, 0x00, 0x00, 0x40, 0x00, 0x00, 0x00, 0x98, 0xbc, 0xc0, 0xbf,
  0xf4, 0x64, 0x4f, 0xbf, 0x40, 0x95, 0x88, 0xbd, 0xff, 0x6b, 0x0f, 0xbe,
  0xe5, 0xf6, 0x3b, 0xbe, 0x23, 0x74, 0x81, 0xbf, 0x1b, 0x95, 0xb6, 0xbe,
  0xb7, 0x47, 0xaf, 0x3e, 0xe9, 0x32, 0xb7, 0xbe, 0x6d, 0x66, 0x69, 0xbe,
  0xba, 0x22, 0x62, 0xbe, 0x6a, 0x25, 0x20, 0xbe, 0x1e, 0x3b, 0x31, 0xbe,
  0x55, 0x52, 0x6e, 0x40, 0xc1, 0x3e, 0xc5, 0xbe, 0xfe, 0x4c, 0x99, 0xbf,
  0xae, 0xff, 0xff, 0xff, 0x10, 0x00, 0x00, 0x00, 0x02, 0x00, 0x00, 0x00,
  0x10, 0x00, 0x00, 0x00, 0x3c, 0x00, 0x00, 0x00, 0x01, 0x00, 0x00, 0x00,
  0x10, 0x00, 0x00, 0x00, 0x27, 0x00, 0x00, 0x00, 0x73, 0x65, 0x71, 0x75,
  0x65, 0x6e, 0x74, 0x69, 0x61, 0x6c, 0x2f, 0x64, 0x65, 0x6e, 0x73, 0x65,
  0x2f, 0x42, 0x69, 0x61, 0x73, 0x41, 0x64, 0x64, 0x2f, 0x52, 0x65, 0x61,
  0x64, 0x56, 0x61, 0x72, 0x69, 0x61, 0x62, 0x6c, 0x65, 0x4f, 0x70, 0x00,
  0x04, 0x00, 0x06, 0x00, 0x04, 0x00, 0x00, 0x00, 0x00, 0x00, 0x0e, 0x00,
  0x14, 0x00, 0x04, 0x00, 0x00, 0x00, 0x08, 0x00, 0x0c, 0x00, 0x10, 0x00,
  0x0e, 0x00, 0x00, 0x00, 0x10, 0x00, 0x00, 0x00, 0x01, 0x00, 0x00, 0x00,
  0x1c, 0x00, 0x00, 0x00, 0x2c, 0x00, 0x00, 0x00, 0x04, 0x00, 0x00, 0x00,
  0x01, 0x00, 0x00, 0x00, 0x40, 0x00, 0x00, 0x00, 0x03, 0x00, 0x00, 0x00,
  0x01, 0x00, 0x00, 0x00, 0x0c, 0x00, 0x00, 0x00, 0x63, 0x6f, 0x6e, 0x76,
  0x32, 0x64, 0x5f, 0x69, 0x6e, 0x70, 0x75, 0x74, 0x00, 0x00, 0x00, 0x00,
  0xfc, 0xff, 0xff, 0xff, 0x04, 0x00, 0x04, 0x00, 0x04, 0x00, 0x00, 0x00
};

unsigned int model_tflite_len = 12384;// Fill the int in `src/model.cc` here